{
  "version": "1.0",
  "truncation": null,
  "padding": null,
  "added_tokens": [
    {
      "id": 0,
      "content": "<|unk|>",
      "single_word": false,
      "lstrip": false,
      "rstrip": false,
      "normalized": false,
      "special": true
    },
    {
      "id": 1,
      "content": "<|pad|>",
      "single_word": false,
      "lstrip": false,
      "rstrip": false,
      "normalized": false,
      "special": true
    },
    {
      "id": 2,
      "content": "<|user|>",
      "single_word": false,
      "lstrip": false,
      "rstrip": false,
      "normalized": false,
      "special": true
    },
    {
      "id": 3,
      "content": "<|assistant|>",
      "single_word": false,
      "lstrip": false,
      "rstrip": false,
      "normalized": false,
      "special": true
    },
    {
      "id": 4,
      "content": "<|end|>",
      "single_word": false,
      "lstrip": false,
      "rstrip": false,
      "normalized": false,
      "special": true
    }
  ],
  "normalizer": null,
  "pre_tokenizer": {
    "type": "ByteLevel",
    "add_prefix_space": false,
    "trim_offsets": true,
    "use_regex": true
  },
  "post_processor": null,
  "decoder": {
    "type": "ByteLevel",
    "add_prefix_space": true,
    "trim_offsets": true,
    "use_regex": true
  },
  "model": {
    "type": "BPE",
    "dropout": null,
    "unk_token": "<|unk|>",
    "continuing_subword_prefix": null,
    "end_of_word_suffix": null,
    "fuse_unk": false,
    "byte_fallback": false,
    "ignore_merges": false,
    "vocab": {
      "<|unk|>": 0,
      "<|pad|>": 1,
      "<|user|>": 2,
      "<|assistant|>": 3,
      "<|end|>": 4,
      "!": 5,
      "\"": 6,
      "#": 7,
      "$": 8,
      "%": 9,
      "&": 10,
      "'": 11,
      "(": 12,
      ")": 13,
      "*": 14,
      "+": 15,
      ",": 16,
      "-": 17,
      ".": 18,
      "/": 19,
      "0": 20,
      "1": 21,
      "2": 22,
      "3": 23,
      "4": 24,
      "5": 25,
      "6": 26,
      "7": 27,
      "8": 28,
      "9": 29,
      ":": 30,
      ";": 31,
      "<": 32,
      "=": 33,
      ">": 34,
      "?": 35,
      "@": 36,
      "A": 37,
      "B": 38,
      "C": 39,
      "D": 40,
      "E": 41,
      "F": 42,
      "G": 43,
      "H": 44,
      "I": 45,
      "J": 46,
      "K": 47,
      "L": 48,
      "M": 49,
      "N": 50,
      "O": 51,
      "P": 52,
      "Q": 53,
      "R": 54,
      "S": 55,
      "T": 56,
      "U": 57,
      "V": 58,
      "W": 59,
      "X": 60,
      "Y": 61,
      "Z": 62,
      "[": 63,
      "\\": 64,
      "]": 65,
      "^": 66,
      "_": 67,
      "`": 68,
      "a": 69,
      "b": 70,
      "c": 71,
      "d": 72,
      "e": 73,
      "f": 74,
      "g": 75,
      "h": 76,
      "i": 77,
      "j": 78,
      "k": 79,
      "l": 80,
      "m": 81,
      "n": 82,
      "o": 83,
      "p": 84,
      "q": 85,
      "r": 86,
      "s": 87,
      "t": 88,
      "u": 89,
      "v": 90,
      "w": 91,
      "x": 92,
      "y": 93,
      "z": 94,
      "{": 95,
      "|": 96,
      "}": 97,
      "~": 98,
      "¡": 99,
      "¢": 100,
      "£": 101,
      "¤": 102,
      "¥": 103,
      "¦": 104,
      "§": 105,
      "¨": 106,
      "©": 107,
      "ª": 108,
      "«": 109,
      "¬": 110,
      "®": 111,
      "¯": 112,
      "°": 113,
      "±": 114,
      "²": 115,
      "³": 116,
      "´": 117,
      "µ": 118,
      "¶": 119,
      "·": 120,
      "¸": 121,
      "¹": 122,
      "º": 123,
      "»": 124,
      "¼": 125,
      "½": 126,
      "¾": 127,
      "¿": 128,
      "Â": 129,
      "Ã": 130,
      "Ä": 131,
      "Å": 132,
      "Æ": 133,
      "Ç": 134,
      "È": 135,
      "É": 136,
      "Ê": 137,
      "Ë": 138,
      "Ì": 139,
      "Í": 140,
      "Î": 141,
      "Ï": 142,
      "Ð": 143,
      "Ñ": 144,
      "Ò": 145,
      "Ó": 146,
      "Ô": 147,
      "Õ": 148,
      "Ö": 149,
      "×": 150,
      "Ø": 151,
      "Ù": 152,
      "Ú": 153,
      "Û": 154,
      "Ü": 155,
      "ß": 156,
      "à": 157,
      "á": 158,
      "â": 159,
      "ã": 160,
      "ä": 161,
      "å": 162,
      "æ": 163,
      "ç": 164,
      "è": 165,
      "é": 166,
      "ê": 167,
      "ë": 168,
      "ì": 169,
      "í": 170,
      "î": 171,
      "ï": 172,
      "ð": 173,
      "ô": 174,
      "Ā": 175,
      "ă": 176,
      "Ĉ": 177,
      "ĉ": 178,
      "Ċ": 179,
      "č": 180,
      "đ": 181,
      "ē": 182,
      "Ę": 183,
      "ę": 184,
      "Ě": 185,
      "ě": 186,
      "Ġ": 187,
      "ġ": 188,
      "Ģ": 189,
      "ģ": 190,
      "Ĥ": 191,
      "ĥ": 192,
      "Ħ": 193,
      "ħ": 194,
      "Ĩ": 195,
      "ĩ": 196,
      "Ī": 197,
      "ī": 198,
      "Ĭ": 199,
      "ĭ": 200,
      "Į": 201,
      "į": 202,
      "İ": 203,
      "ı": 204,
      "Ĳ": 205,
      "ĳ": 206,
      "Ĵ": 207,
      "ĵ": 208,
      "Ķ": 209,
      "ķ": 210,
      "ĸ": 211,
      "Ĺ": 212,
      "ĺ": 213,
      "Ļ": 214,
      "ļ": 215,
      "Ľ": 216,
      "ľ": 217,
      "Ŀ": 218,
      "ŀ": 219,
      "Ł": 220,
      "ł": 221,
      "Ń": 222,
      "Ġt": 223,
      "Ġa": 224,
      "in": 225,
      "he": 226,
      "re": 227,
      "Ġs": 228,
      "on": 229,
      "čĊ": 230,
      "Ġthe": 231,
      "er": 232,
      "nd": 233,
      "at": 234,
      "Ġc": 235,
      "or": 236,
      "es": 237,
      "en": 238,
      "Ġw": 239,
      "ou": 240,
      "ing": 241,
      "it": 242,
      "Ġp": 243,
      "Ġand": 244,
      "an": 245,
      "Ġf": 246,
      "al": 247,
      "Ġo": 248,
      "is": 249,
      "Ġm": 250,
      "Ġto": 251,
      "Ġb": 252,
      "ed": 253,
      "Ġin": 254,
      "ar": 255,
      "ion": 256,
      "Ġof": 257,
      "ic": 258,
      "Ġd": 259,
      "as": 260,
      "le": 261,
      "ro": 262,
      "Ġh": 263,
      "us": 264,
      "Ġe": 265,
      "ent": 266,
      "Ġth": 267,
      "om": 268,
      "ve": 269,
      "Ġre": 270,
      "ct": 271,
      "il": 272,
      "Ġl": 273,
      "Ġy": 274,
      "et": 275,
      "Ġg": 276,
      "Ġyou": 277,
      "ra": 278,
      "im": 279,
      "ĠT": 280,
      "id": 281,
      "ow": 282,
      "Ġn": 283,
      "ce": 284,
      "Ġfor": 285,
      "ch": 286,
      "ĠĠ": 287,
      "ation": 288,
      "el": 289,
      "Ġst": 290,
      "Ġhe": 291,
      "ol": 292,
      "Ġthat": 293,
      "st": 294,
      "ig": 295,
      "Ġon": 296,
      "ith": 297,
      "Ġpro": 298,
      "ers": 299,
      "ir": 300,
      "ly": 301,
      "ut": 302,
      "Ġbe": 303,
      "ot": 304,
      "ĠI": 305,
      "Ġwith": 306,
      "am": 307,
      "Ġis": 308,
      "ad": 309,
      "ur": 310,
      "if": 311,
      "ay": 312,
      "ist": 313,
      "ul": 314,
      "ant": 315,
      "|>": 316,
      "<|": 317,
      "ĠS": 318,
      "ess": 319,
      "ver": 320,
      "se": 321,
      "Ġor": 322,
      "un": 323,
      "ĠA": 324,
      "Ġcan": 325,
      "Ġcon": 326,
      "ure": 327,
      "Ġex": 328,
      "ate": 329,
      "ĠC": 330,
      "Ġit": 331,
      "Ġas": 332,
      "Ġan": 333,
      "ag": 334,
      "Ġal": 335,
      "ment": 336,
      "ore": 337,
      "ke": 338,
      "ĠThe": 339,
      "pp": 340,
      "ab": 341,
      "Ġare": 342,
      "Ġsu": 343,
      "out": 344,
      "Ġcom": 345,
      "ive": 346,
      "Ġus": 347,
      "Ġwh": 348,
      "ies": 349,
      "Ġv": 350,
      "ere": 351,
      "ld": 352,
      "oo": 353,
      "her": 354,
      "ity": 355,
      "iv": 356,
      "pe": 357,
      "'s": 358,
      "Ġyour": 359,
      "ass": 360,
      "ac": 361,
      "ter": 362,
      "Ġde": 363,
      "Ġch": 364,
      "qu": 365,
      "ill": 366,
      "oc": 367,
      "ort": 368,
      "Ġha": 369,
      "est": 370,
      "Ġen": 371,
      "ud": 372,
      "ain": 373,
      "Ġtheir": 374,
      "igh": 375,
      "ust": 376,
      "our": 377,
      "em": 378,
      "Ġne": 379,
      "ĠH": 380,
      "Ġse": 381,
      "ial": 382,
      "ĠM": 383,
      "Ġwas": 384,
      "ome": 385,
      "op": 386,
      "th": 387,
      "Ġad": 388,
      "Ġsh": 389,
      "Ġim": 390,
      "Ġle": 391,
      "ect": 392,
      "ri": 393,
      "ide": 394,
      "ĠP": 395,
      "ĠB": 396,
      "ould": 397,
      "iz": 398,
      "ions": 399,
      "all": 400,
      "res": 401,
      "um": 402,
      "pl": 403,
      "rou": 404,
      "nt": 405,
      "Ġmore": 406,
      "Ġr": 407,
      "art": 408,
      "Ġwor": 409,
      "os": 410,
      "ĠĠĠĠ": 411,
      "Ġab": 412,
      "Ġinc": 413,
      "pt": 414,
      "istant": 415,
      "du": 416,
      "rom": 417,
      "Ġte": 418,
      "Ġpl": 419,
      "user": 420,
      "age": 421,
      "assistant": 422,
      "per": 423,
      "king": 424,
      "ight": 425,
      "Ġhave": 426,
      "Ġimp": 427,
      "ff": 428,
      "Ġint": 429,
      "and": 430,
      "act": 431,
      "Ġwe": 432,
      "Ġby": 433,
      "Ġat": 434,
      "ĠW": 435,
      "Ġfe": 436,
      "Ġu": 437,
      "end": 438,
      "are": 439,
      "od": 440,
      "ip": 441,
      "Ġher": 442,
      "gh": 443,
      "ĠD": 444,
      "Ġfrom": 445,
      "able": 446,
      "ĠF": 447,
      "orm": 448,
      "Ġme": 449,
      "ake": 450,
      "reat": 451,
      "ĠR": 452,
      "ge": 453,
      "ĠE": 454,
      "ine": 455,
      "og": 456,
      "ast": 457,
      "ign": 458,
      "Ġhel": 459,
      "Ġcomp": 460,
      "ie": 461,
      "Ġhelp": 462,
      "cc": 463,
      "ther": 464,
      "Ġsome": 465,
      "Ġthey": 466,
      "ations": 467,
      "ance": 468,
      "form": 469,
      "âĢ": 470,
      "ru": 471,
      "ind": 472,
      "ks": 473,
      "Ġcont": 474,
      "Ġ1": 475,
      "ell": 476,
      "ard": 477,
      "Ġprov": 478,
      "so": 479,
      "ry": 480,
      "Ġj": 481,
      "ĠTh": 482,
      "ach": 483,
      "ĠL": 484,
      "Ġun": 485,
      "ence": 486,
      "ult": 487,
      "ost": 488,
      "ical": 489,
      "Ġhas": 490,
      "Ġk": 491,
      "ail": 492,
      "Ġadd": 493,
      "ep": 494,
      "vel": 495,
      "Ġhow": 496,
      "Ġres": 497,
      "ack": 498,
      "av": 499,
      "Ġabout": 500,
      "ous": 501,
      "Ġcl": 502,
      "ice": 503,
      "The": 504,
      "Ġthem": 505,
      "ĠG": 506,
      "Ġtra": 507,
      "Ġalso": 508,
      "ition": 509,
      "Ġall": 510,
      "Ġhad": 511,
      "ich": 512,
      "Ġapp": 513,
      "Ġother": 514,
      "Ġ(": 515,
      "ase": 516,
      "ces": 517,
      "ood": 518,
      "Ġdis": 519,
      "Ġwill": 520,
      "Ġem": 521,
      "ific": 522,
      "Ġthis": 523,
      "ents": 524,
      "ime": 525,
      "ated": 526,
      "lud": 527,
      "Ġ\"": 528,
      "Ġ2": 529,
      "ans": 530,
      "ress": 531,
      "Ġout": 532,
      "ace": 533,
      "Ġbut": 534,
      "Ġli": 535,
      "ong": 536,
      "Ġman": 537,
      "ite": 538,
      "ĠThis": 539,
      "Ġsp": 540,
      "Ġnot": 541,
      "Ġup": 542,
      "ĠO": 543,
      "ire": 544,
      "Ġwhe": 545,
      "ally": 546,
      "Ġshe": 547,
      "Ġar": 548,
      "Ġspe": 549,
      "ction": 550,
      "Ġinclud": 551,
      "Ġsuch": 552,
      "ĠN": 553,
      "ne": 554,
      "ĠU": 555,
      "ark": 556,
      "ile": 557,
      "ors": 558,
      "Ġsc": 559,
      "ful": 560,
      "Ġev": 561,
      "Ġrec": 562,
      "ib": 563,
      "ak": 564,
      "Ġwhich": 565,
      "Ġuse": 566,
      "get": 567,
      "ĠIn": 568,
      "Ġdes": 569,
      "Ġover": 570,
      "ia": 571,
      "fere": 572,
      "Ġ-": 573,
      "ĠĠĠ": 574,
      "Ġany": 575,
      "Ġcomm": 576,
      "one": 577,
      "ater": 578,
      "ap": 579,
      "Ġso": 580,
      "Ġmy": 581,
      "als": 582,
      "Ġqu": 583,
      "Ġro": 584,
      "ĠJ": 585,
      "rough": 586,
      "Ġhis": 587,
      "Ġwho": 588,
      "les": 589,
      "ory": 590,
      "ue": 591,
      "ound": 592,
      "ang": 593,
      "Ġpe": 594,
      "Ġcre": 595,
      "Ġacc": 596,
      "ame": 597,
      "Ġnew": 598,
      "ove": 599,
      "Ġdif": 600,
      "ities": 601,
      "ĠIt": 602,
      "ings": 603,
      "Ġlike": 604,
      "ram": 605,
      "Ġoff": 606,
      "Ġind": 607,
      "Ġeff": 608,
      "erv": 609,
      "Ġwork": 610,
      "Ġtime": 611,
      "Ġexam": 612,
      "Ġprovide": 613,
      "Ġcol": 614,
      "Ġper": 615,
      "Ġpre": 616,
      "ience": 617,
      "Ġexper": 618,
      "Ġinto": 619,
      "Ġfl": 620,
      "ments": 621,
      "Ġprodu": 622,
      "ord": 623,
      "ount": 624,
      "ary": 625,
      "Ġmake": 626,
      "ild": 627,
      "ook": 628,
      "alth": 629,
      "Ġits": 630,
      "ays": 631,
      "Ġwere": 632,
      "Ġcould": 633,
      "âĢĻ": 634,
      "bs": 635,
      "lic": 636,
      "chn": 637,
      "Ġgo": 638,
      "pport": 639,
      "ric": 640,
      "ear": 641,
      "oy": 642,
      "now": 643,
      "Ġpart": 644,
      "Ġspec": 645,
      "Ġthrough": 646,
      "ber": 647,
      "very": 648,
      "ures": 649,
      "ract": 650,
      "Ġdo": 651,
      "xt": 652,
      "round": 653,
      "Ġsa": 654,
      "Ġsy": 655,
      "Ġmed": 656,
      "ious": 657,
      "velop": 658,
      "Ġtr": 659,
      "ens": 660,
      "ustom": 661,
      "gg": 662,
      "Ġthese": 663,
      "aking": 664,
      "Ġtechn": 665,
      "Ġinform": 666,
      "ert": 667,
      "Ġour": 668,
      "Ġdiffere": 669,
      "erg": 670,
      "int": 671,
      "Ġneed": 672,
      "ĠY": 673,
      "row": 674,
      "ness": 675,
      "Ġdet": 676,
      "Ġstr": 677,
      "Ġhealth": 678,
      "ility": 679,
      "Ġrel": 680,
      "Ġprog": 681,
      "ck": 682,
      "ĠčĊ": 683,
      "ree": 684,
      "ating": 685,
      "ely": 686,
      "ick": 687,
      "Ġwould": 688,
      "ll": 689,
      "ple": 690,
      "ices": 691,
      "ning": 692,
      "ize": 693,
      "Ġbeen": 694,
      "Ġsm": 695,
      "Ġone": 696,
      "olog": 697,
      "Ġpers": 698,
      "ife": 699,
      "Ġcustom": 700,
      "ĠSt": 701,
      "ov": 702,
      "gan": 703,
      "Ġsoc": 704,
      "Ġdevelop": 705,
      "we": 706,
      "nder": 707,
      "low": 708,
      "red": 709,
      "elf": 710,
      "Ġif": 711,
      "Ġused": 712,
      "Ġthere": 713,
      "ular": 714,
      "uring": 715,
      "Ġinv": 716,
      "ject": 717,
      "Ġinformation": 718,
      "ons": 719,
      "ns": 720,
      "Ġknow": 721,
      "ased": 722,
      "cess": 723,
      "Ġdifferent": 724,
      "ub": 725,
      "arket": 726,
      "ips": 727,
      "iqu": 728,
      "te": 729,
      "Ġcommun": 730,
      "'t": 731,
      "ond": 732,
      "ef": 733,
      "ade": 734,
      "Ġcreat": 735,
      "Ġstud": 736,
      "00": 737,
      "Ġcreate": 738,
      "Ġcons": 739,
      "ower": 740,
      "rit": 741,
      "Ġke": 742,
      "ph": 743,
      "Ġbet": 744,
      "ob": 745,
      "Ġusing": 746,
      "Ġ3": 747,
      "ual": 748,
      "ish": 749,
      "ose": 750,
      "its": 751,
      "Ġinter": 752,
      "ative": 753,
      "ange": 754,
      "Ġshould": 755,
      "Ġserv": 756,
      "ates": 757,
      "Ġco": 758,
      "ting": 759,
      "ily": 760,
      "Ġwell": 761,
      "Ġeach": 762,
      "Ġam": 763,
      "lect": 764,
      "enc": 765,
      "Ġmay": 766,
      "ient": 767,
      "ough": 768,
      "Ġsk": 769,
      "Ġproduct": 770,
      "ft": 771,
      "Ġsign": 772,
      "In": 773,
      "stem": 774,
      "Ġimpro": 775,
      "Ġact": 776,
      "Ġhigh": 777,
      "Th": 778,
      "ĠAd": 779,
      "ata": 780,
      "Ġgreat": 781,
      "Ġprogram": 782,
      "oth": 783,
      "iness": 784,
      "ized": 785,
      "Ġbu": 786,
      "ples": 787,
      "ĠK": 788,
      "Ġart": 789,
      "ise": 790,
      "ĠThey": 791,
      "Can": 792,
      "Ġwhat": 793,
      "ential": 794,
      "ĠCh": 795,
      "Ġpos": 796,
      "dition": 797,
      "Ġperson": 798,
      "iet": 799,
      "Ġbl": 800,
      "Ġredu": 801,
      "ics": 802,
      "Ġeffect": 803,
      "ys": 804,
      "Ġph": 805,
      "Ġwhen": 806,
      "old": 807,
      "ĠV": 808,
      "Ġway": 809,
      "Ġprovid": 810,
      "Ġloc": 811,
      "Ġag": 812,
      "Ġdesign": 813,
      "ural": 814,
      "Ġsocial": 815,
      "arch": 816,
      "ople": 817,
      "Ġvar": 818,
      "Ġinst": 819,
      "Ġmarket": 820,
      "Ġlear": 821,
      "__": 822,
      "hes": 823,
      "Ġatt": 824,
      "Ġsupport": 825,
      "Ġlife": 826,
      "Ġimpact": 827,
      "Ġopt": 828,
      "hed": 829,
      "Ġfeel": 830,
      "ergy": 831,
      "Ġpo": 832,
      "Ġrem": 833,
      "Ġworld": 834,
      "Ġmus": 835,
      "Ġbec": 836,
      "wn": 837,
      "eng": 838,
      "Ġeng": 839,
      "ĠHere": 840,
      "Ġunder": 841,
      "Ġreg": 842,
      "anc": 843,
      "Ġpeople": 844,
      "up": 845,
      "Ġbus": 846,
      "own": 847,
      "Ġtrans": 848,
      "port": 849,
      "Ġvis": 850,
      "Ġset": 851,
      "Ġincluding": 852,
      "Ġ=": 853,
      "omm": 854,
      "Ġsystem": 855,
      "eth": 856,
      "Ġpr": 857,
      "Ġlead": 858,
      "ality": 859,
      "Ġfind": 860,
      "Ġche": 861,
      "Ġspecific": 862,
      "ĠHe": 863,
      "ren": 864,
      "Ġexamples": 865,
      "Ġdata": 866,
      "Ġenergy": 867,
      "Ġback": 868,
      "Ġra": 869,
      "ts": 870,
      "Ġmin": 871,
      "rib": 872,
      "Ġve": 873,
      "ĠĠĠĠĠĠĠ": 874,
      "pect": 875,
      "ĠShe": 876,
      "Ġexpl": 877,
      "ener": 878,
      "ible": 879,
      "ature": 880,
      "Ġpract": 881,
      "Ġevery": 882,
      "Ġprom": 883,
      "ian": 884,
      "Ġdec": 885,
      "Ġsur": 886,
      "Ġins": 887,
      "Ġpot": 888,
      "riend": 889,
      "ĠCan": 890,
      "Ġwhile": 891,
      "Ġplay": 892,
      "Ġincre": 893,
      "Ġbusiness": 894,
      "Ġjust": 895,
      "Ġwhere": 896,
      "Ġdetail": 897,
      "Ġstart": 898,
      "Ġmany": 899,
      "Ġwater": 900,
      "Ġval": 901,
      "ruct": 902,
      "fore": 903,
      "Ġthan": 904,
      "ues": 905,
      "Ġchar": 906,
      "ward": 907,
      "ives": 908,
      "Ġca": 909,
      "ology": 910,
      "Ġmade": 911,
      "ten": 912,
      "Ġgu": 913,
      "Ġinf": 914,
      "``": 915,
      "ink": 916,
      "ms": 917,
      "Ġsignific": 918,
      "Ġchall": 919,
      "ivid": 920,
      "iew": 921,
      "ense": 922,
      "Ġsee": 923,
      "led": 924,
      "Ġfam": 925,
      "Ġfun": 926,
      "ident": 927,
      "Ġav": 928,
      "any": 929,
      "Ġprocess": 930,
      "Ġexperience": 931,
      "uc": 932,
      "Ġallow": 933,
      "ĠYou": 934,
      "Ġmost": 935,
      "put": 936,
      "ertain": 937,
      "Ġget": 938,
      "irst": 939,
      "Ġadv": 940,
      "Ġsal": 941,
      "ional": 942,
      "Ġyear": 943,
      "Ġpat": 944,
      "Ġcle": 945,
      "Ġcult": 946,
      "urn": 947,
      "Ġty": 948,
      "rand": 949,
      "Ġbr": 950,
      "ccess": 951,
      "ollow": 952,
      "Ġ4": 953,
      "Ġac": 954,
      "Ġmedia": 955,
      "iss": 956,
      "Ġsec": 957,
      "Ġteam": 958,
      "Ġfew": 959,
      "ique": 960,
      "ever": 961,
      "Ġdisc": 962,
      "lement": 963,
      "new": 964,
      "Ġeven": 965,
      "eg": 966,
      "Ġcar": 967,
      "Ġnum": 968,
      "amp": 969,
      "Ġimprove": 970,
      "Ġlong": 971,
      "ines": 972,
      "Ġment": 973,
      "ources": 974,
      "olut": 975,
      "Ġens": 976,
      "Ġmod": 977,
      "Ġpower": 978,
      "ĠUse": 979,
      "line": 980,
      "Ġinclude": 981,
      "Ġfin": 982,
      "Ġeas": 983,
      "itive": 984,
      "ĠHow": 985,
      "Ġ5": 986,
      "ocus": 987,
      "Ġno": 988,
      "stand": 989,
      "Ġwant": 990,
      "Ġreal": 991,
      "Ġown": 992,
      "Ġtw": 993,
      "Ġduring": 994,
      "Ġhand": 995,
      "Ġfound": 996,
      "ateg": 997,
      "iron": 998,
      "Ġass": 999,
      "ages": 1000,
      "arm": 1001,
      "Ġaccess": 1002,
      "Ġimport": 1003,
      "Ġ20": 1004,
      "Ġbefore": 1005,
      "Ġret": 1006,
      "ients": 1007,
      "Ġsmall": 1008,
      "ix": 1009,
      "Ġexample": 1010,
      "Ġrequ": 1011,
      "ax": 1012,
      "ered": 1013,
      "Ġexp": 1014,
      "Ġsignificant": 1015,
      "ĠâĢ": 1016,
      "Ġpol": 1017,
      "ĠWe": 1018,
      "Ġfollow": 1019,
      "Ġsuccess": 1020,
      "Ġbre": 1021,
      "Ġmem": 1022,
      "Ġgrow": 1023,
      "Ġorgan": 1024,
      "Ġed": 1025,
      "Ġshow": 1026,
      "ars": 1027,
      "ĠAs": 1028,
      "iety": 1029,
      "Ġtake": 1030,
      "con": 1031,
      "Ġsim": 1032,
      "ify": 1033,
      "Ġbuild": 1034,
      "Ġuser": 1035,
      "roup": 1036,
      "ĠFor": 1037,
      "Ġaround": 1038,
      "Ġcur": 1039,
      "Ġfood": 1040,
      "Ġread": 1041,
      "Ġform": 1042,
      "Ġpersonal": 1043,
      "Ġref": 1044,
      "Ġaut": 1045,
      "Ġcomple": 1046,
      "fter": 1047,
      "Ġben": 1048,
      "Ġplan": 1049,
      "use": 1050,
      "Ġgl": 1051,
      "ational": 1052,
      "viron": 1053,
      "Ġent": 1054,
      "ling": 1055,
      "other": 1056,
      "Ġindust": 1057,
      "erest": 1058,
      "agement": 1059,
      "Sure": 1060,
      "Ġproject": 1061,
      "Ġhim": 1062,
      "Ġfocus": 1063,
      "Ġchalleng": 1064,
      "Ġtext": 1065,
      "ved": 1066,
      "Ġfirst": 1067,
      "ween": 1068,
      "wor": 1069,
      "ware": 1070,
      "Ġday": 1071,
      "Ġoffer": 1072,
      "hip": 1073,
      "Ġgr": 1074,
      "ec": 1075,
      "Ġperform": 1076,
      "til": 1077,
      "ggest": 1078,
      "self": 1079,
      "Ġcontent": 1080,
      "ict": 1081,
      "Ġbetween": 1082,
      "Ġend": 1083,
      "Ġmaking": 1084,
      "ner": 1085,
      "akes": 1086,
      "lease": 1087,
      "ols": 1088,
      "Ġsuggest": 1089,
      "Ġpromot": 1090,
      "Ġenviron": 1091,
      "por": 1092,
      "Ġwebs": 1093,
      "Ġdel": 1094,
      "Ġmusic": 1095,
      "Ġindivid": 1096,
      "Ġlist": 1097,
      "Ġess": 1098,
      "Ġaud": 1099,
      "Ġunderstand": 1100,
      "Ġconc": 1101,
      "Ġide": 1102,
      "Ġinterest": 1103,
      "Ġgroup": 1104,
      "Ġdown": 1105,
      "ining": 1106,
      "Ġuntil": 1107,
      "ins": 1108,
      "Ġpres": 1109,
      "Ġmain": 1110,
      "nect": 1111,
      "Ġstory": 1112,
      "Ġbenef": 1113,
      "Ġgra": 1114,
      "ploy": 1115,
      "Ġpop": 1116,
      "aterial": 1117,
      "Ġrese": 1118,
      "ble": 1119,
      "ization": 1120,
      "Ġcare": 1121,
      "els": 1122,
      "Ġanal": 1123,
      "Ġhere": 1124,
      "ath": 1125,
      "Ġsound": 1126,
      "Ġunique": 1127,
      "Ġ`": 1128,
      "Ġresp": 1129,
      "Ġgener": 1130,
      "ven": 1131,
      "As": 1132,
      "ider": 1133,
      "ving": 1134,
      "Ġpartic": 1135,
      "Ġactiv": 1136,
      "ills": 1137,
      "Ġfeat": 1138,
      "ways": 1139,
      "ves": 1140,
      "aging": 1141,
      "Ġtips": 1142,
      "Ġtry": 1143,
      "ited": 1144,
      "erm": 1145,
      "Ġpass": 1146,
      "Ġeffective": 1147,
      "ier": 1148,
      "ries": 1149,
      "hen": 1150,
      "Ġtechnology": 1151,
      "Ġbel": 1152,
      "ants": 1153,
      "Ġtoget": 1154,
      "Ġtogether": 1155,
      "Ġcount": 1156,
      "ont": 1157,
      "ables": 1158,
      "Ġconf": 1159,
      "Ġlearn": 1160,
      "Ġlove": 1161,
      "Ġstrateg": 1162,
      "Ġprof": 1163,
      "Ġlight": 1164,
      "Ġkeep": 1165,
      "Ġappro": 1166,
      "cho": 1167,
      "Ġenc": 1168,
      "Ġthen": 1169,
      "az": 1170,
      "mer": 1171,
      "ied": 1172,
      "Ġenvironment": 1173,
      "Ġensure": 1174,
      "avor": 1175,
      "ced": 1176,
      "ash": 1177,
      "ĠThese": 1178,
      "ability": 1179,
      "Ġonly": 1180,
      "Ġaff": 1181,
      "ribut": 1182,
      "Ġmaterial": 1183,
      "tern": 1184,
      "ooking": 1185,
      "Ġcharact": 1186,
      "air": 1187,
      "ivers": 1188,
      "vent": 1189,
      "ences": 1190,
      "Ġcontin": 1191,
      "Ġpur": 1192,
      "Ġpotential": 1193,
      "Ġgood": 1194,
      "Ġdevelopment": 1195,
      "Ġmon": 1196,
      "aut": 1197,
      "ommend": 1198,
      "Ġresult": 1199,
      "ĠWh": 1200,
      "Ġident": 1201,
      "Ġreduce": 1202,
      "ript": 1203,
      "Ġtop": 1204,
      "Ġmarketing": 1205,
      "Ġfriend": 1206,
      "ĠPro": 1207,
      "ng": 1208,
      "Ġcr": 1209,
      "ss": 1210,
      "Ġdr": 1211,
      "Ġsure": 1212,
      "atch": 1213,
      "Ġboth": 1214,
      "ather": 1215,
      "ty": 1216,
      "Ġbeing": 1217,
      "Ġlar": 1218,
      "Ġaddition": 1219,
      "Ġsub": 1220,
      "Ġbest": 1221,
      "Ġwebsite": 1222,
      "ted": 1223,
      "iving": 1224,
      "ĠHowever": 1225,
      "Ġext": 1226,
      "Ġclass": 1227,
      "Ġtoo": 1228,
      "Ġ$": 1229,
      "ock": 1230,
      "Ġlevel": 1231,
      "Ġoften": 1232,
      "Ġstep": 1233,
      "lu": 1234,
      "Ġrecommend": 1235,
      "iven": 1236,
      "Ġdist": 1237,
      "Ġwrit": 1238,
      "Ġsense": 1239,
      "Ġhist": 1240,
      "Ġbrand": 1241,
      ".\"": 1242,
      "uals": 1243,
      "nce": 1244,
      "ication": 1245,
      "bers": 1246,
      "Ġemot": 1247,
      "Ġlet": 1248,
      "Ġsty": 1249,
      "Ġob": 1250,
      "ds": 1251,
      "Ġtwo": 1252,
      "Ġsom": 1253,
      "Ġfamily": 1254,
      "Ġcustomer": 1255,
      "com": 1256,
      "Ġcamp": 1257,
      "der": 1258,
      "ertainly": 1259,
      "ah": 1260,
      "Ġhum": 1261,
      "erc": 1262,
      "Ġ[": 1263,
      "orpor": 1264,
      "Ġdetails": 1265,
      "Ġprot": 1266,
      "ode": 1267,
      "Ġconnect": 1268,
      "Ġindustry": 1269,
      "Ġthose": 1270,
      "ave": 1271,
      "ee": 1272,
      "Ġgive": 1273,
      "Ġ{": 1274,
      "Ġcost": 1275,
      "Ġcour": 1276,
      "ĠIf": 1277,
      "ired": 1278,
      "Ġfac": 1279,
      "ĠAl": 1280,
      "Ġmind": 1281,
      "Ġresearch": 1282,
      "ody": 1283,
      "Ġrest": 1284,
      "Ġusers": 1285,
      "Ġfeatures": 1286,
      "Ġalways": 1287,
      "Ġpub": 1288,
      "ustain": 1289,
      "Ġcustomers": 1290,
      "reen": 1291,
      "ists": 1292,
      "Ġplace": 1293,
      "Ġlocal": 1294,
      "Ġsever": 1295,
      "Ġcommunity": 1296,
      "Ġtyp": 1297,
      "Yes": 1298,
      "ories": 1299,
      "ency": 1300,
      "Ġear": 1301,
      "over": 1302,
      "io": 1303,
      "cing": 1304,
      "arget": 1305,
      "Ġafter": 1306,
      "This": 1307,
      "ew": 1308,
      "Ġchallenges": 1309,
      "chie": 1310,
      "oura": 1311,
      "Ġchild": 1312,
      "Ġcompany": 1313,
      "Ġinvol": 1314,
      "atform": 1315,
      "uch": 1316,
      "Ġproducts": 1317,
      "pped": 1318,
      "elt": 1319,
      "Ġtradition": 1320,
      "Ġexperi": 1321,
      "Ġstudents": 1322,
      "cept": 1323,
      "Ġkey": 1324,
      "angu": 1325,
      "Ġservices": 1326,
      "ps": 1327,
      "Ġhome": 1328,
      "atural": 1329,
      "Ġchang": 1330,
      "Ġbetter": 1331,
      "Ġseveral": 1332,
      "br": 1333,
      "Ġimplement": 1334,
      "Ġfunction": 1335,
      "to": 1336,
      "ĠĠĠĠĠĠĠĠ": 1337,
      "____": 1338,
      "Certainly": 1339,
      "Ġagain": 1340,
      "Ġshare": 1341,
      "Ġminut": 1342,
      "Ġcent": 1343,
      "ically": 1344,
      "und": 1345,
      "Ġop": 1346,
      "Ġinvest": 1347,
      "Ġresources": 1348,
      "ason": 1349,
      "Ġsoft": 1350,
      "Ġemploy": 1351,
      "light": 1352,
      "Ġvarious": 1353,
      "tle": 1354,
      "Ġaudience": 1355,
      "ined": 1356,
      "read": 1357,
      "ope": 1358,
      "verall": 1359,
      "Ġyears": 1360,
      "Ġbeh": 1361,
      "Ġachie": 1362,
      "Ġdef": 1363,
      "Ġdon": 1364,
      "iel": 1365,
      "Ġplatform": 1366,
      "abor": 1367,
      "ets": 1368,
      "Ġthough": 1369,
      "rite": 1370,
      "resh": 1371,
      "way": 1372,
      "ism": 1373,
      "Ġmental": 1374,
      "ital": 1375,
      "joy": 1376,
      "view": 1377,
      "Ġcup": 1378,
      "Ġrelations": 1379,
      "be": 1380,
      "Ġmet": 1381,
      "Ġfil": 1382,
      "Ġsustain": 1383,
      "'m": 1384,
      "ĠBut": 1385,
      "Ġnumber": 1386,
      "pportun": 1387,
      "Ġdid": 1388,
      "Ġlangu": 1389,
      "ream": 1390,
      "ditionally": 1391,
      "pr": 1392,
      "Ġdem": 1393,
      "Ġimportant": 1394,
      ");": 1395,
      "Ġskills": 1396,
      "ead": 1397,
      "ething": 1398,
      "ĠBy": 1399,
      "Ġself": 1400,
      "Ġeduc": 1401,
      "wards": 1402,
      "Ġser": 1403,
      "Ġla": 1404,
      "conom": 1405,
      "ex": 1406,
      "Ġopportun": 1407,
      "Ġright": 1408,
      "Ġoptions": 1409,
      "lus": 1410,
      "Ġcall": 1411,
      "Ġveget": 1412,
      "less": 1413,
      "Ġrep": 1414,
      ").": 1415,
      "Ġtarget": 1416,
      "Ġlook": 1417,
      "Ġinflu": 1418,
      "Ġ201": 1419,
      "Ġways": 1420,
      "ually": 1421,
      "err": 1422,
      "ery": 1423,
      "Ġavail": 1424,
      "'re": 1425,
      "Ġminutes": 1426,
      "St": 1427,
      "Ġbenefits": 1428,
      "imes": 1429,
      "po": 1430,
      "ank": 1431,
      "Ġoil": 1432,
      "aign": 1433,
      "Ġsomething": 1434,
      "Ġtraditional": 1435,
      "tain": 1436,
      "Ġtre": 1437,
      "Ġbo": 1438,
      "ross": 1439,
      "ĠAn": 1440,
      "cript": 1441,
      "Ġclear": 1442,
      "ĠUn": 1443,
      "day": 1444,
      "pend": 1445,
      "ush": 1446,
      "Ġsum": 1447,
      "Ġstill": 1448,
      "Ġbeaut": 1449,
      "Ġtest": 1450,
      "itions": 1451,
      "rap": 1452,
      "Ġlearning": 1453,
      "ray": 1454,
      "Ġfact": 1455,
      "Ġpast": 1456,
      "Ġcontro": 1457,
      "Ġrange": 1458,
      "Ġhapp": 1459,
      "Ġsit": 1460,
      "Ġpain": 1461,
      "Ġonline": 1462,
      "ases": 1463,
      "Ġcity": 1464,
      "```": 1465,
      "oid": 1466,
      "Ġable": 1467,
      "Ġphys": 1468,
      "Ġeasy": 1469,
      "Ġoffers": 1470,
      "Ġnatural": 1471,
      "Ġiss": 1472,
      "Ġfelt": 1473,
      "Ġindividuals": 1474,
      "Ġpositive": 1475,
      "Ġothers": 1476,
      "oh": 1477,
      "Ġposs": 1478,
      "work": 1479,
      "ĠEm": 1480,
      "Ġmuch": 1481,
      "Ġnever": 1482,
      "ese": 1483,
      "raph": 1484,
      "ording": 1485,
      "Ġreally": 1486,
      "Ġbased": 1487,
      "Ġair": 1488,
      "Ġcal": 1489,
      "Ġcampaign": 1490,
      "Ġknew": 1491,
      "Ġmess": 1492,
      "iques": 1493,
      "redients": 1494,
      "thing": 1495,
      "uce": 1496,
      "ĠAdd": 1497,
      "Ġcor": 1498,
      "ĠAdditionally": 1499,
      "Ġtell": 1500,
      "Ġele": 1501,
      "Ġheart": 1502,
      "Ġneeds": 1503,
      "Ġpopular": 1504,
      "Ġincrease": 1505,
      "ilities": 1506,
      "Ġris": 1507,
      "ination": 1508,
      "irect": 1509,
      "ately": 1510,
      "Ġlanguage": 1511,
      "hips": 1512,
      "Ġchange": 1513,
      "Ġprovides": 1514,
      "//": 1515,
      "Ġeconom": 1516,
      "Ġdep": 1517,
      "Ġcreating": 1518,
      "ouse": 1519,
      "Ġbelie": 1520,
      "Ġful": 1521,
      "ern": 1522,
      "Ġcho": 1523,
      "Ġjour": 1524,
      "Ġmom": 1525,
      "Ġtem": 1526,
      "Ġplease": 1527,
      "labor": 1528,
      "ipe": 1529,
      "back": 1530,
      "Ġcomb": 1531,
      "Ġapplic": 1532,
      "Ġworks": 1533,
      "Ġcook": 1534,
      "Ġdev": 1535,
      "Ġmove": 1536,
      "Ġrole": 1537,
      "rent": 1538,
      "Ġfore": 1539,
      "Ġlit": 1540,
      "Ġwithout": 1541,
      "Ġconst": 1542,
      "uss": 1543,
      "ĠRe": 1544,
      "ems": 1545,
      "Ġstand": 1546,
      "oss": 1547,
      "Ġquest": 1548,
      "ethod": 1549,
      "Ġpie": 1550,
      "alk": 1551,
      "Ġcolor": 1552,
      "Ġ6": 1553,
      "oose": 1554,
      "Ġtechniques": 1555,
      "let": 1556,
      "Ġinput": 1557,
      "vers": 1558,
      "Ġland": 1559,
      "ĠAnd": 1560,
      "Ġtools": 1561,
      "Ġreport": 1562,
      "uture": 1563,
      "Ġfree": 1564,
      "Ġpublic": 1565,
      "Ġgoals": 1566,
      "Ġhelps": 1567,
      "ale": 1568,
      "ĠSh": 1569,
      "ci": 1570,
      "ney": 1571,
      "pper": 1572,
      "Ġcome": 1573,
      "Ġexplore": 1574,
      "Ġpoint": 1575,
      "pping": 1576,
      "Ġareas": 1577,
      "It": 1578,
      "Ġmot": 1579,
      "illed": 1580,
      "Ġincorpor": 1581,
      "Ġmanagement": 1582,
      "ering": 1583,
      "orts": 1584,
      "ape": 1585,
      "aring": 1586,
      "Ġgrowth": 1587,
      "Ġbusinesses": 1588,
      "Ġevents": 1589,
      "Ġopen": 1590,
      "Ġperformance": 1591,
      "Ġsearch": 1592,
      "Ġbecome": 1593,
      "Ġessential": 1594,
      "Ġpost": 1595,
      "Ġstudy": 1596,
      "Ġactivities": 1597,
      "Ġstay": 1598,
      "oring": 1599,
      "Ġquality": 1600,
      "Ġavailable": 1601,
      "Ġstru": 1602,
      "--": 1603,
      "Ġstrong": 1604,
      "Ġfriends": 1605,
      "ato": 1606,
      "Ġsym": 1607,
      "hor": 1608,
      "Ġvide": 1609,
      "ats": 1610,
      "care": 1611,
      "Ġevent": 1612,
      "Ġrun": 1613,
      "Ġnow": 1614,
      "Ġsol": 1615,
      "ior": 1616,
      "cial": 1617,
      "ivity": 1618,
      "Ġbody": 1619,
      "Ġhistory": 1620,
      "ĠEn": 1621,
      "Ġinteg": 1622,
      "Ġproper": 1623,
      "fect": 1624,
      "Ġstore": 1625,
      "Ġhope": 1626,
      "Ġmethod": 1627,
      "izing": 1628,
      "oot": 1629,
      "ructure": 1630,
      "Ġfuture": 1631,
      "Ġcontribut": 1632,
      "Ġsuccessful": 1633,
      "Ġnut": 1634,
      "Ġenjoy": 1635,
      "Ġanaly": 1636,
      "Ġflavor": 1637,
      "Ġprofess": 1638,
      "Ġmeas": 1639,
      "land": 1640,
      "Ġscho": 1641,
      "asing": 1642,
      "ames": 1643,
      "ried": 1644,
      "Ġeffic": 1645,
      "Ġfeed": 1646,
      "Ġdiff": 1647,
      "Ġemail": 1648,
      "ĠTo": 1649,
      "ike": 1650,
      "Ġfresh": 1651,
      "Ġexerc": 1652,
      "ron": 1653,
      "Ġdeep": 1654,
      "Ġcontrol": 1655,
      "ĠEx": 1656,
      "Ġequ": 1657,
      "ogn": 1658,
      "Ġpractices": 1659,
      "Ġ19": 1660,
      "Ġinteract": 1661,
      "Ġing": 1662,
      "Ġ'": 1663,
      "rodu": 1664,
      "Ġelect": 1665,
      "Ġservice": 1666,
      "Ġsaid": 1667,
      "Ġcharacter": 1668,
      "Ġencoura": 1669,
      "Ġprograms": 1670,
      "ĠBe": 1671,
      "ooks": 1672,
      "Overall": 1673,
      "Ġ#": 1674,
      "âĢĿ": 1675,
      "olution": 1676,
      "Ġknown": 1677,
      "ret": 1678,
      "Ġtraining": 1679,
      "Ġmat": 1680,
      "by": 1681,
      "Ġidentify": 1682,
      "Ġthink": 1683,
      "weet": 1684,
      "Ġcourse": 1685,
      "Ġmix": 1686,
      "Ġoper": 1687,
      "imate": 1688,
      "Ġlow": 1689,
      "Ġdra": 1690,
      "Ġimm": 1691,
      "Ġstrugg": 1692,
      "Ġproviding": 1693,
      "word": 1694,
      "Ġlarge": 1695,
      "Ġey": 1696,
      "Ġsystems": 1697,
      "Ġsaf": 1698,
      "Ġstyle": 1699,
      "ared": 1700,
      "vern": 1701,
      "Ġpow": 1702,
      "Ġmust": 1703,
      "Ġaffect": 1704,
      "Ġadditional": 1705,
      "Ġpa": 1706,
      "Ġmult": 1707,
      "Ġstress": 1708,
      "Ġlim": 1709,
      "ĠAr": 1710,
      "Ġhard": 1711,
      "Ġview": 1712,
      "Ġaddress": 1713,
      "Ġtransport": 1714,
      "Ġexc": 1715,
      "iting": 1716,
      "),": 1717,
      "ium": 1718,
      "Ġoptim": 1719,
      "Ġmaterials": 1720,
      "ember": 1721,
      "Ġest": 1722,
      "Ġanim": 1723,
      "ibility": 1724,
      "Ġgame": 1725,
      "ours": 1726,
      "Ġsauce": 1727,
      "Ġmil": 1728,
      "fort": 1729,
      "Ġtru": 1730,
      "Ġbro": 1731,
      "Ġtypes": 1732,
      "Ġrenew": 1733,
      "Ġcultural": 1734,
      "Ġdoes": 1735,
      "Ġstrategies": 1736,
      "Ġsens": 1737,
      "ularly": 1738,
      "Ġrecipe": 1739,
      "ees": 1740,
      "Ġprotect": 1741,
      "Ġhead": 1742,
      "Ġless": 1743,
      "Ġclean": 1744,
      "Ġperfect": 1745,
      "ains": 1746,
      "ring": 1747,
      "Ġel": 1748,
      "Ġquick": 1749,
      "Ġrele": 1750,
      "Ġphysical": 1751,
      "Ġgovern": 1752,
      "Ġworking": 1753,
      "Ġwithin": 1754,
      "ights": 1755,
      "Ġcompet": 1756,
      "ze": 1757,
      "ances": 1758,
      "Ġmov": 1759,
      "ĠPl": 1760,
      "Ġmaintain": 1761,
      "Ġhealthy": 1762,
      "Ġ}": 1763,
      "Ġpresent": 1764,
      "Ġspecial": 1765,
      "urity": 1766,
      "nces": 1767,
      "omp": 1768,
      "ention": 1769,
      "Ġvalue": 1770,
      "Ġ10": 1771,
      "ograph": 1772,
      "Ġface": 1773,
      "Ġpromote": 1774,
      "urther": 1775,
      "Ġcurrent": 1776,
      "ĠThere": 1777,
      "Ġtowards": 1778,
      "meric": 1779,
      "ration": 1780,
      "come": 1781,
      "anies": 1782,
      "Ġtas": 1783,
      "fact": 1784,
      "sc": 1785,
      "Ġprevent": 1786,
      "Ġachieve": 1787,
      "ĠDo": 1788,
      "Ġcommunication": 1789,
      "Ġdig": 1790,
      "Ġarea": 1791,
      "Ġoverall": 1792,
      "Ġsoftware": 1793,
      "Ġneg": 1794,
      "Ġexperiences": 1795,
      "Ġanother": 1796,
      "icult": 1797,
      "Ġdirect": 1798,
      "Ġcomplex": 1799,
      "ners": 1800,
      "Ġvers": 1801,
      "Ġspace": 1802,
      "Ġmight": 1803,
      ",\"": 1804,
      "Ġfollowing": 1805,
      "yc": 1806,
      "ising": 1807,
      "Ġwind": 1808,
      "Ġdeterm": 1809,
      "Ġsustainable": 1810,
      "reng": 1811,
      "Ġupd": 1812,
      "Ġthings": 1813,
      "Ġhelped": 1814,
      "Ġjob": 1815,
      "Ġpar": 1816,
      "gar": 1817,
      "irt": 1818,
      "ote": 1819,
      "Ġwee": 1820,
      "Ġideas": 1821,
      "Ġmeet": 1822,
      "ource": 1823,
      "ĠInd": 1824,
      "Ġtreat": 1825,
      "ision": 1826,
      "ield": 1827,
      "lish": 1828,
      "gin": 1829,
      "Ġenh": 1830,
      "aves": 1831,
      "play": 1832,
      "Ġtrack": 1833,
      "Ġsmo": 1834,
      "itation": 1835,
      "based": 1836,
      "Ġrequire": 1837,
      "Wh": 1838,
      "Ġtravel": 1839,
      "lex": 1840,
      "Ġsat": 1841,
      "ression": 1842,
      "Ġgar": 1843,
      "'ll": 1844,
      "Ġstate": 1845,
      "ĠâĢĵ": 1846,
      "Ġincludes": 1847,
      "Ġsame": 1848,
      "Ġvariety": 1849,
      "lusion": 1850,
      "Ġrece": 1851,
      "Ġinit": 1852,
      "ugh": 1853,
      "ause": 1854,
      "Ġwriting": 1855,
      "ger": 1856,
      "oney": 1857,
      "ished": 1858,
      "Ġhuman": 1859,
      "Ġeducation": 1860,
      "Ġbuilding": 1861,
      "Ġnet": 1862,
      "here": 1863,
      "Ġdifficult": 1864,
      "Ġingredients": 1865,
      "Ġbreat": 1866,
      "Ġbal": 1867,
      "Ġbreak": 1868,
      "ides": 1869,
      "Ġcap": 1870,
      "Ġ<": 1871,
      "Ġallows": 1872,
      "Ġ0": 1873,
      "Ġinsp": 1874,
      "Ġconsum": 1875,
      "Ġhot": 1876,
      "Ġchanges": 1877,
      "Ġcrit": 1878,
      "vert": 1879,
      "nov": 1880,
      "oad": 1881,
      "Ġcolle": 1882,
      "Ġchildren": 1883,
      "Ġes": 1884,
      "ince": 1885,
      "Ġopportunities": 1886,
      "aling": 1887,
      "Ġculture": 1888,
      "ĠDe": 1889,
      "Ġrespons": 1890,
      "ffic": 1891,
      "Ġacross": 1892,
      "Ġrenewable": 1893,
      "Ġstreng": 1894,
      "Ġconsider": 1895,
      "de": 1896,
      "ĠSc": 1897,
      "apt": 1898,
      "ann": 1899,
      "ĠCl": 1900,
      "Ġcollabor": 1901,
      "Ġjourney": 1902,
      "Ġroom": 1903,
      "Ġfeedback": 1904,
      "Ġchick": 1905,
      "Ġlast": 1906,
      "Ġelements": 1907,
      "Ġheat": 1908,
      "Ġsun": 1909,
      "Ġissues": 1910,
      "ĠâĢľ": 1911,
      "just": 1912,
      "Ġbook": 1913,
      "aj": 1914,
      "Ġreach": 1915,
      "ots": 1916,
      "Ġmar": 1917,
      "Ġreturn": 1918,
      "Ġturn": 1919,
      "Ġlevels": 1920,
      "Ġtast": 1921,
      "Ġvisit": 1922,
      "Ġsupp": 1923,
      "osp": 1924,
      "Ġside": 1925,
      "Ġtimes": 1926,
      "aster": 1927,
      "Ġcompanies": 1928,
      "Ġthroughout": 1929,
      "Ġproble": 1930,
      "Ġseason": 1931,
      "idd": 1932,
      "Ġcheese": 1933,
      "ditions": 1934,
      "rast": 1935,
      "Ġcommon": 1936,
      "Ġrout": 1937,
      "rehe": 1938,
      "ĠInst": 1939,
      "me": 1940,
      "Ġtype": 1941,
      "mon": 1942,
      "ral": 1943,
      "Ġbegan": 1944,
      "acks": 1945,
      "ift": 1946,
      "Ġobject": 1947,
      "Ġpossible": 1948,
      "Ġmembers": 1949,
      "Ġagainst": 1950,
      "ruction": 1951,
      "ysis": 1952,
      "ator": 1953,
      "ene": 1954,
      "Ġpractice": 1955,
      "Ġstarted": 1956,
      "Ġprep": 1957,
      "Ġjo": 1958,
      "friend": 1959,
      "Ġbring": 1960,
      "Ġreducing": 1961,
      "co": 1962,
      "ĠInc": 1963,
      "Ġapproach": 1964,
      "Ġpolic": 1965,
      "ived": 1966,
      "ĠSome": 1967,
      "Ġmag": 1968,
      "ructions": 1969,
      "ĠCon": 1970,
      "ancial": 1971,
      "ards": 1972,
      "Write": 1973,
      "vant": 1974,
      "ĠAmeric": 1975,
      "anced": 1976,
      "Ġ7": 1977,
      "Ġter": 1978,
      "ton": 1979,
      "Ġfeature": 1980,
      "000": 1981,
      "Ġability": 1982,
      "ming": 1983,
      "ĠWith": 1984,
      "Ġfit": 1985,
      "Ġnext": 1986,
      "reate": 1987,
      "Ġsources": 1988,
      "These": 1989,
      "Ġpepper": 1990,
      "Ġsweet": 1991,
      "rain": 1992,
      "ently": 1993,
      "Ġfeeling": 1994,
      "ises": 1995,
      "Ġleading": 1996,
      "Ġexpect": 1997,
      "rior": 1998,
      "20": 1999,
      "ĠSp": 2000,
      "izations": 2001,
      "ĠĠĠĠĠĠĠĠĠĠĠ": 2002,
      "Ġdesigned": 2003,
      "Ġphot": 2004,
      "Ġalong": 2005,
      "Ġcase": 2006,
      "Ġrepres": 2007,
      "orth": 2008,
      "Ġleft": 2009,
      "ug": 2010,
      "Ġbas": 2011,
      "oci": 2012,
      "Ġbreath": 2013,
      "We": 2014,
      "Ġleg": 2015,
      "iment": 2016,
      "Ġfund": 2017,
      "ilar": 2018,
      "Ġparticip": 2019,
      "Ġmoment": 2020,
      "Ġpay": 2021,
      "Ġaccording": 2022,
      "bo": 2023,
      "Ġbehav": 2024,
      "Ġdark": 2025,
      "Ġcheck": 2026,
      "Ġprint": 2027,
      "Ġavoid": 2028,
      "Ġcode": 2029,
      "Ġdepend": 2030,
      "ones": 2031,
      "aces": 2032,
      "Ġnature": 2033,
      "Ġprogress": 2034,
      "Ġtaking": 2035,
      "Ġaway": 2036,
      "Ġdescript": 2037,
      "Ġengaging": 2038,
      "Ġgreen": 2039,
      "Ġmiss": 2040,
      "duct": 2041,
      "Ġnight": 2042,
      "10": 2043,
      "face": 2044,
      "aur": 2045,
      "Ġbat": 2046,
      "Ġunderstanding": 2047,
      "Ġnon": 2048,
      "Ġcream": 2049,
      "Ġline": 2050,
      "Ġfre": 2051,
      "Ġsw": 2052,
      "ury": 2053,
      "Ġaccount": 2054,
      "icate": 2055,
      "ths": 2056,
      "ane": 2057,
      "Ġsteps": 2058,
      "Ġinfluenc": 2059,
      "ued": 2060,
      "Ġneeded": 2061,
      "Ġsle": 2062,
      "Ġlay": 2063,
      "ĠWhen": 2064,
      "Ġvegetables": 2065,
      "ledge": 2066,
      "Ġwarm": 2067,
      "Ġred": 2068,
      "Ġname": 2069,
      "ified": 2070,
      "ele": 2071,
      "pos": 2072,
      "nam": 2073,
      "Ġsalt": 2074,
      "ival": 2075,
      "side": 2076,
      "Ġcomfort": 2077,
      "Ġold": 2078,
      "cessary": 2079,
      "Ġclos": 2080,
      "Ġhold": 2081,
      "Ġrelationships": 2082,
      "itut": 2083,
      "Ġfr": 2084,
      "Ġgovernment": 2085,
      "ĠRes": 2086,
      "the": 2087,
      "Ġgoing": 2088,
      "pro": 2089,
      "cul": 2090,
      "()": 2091,
      "ges": 2092,
      "Ġeffects": 2093,
      "Ġintern": 2094,
      "af": 2095,
      "Ġmodern": 2096,
      "Ġinnov": 2097,
      "tt": 2098,
      "That": 2099,
      "hers": 2100,
      "Ġdish": 2101,
      "friendly": 2102,
      "Ġpack": 2103,
      "Ġfinancial": 2104,
      "To": 2105,
      "Ġdi": 2106,
      "Ġvisual": 2107,
      "Ġbecause": 2108,
      "Ġsl": 2109,
      "Ġdiscuss": 2110,
      "Ġlooking": 2111,
      "Ġschool": 2112,
      "Ġshort": 2113,
      "Ġ8": 2114,
      "fulness": 2115,
      "Ġadjust": 2116,
      "rop": 2117,
      "aw": 2118,
      "Ġvery": 2119,
      "Ġhig": 2120,
      "Ġsounds": 2121,
      "ĠNew": 2122,
      "time": 2123,
      "Ġlik": 2124,
      "ening": 2125,
      "ĠQ": 2126,
      "Ġemotional": 2127,
      "ĠCol": 2128,
      "istic": 2129,
      "ĠWhat": 2130,
      "Ġocc": 2131,
      "Ġcolors": 2132,
      "Ġtransportation": 2133,
      "ohn": 2134,
      "oun": 2135,
      "Ġtechnolog": 2136,
      "Ġsn": 2137,
      "Ġanalysis": 2138,
      "oor": 2139,
      "Ġsecond": 2140,
      "owl": 2141,
      "Ġcra": 2142,
      "Ġvol": 2143,
      "arah": 2144,
      "Ġmo": 2145,
      "arent": 2146,
      "Ġeconomic": 2147,
      "ĠOne": 2148,
      "gle": 2149,
      "Ġanx": 2150,
      "Ġeverything": 2151,
      "icious": 2152,
      "'ve": 2153,
      "Ġtool": 2154,
      "Ġmean": 2155,
      "rate": 2156,
      "ched": 2157,
      "ork": 2158,
      "itud": 2159,
      "arr": 2160,
      "Ġamount": 2161,
      "Ġpan": 2162,
      "Ġemployees": 2163,
      "crib": 2164,
      "Ġnav": 2165,
      "Ġkind": 2166,
      "ches": 2167,
      "idence": 2168,
      "Ġsimple": 2169,
      "Ġsou": 2170,
      "Ġimportance": 2171,
      "ĠTe": 2172,
      "izes": 2173,
      "room": 2174,
      "aged": 2175,
      "ĠIm": 2176,
      "unch": 2177,
      "Ġnegative": 2178,
      "Ġuses": 2179,
      "Ġfile": 2180,
      "Ġtur": 2181,
      "Ġled": 2182,
      "Ġsymb": 2183,
      "aily": 2184,
      "Ġwom": 2185,
      "for": 2186,
      "Ġchicken": 2187,
      "Ġfurther": 2188,
      "Ġamong": 2189,
      "Ġthree": 2190,
      "Ġcut": 2191,
      "elves": 2192,
      "Ġsecurity": 2193,
      "Ġbutter": 2194,
      "Ġstat": 2195,
      "Ġyoung": 2196,
      "Ġeffectively": 2197,
      "Ġmotiv": 2198,
      "ires": 2199,
      "sing": 2200,
      "Ġreview": 2201,
      "Ġautom": 2202,
      "Ġcapt": 2203,
      "ott": 2204,
      "Ġgre": 2205,
      "iod": 2206,
      "Ġpurch": 2207,
      "Ġflow": 2208,
      "Ġsales": 2209,
      "place": 2210,
      "ird": 2211,
      "Ġground": 2212,
      "iful": 2213,
      "Ġproduction": 2214,
      "Ġplatforms": 2215,
      "ĠSe": 2216,
      "Ġlives": 2217,
      "ferences": 2218,
      "oph": 2219,
      "Ġcontinue": 2220,
      "Ġnecessary": 2221,
      "app": 2222,
      "Ġrecommendations": 2223,
      "Ġ//": 2224,
      "Step": 2225,
      "anks": 2226,
      "How": 2227,
      "selves": 2228,
      "Ġcharacters": 2229,
      "Ġmessage": 2230,
      "Ġrisk": 2231,
      "ixt": 2232,
      "Ġemotions": 2233,
      "Ġhelpful": 2234,
      "ened": 2235,
      "pite": 2236,
      "rown": 2237,
      "igate": 2238,
      "Ġorder": 2239,
      "Ġste": 2240,
      "Ġhighlight": 2241,
      "Ġble": 2242,
      "orn": 2243,
      "Ġreflect": 2244,
      "overed": 2245,
      "Ġpaper": 2246,
      "ĠCons": 2247,
      "But": 2248,
      "Ġidea": 2249,
      "Ġsitu": 2250,
      "Ġseem": 2251,
      "Ġengagement": 2252,
      "Ġguid": 2253,
      "________": 2254,
      "Ġskin": 2255,
      "Ġtherap": 2256,
      "iple": 2257,
      "Ġhealthcare": 2258,
      "Ġauthor": 2259,
      "val": 2260,
      "Ġsumm": 2261,
      "Ġlive": 2262,
      "Ġhours": 2263,
      "Ġspir": 2264,
      "alls": 2265,
      "Ġattention": 2266,
      "ids": 2267,
      "Ġpress": 2268,
      "Ġlog": 2269,
      "Ġknowledge": 2270,
      "Ġcaus": 2271,
      "Ġrelevant": 2272,
      "Ġquestions": 2273,
      "Ġsize": 2274,
      "One": 2275,
      "Ġgarlic": 2276,
      "Ġrecogn": 2277,
      "Ġz": 2278,
      "Ġmakes": 2279,
      "elling": 2280,
      "ored": 2281,
      "Ġbecame": 2282,
      "Ġprojects": 2283,
      "Ġvideo": 2284,
      "Ġhy": 2285,
      "Ġtour": 2286,
      "ging": 2287,
      "Ġfru": 2288,
      "poon": 2289,
      "Ġprior": 2290,
      "Ġchoose": 2291,
      "Ġmob": 2292,
      "Ġdaily": 2293,
      "Ġput": 2294,
      "Ġquickly": 2295,
      "Ġfull": 2296,
      "rehens": 2297,
      "Ġeyes": 2298,
      "irtual": 2299,
      "Ġindividual": 2300,
      "ĠZ": 2301,
      "Ġresults": 2302,
      "Ġdetailed": 2303,
      "Ġapplication": 2304,
      "Ġmanage": 2305,
      "hel": 2306,
      "ump": 2307,
      "Ġprofessional": 2308,
      "Ġbar": 2309,
      "Ġprote": 2310,
      "Ġsatis": 2311,
      "Ġrestaur": 2312,
      "ised": 2313,
      "Ġorganizations": 2314,
      "ura": 2315,
      "Ġbeautiful": 2316,
      "Ġcountry": 2317,
      "Ġthought": 2318,
      "Ġpowerful": 2319,
      "Ġbeauty": 2320,
      "ĠMar": 2321,
      "Ġdays": 2322,
      "erve": 2323,
      "ground": 2324,
      "ption": 2325,
      "Ġaction": 2326,
      "Ġyourself": 2327,
      "(\"": 2328,
      "ilt": 2329,
      "Ġenhance": 2330,
      "Ġbowl": 2331,
      "illing": 2332,
      "iver": 2333,
      "itude": 2334,
      "Ġconvers": 2335,
      "Ġfactors": 2336,
      "ili": 2337,
      "ĠIs": 2338,
      "Ġdigital": 2339,
      "ged": 2340,
      "Ġcountries": 2341,
      "Ġblack": 2342,
      "Ġtaste": 2343,
      "Ġcommunities": 2344,
      "Ġcooking": 2345,
      "par": 2346,
      "ina": 2347,
      "ĠYour": 2348,
      "Ġhom": 2349,
      "atives": 2350,
      "Ġbegin": 2351,
      "Ġclimate": 2352,
      "Ġcreative": 2353,
      "Ġadapt": 2354,
      "Ġguide": 2355,
      "ĠRem": 2356,
      "Ġanxiety": 2357,
      "Ġdue": 2358,
      "Ġtemper": 2359,
      "ĠBl": 2360,
      "onse": 2361,
      "Ġill": 2362,
      "Ġexplain": 2363,
      "Ġwin": 2364,
      "Ġsurround": 2365,
      "Ġsurv": 2366,
      "olutions": 2367,
      "sh": 2368,
      "Ġport": 2369,
      "ixture": 2370,
      "Ġincreased": 2371,
      "Ġseen": 2372,
      "Ġarch": 2373,
      "aving": 2374,
      "Ġprovided": 2375,
      "ters": 2376,
      "And": 2377,
      "Ġcool": 2378,
      "fer": 2379,
      "Ġefficient": 2380,
      "Ġliving": 2381,
      "Ġglob": 2382,
      "Ġcomprehens": 2383,
      "Ġ&": 2384,
      "bon": 2385,
      "terns": 2386,
      "Ġplant": 2387,
      "atoes": 2388,
      "ik": 2389,
      "Ġassoci": 2390,
      "Ġcontain": 2391,
      "illion": 2392,
      "Ġconsist": 2393,
      "Ġsuggestions": 2394,
      "Ġrealized": 2395,
      "inally": 2396,
      "Ġattract": 2397,
      "Ġperiod": 2398,
      "ĠMake": 2399,
      "Ġamaz": 2400,
      "Ġdishes": 2401,
      "Ġimages": 2402,
      "elebr": 2403,
      "Ġwords": 2404,
      "Ġefforts": 2405,
      "reci": 2406,
      "Ġessay": 2407,
      "head": 2408,
      "Ġadding": 2409,
      "atic": 2410,
      "Ġestab": 2411,
      "Ġtri": 2412,
      "Ġcover": 2413,
      "emic": 2414,
      "of": 2415,
      "Ġtou": 2416,
      "Ġincreasing": 2417,
      "Ġerr": 2418,
      "Ġlittle": 2419,
      "Ġabove": 2420,
      "Ġnear": 2421,
      "Ġsing": 2422,
      "ites": 2423,
      "Ġmach": 2424,
      "book": 2425,
      "Ġaware": 2426,
      "ument": 2427,
      "Ġmaj": 2428,
      "nds": 2429,
      "uro": 2430,
      "Ġstrategy": 2431,
      "Ġsleep": 2432,
      "Ġwaste": 2433,
      "Ġdest": 2434,
      "Ġbehavior": 2435,
      "Ġenvironmental": 2436,
      "Ġmultiple": 2437,
      "ley": 2438,
      "ĠMay": 2439,
      "):": 2440,
      "ators": 2441,
      "Ġbig": 2442,
      "Ġmixture": 2443,
      "inal": 2444,
      "Ġaim": 2445,
      "Ġcru": 2446,
      "Ġslow": 2447,
      "Ġdelicious": 2448,
      "Ġgain": 2449,
      "cell": 2450,
      "Ġbud": 2451,
      "Ġever": 2452,
      "Ġthin": 2453,
      "Ġwond": 2454,
      "Ġrepresent": 2455,
      "Ġpatterns": 2456,
      "Ġgiven": 2457,
      "Ġencourage": 2458,
      "Ġappreci": 2459,
      "Ġlocation": 2460,
      "Ġstring": 2461,
      "Ġtom": 2462,
      "Ġfoot": 2463,
      "Ġcreated": 2464,
      "quality": 2465,
      "Ġcouldn": 2466,
      "Ġfavor": 2467,
      "Ġmonit": 2468,
      "Ġimag": 2469,
      "umb": 2470,
      "Ġconclusion": 2471,
      "Ġcosts": 2472,
      "cking": 2473,
      "ops": 2474,
      "Ġtasks": 2475,
      "Ġalm": 2476,
      "astic": 2477,
      "Ġtakes": 2478,
      "olutely": 2479,
      "enge": 2480,
      "gor": 2481,
      "vey": 2482,
      "Ġsmooth": 2483,
      "ows": 2484,
      "Ġarr": 2485,
      "Ġdise": 2486,
      "Ġversion": 2487,
      "ulation": 2488,
      "Ġenough": 2489,
      "acy": 2490,
      "Ġremain": 2491,
      "iced": 2492,
      "Ġlov": 2493,
      "Ġshowc": 2494,
      "Ġselect": 2495,
      "ĠEng": 2496,
      "Ġiniti": 2497,
      "Ġremind": 2498,
      "Ġtrying": 2499,
      "Ġrelationship": 2500,
      "pecial": 2501,
      "Ġsaw": 2502,
      "Ġcomput": 2503,
      "Ġsomeone": 2504,
      "Ġpoem": 2505,
      "Ġvalues": 2506,
      "Ġcomprehensive": 2507,
      "ma": 2508,
      "Ġlearned": 2509,
      "Ġparticularly": 2510,
      "asc": 2511,
      "oice": 2512,
      "iveness": 2513,
      "Ġant": 2514,
      "ests": 2515,
      "Ġvari": 2516,
      "Ġbalance": 2517,
      "Ġemb": 2518,
      "Ġconditions": 2519,
      "Ġweb": 2520,
      "Ġfield": 2521,
      "icle": 2522,
      "Ġhigher": 2523,
      "For": 2524,
      "imately": 2525,
      "Ġpric": 2526,
      "man": 2527,
      "Ch": 2528,
      "ey": 2529,
      "Ġpersonalized": 2530,
      "Ġdevices": 2531,
      "pose": 2532,
      "Ġorganization": 2533,
      "Ġdisplay": 2534,
      "Ġbehind": 2535,
      "Ġherself": 2536,
      "Ġtook": 2537,
      "Ġoption": 2538,
      "Ġinteresting": 2539,
      "Ġheav": 2540,
      "Ġegg": 2541,
      "Ġinvolves": 2542,
      "ĠJohn": 2543,
      "ding": 2544,
      "ĠSarah": 2545,
      "gorith": 2546,
      "nding": 2547,
      "Ġlower": 2548,
      "outh": 2549,
      "Ġmeditation": 2550,
      "iversity": 2551,
      "Ġgen": 2552,
      "Ġappe": 2553,
      "anger": 2554,
      "Ġsolutions": 2555,
      "Ġpiece": 2556,
      "erson": 2557,
      "Ġsince": 2558,
      "eds": 2559,
      "Ġminim": 2560,
      "Ġsource": 2561,
      "Ġemerg": 2562,
      "Ġtables": 2563,
      "iverse": 2564,
      "Ġtechnologies": 2565,
      "Ġcell": 2566,
      "Ġadded": 2567,
      "Ġpage": 2568,
      "ĠAm": 2569,
      "Ġmen": 2570,
      "Ġcomes": 2571,
      "Ġwar": 2572,
      "Ġresponse": 2573,
      "itect": 2574,
      "..": 2575,
      "istance": 2576,
      "Ġcommit": 2577,
      "Ġwa": 2578,
      "Ġthemselves": 2579,
      "Ġ9": 2580,
      "Ġbur": 2581,
      "zz": 2582,
      "Ġdidn": 2583,
      "Ġearly": 2584,
      "ĠĠĠĠĠ": 2585,
      "Ġhappy": 2586,
      "ĠHer": 2587,
      "aching": 2588,
      "What": 2589,
      "Ġonce": 2590,
      "sp": 2591,
      "Ġcame": 2592,
      "aches": 2593,
      "Ġask": 2594,
      "cent": 2595,
      "Ġtoday": 2596,
      "Ġut": 2597,
      "Ġsugar": 2598,
      "ĠMed": 2599,
      "Ġhouse": 2600,
      "Wow": 2601,
      "Ġsche": 2602,
      "Ġinstall": 2603,
      "Ġlikely": 2604,
      "Ġalgorith": 2605,
      "Ġengine": 2606,
      "Ġexperienc": 2607,
      "Ġsimilar": 2608,
      "Ġarray": 2609,
      "Ġju": 2610,
      "na": 2611,
      "Ġap": 2612,
      "ĠDes": 2613,
      "Ġmindfulness": 2614,
      "ĠTra": 2615,
      "Ġactivity": 2616,
      "Ġsong": 2617,
      "Ġdeveloping": 2618,
      "Ġlost": 2619,
      "ety": 2620,
      "ĠChe": 2621,
      "Ġstructure": 2622,
      "Ġprotein": 2623,
      "Ġlif": 2624,
      "phas": 2625,
      "Ġcelebr": 2626,
      "Ġsymbol": 2627,
      "Ġmajor": 2628,
      "Ġmobile": 2629,
      "Ġ|": 2630,
      "ength": 2631,
      "urs": 2632,
      "Ġcampaigns": 2633,
      "Ġleast": 2634,
      "Ġtrust": 2635,
      "Ġelectric": 2636,
      "Ġ+": 2637,
      "med": 2638,
      "oogle": 2639,
      "Ġamazing": 2640,
      "Ġwalk": 2641,
      "Ġinvolved": 2642,
      "ĠSu": 2643,
      "Ġtal": 2644,
      "cy": 2645,
      "rig": 2646,
      "Ġregular": 2647,
      "Ġdam": 2648,
      "Ġextra": 2649,
      "Ġstrength": 2650,
      "Ġslic": 2651,
      "Ġmeans": 2652,
      "Ġdream": 2653,
      "ĠApp": 2654,
      "wer": 2655,
      "Ġrelax": 2656,
      "Ġbudget": 2657,
      "Ġgard": 2658,
      "Ġitems": 2659,
      "An": 2660,
      "Ġexpress": 2661,
      "Ġpolit": 2662,
      "Ġstories": 2663,
      "Ġimproving": 2664,
      "Ġtransform": 2665,
      "Ġol": 2666,
      "Ġwhy": 2667,
      "Ġfaced": 2668,
      "Ġpred": 2669,
      "ification": 2670,
      "Ġwide": 2671,
      "Ġexercise": 2672,
      "Ġimage": 2673,
      "uck": 2674,
      "Ġcritical": 2675,
      "Ġvirtual": 2676,
      "Ġchopped": 2677,
      "Ġbecom": 2678,
      "Ġur": 2679,
      "Ġattend": 2680,
      "ĠComm": 2681,
      "ipment": 2682,
      "Ġtown": 2683,
      "IN": 2684,
      "Ġleaves": 2685,
      "ĠAmerican": 2686,
      "Ġelse": 2687,
      "Ġmethods": 2688,
      "Ġregion": 2689,
      "ĠCar": 2690,
      "Ġmention": 2691,
      "Ġrates": 2692,
      "Ġcontact": 2693,
      "Ġbackground": 2694,
      "Ġcause": 2695,
      "Ġinsights": 2696,
      "Ġarchitect": 2697,
      "Ġwood": 2698,
      "Ġsalad": 2699,
      "Ġeasily": 2700,
      "ians": 2701,
      "rist": 2702,
      "Ġpeace": 2703,
      "ffee": 2704,
      "Ġrelated": 2705,
      "Ġtrue": 2706,
      "Ġclients": 2707,
      "Ġlot": 2708,
      "Ġfarm": 2709,
      "ext": 2710,
      "Ġpartners": 2711,
      "ĠName": 2712,
      "Ġcrucial": 2713,
      "Ġinstead": 2714,
      "Ġcalled": 2715,
      "cer": 2716,
      "Ġinterested": 2717,
      "oud": 2718,
      "dule": 2719,
      "Ġadvert": 2720,
      "Ġorig": 2721,
      "Ã©": 2722,
      "rics": 2723,
      "ER": 2724,
      "Ġones": 2725,
      "Ġdress": 2726,
      "Ġund": 2727,
      "Ġaltern": 2728,
      "ystem": 2729,
      "hood": 2730,
      "Ġgenerate": 2731,
      "Ġgoal": 2732,
      "irc": 2733,
      "aly": 2734,
      "Ġinstructions": 2735,
      "Ġgroups": 2736,
      "ull": 2737,
      "Ġemphas": 2738,
      "Ġnetwork": 2739,
      "Ġloss": 2740,
      "Ġpreferences": 2741,
      "Ġwal": 2742,
      "Ġexercises": 2743,
      "ivate": 2744,
      "aken": 2745,
      "Ġyog": 2746,
      "Ġmodel": 2747,
      "Ġengage": 2748,
      "Ġtexture": 2749,
      "Ġaspect": 2750,
      "Ġsetting": 2751,
      "Ġpoints": 2752,
      "Of": 2753,
      "cient": 2754,
      "Ġpath": 2755,
      "ĠComp": 2756,
      "ĠAll": 2757,
      "Ġconflic": 2758,
      "Ġeveryone": 2759,
      "bsolutely": 2760,
      "Ġdone": 2761,
      "istics": 2762,
      "Ġfear": 2763,
      "onst": 2764,
      "ocial": 2765,
      "Ġexist": 2766,
      "life": 2767,
      "ha": 2768,
      "Ġchallenge": 2769,
      "Ġterms": 2770,
      "issions": 2771,
      "Ġdemand": 2772,
      "min": 2773,
      "Ġsave": 2774,
      "Ġstre": 2775,
      "Ġrich": 2776,
      "Ġsuper": 2777,
      "ĠTr": 2778,
      "Ġglobal": 2779,
      "ym": 2780,
      "yle": 2781,
      "Ġallowing": 2782,
      "Ġbit": 2783,
      "ĠAlso": 2784,
      "ocol": 2785,
      "Ġrev": 2786,
      "ĠFr": 2787,
      "being": 2788,
      "ĠCould": 2789,
      "Ġparent": 2790,
      "Ġforest": 2791,
      "ĠOr": 2792,
      "iency": 2793,
      "ĠMan": 2794,
      "Ġfavorite": 2795,
      "Ġsay": 2796,
      "Ġexcell": 2797,
      "print": 2798,
      "set": 2799,
      "go": 2800,
      "pecially": 2801,
      "tics": 2802,
      "rastructure": 2803,
      "ĠPh": 2804,
      "Ġfilm": 2805,
      "ster": 2806,
      "ensive": 2807,
      "Ġanimals": 2808,
      "vious": 2809,
      "isp": 2810,
      "Ġsqu": 2811,
      "Ġassociated": 2812,
      "AR": 2813,
      "Ġwhite": 2814,
      "Ġhab": 2815,
      "Ġpromoting": 2816,
      "aks": 2817,
      "Ġmeasure": 2818,
      "Ġtherapy": 2819,
      "Ġbread": 2820,
      "Ġfar": 2821,
      "Ġdetect": 2822,
      "Ġgetting": 2823,
      "den": 2824,
      "yth": 2825,
      "50": 2826,
      "uff": 2827,
      "Ġcollect": 2828,
      "uable": 2829,
      "Ġhistor": 2830,
      "Ġoven": 2831,
      "Ġplants": 2832,
      "iction": 2833,
      "Ġhaving": 2834,
      "Ġmilk": 2835,
      "cast": 2836,
      "oyal": 2837,
      "ĠSal": 2838,
      "ension": 2839,
      "gest": 2840,
      "era": 2841,
      "Ġsociety": 2842,
      "cks": 2843,
      "Ġcou": 2844,
      "Ġtouch": 2845,
      "ĠCreate": 2846,
      "Ġshap": 2847,
      "ĠLe": 2848,
      "Ġcertain": 2849,
      "Ġsent": 2850,
      "Ġcenter": 2851,
      "ĠSo": 2852,
      "Ġdry": 2853,
      "Ġ30": 2854,
      "Ġespecially": 2855,
      "Absolutely": 2856,
      "Ġdiet": 2857,
      "Ġopportunity": 2858,
      "Ġmoney": 2859,
      "Ġconduct": 2860,
      "free": 2861,
      "Ġfocused": 2862,
      "ufact": 2863,
      "Ġpowder": 2864,
      "aps": 2865,
      "Ġdoc": 2866,
      "Ġsecure": 2867,
      "Ġchallenging": 2868,
      "Ġweek": 2869,
      "ials": 2870,
      "earch": 2871,
      "opt": 2872,
      "Ġthoughts": 2873,
      "Ġbaking": 2874,
      "Ġsav": 2875,
      "ashion": 2876,
      "rated": 2877,
      "icles": 2878,
      "Ġfire": 2879,
      "Ġtable": 2880,
      "ai": 2881,
      "Ġstudies": 2882,
      "Ġfig": 2883,
      "urt": 2884,
      "Ġsubst": 2885,
      "Ġroutine": 2886,
      "Ġequipment": 2887,
      "ils": 2888,
      "Ġplayed": 2889,
      "Ġsho": 2890,
      "Ġcarbon": 2891,
      "Ġapplications": 2892,
      "Ġsess": 2893,
      "Ġrecord": 2894,
      "Ġmeaning": 2895,
      "ĠConsider": 2896,
      "Ġtim": 2897,
      "ĠSm": 2898,
      "Ġanything": 2899,
      "Ġann": 2900,
      "Ġtemperature": 2901,
      "Ġrate": 2902,
      "Ġcareer": 2903,
      "Ġolive": 2904,
      "Ġposition": 2905,
      "Ġrequired": 2906,
      "Ġspirit": 2907,
      "Ġincorporate": 2908,
      "Ġintrodu": 2909,
      "Ġartists": 2910,
      "Ġovercome": 2911,
      "ĠCont": 2912,
      "ological": 2913,
      "ok": 2914,
      "Ġfrequ": 2915,
      "Ġscient": 2916,
      "Ġhandle": 2917,
      "Ġforward": 2918,
      "Ġdescrib": 2919,
      "Ġtraffic": 2920,
      "Ġwatch": 2921,
      "Ġafford": 2922,
      "lished": 2923,
      ".,": 2924,
      "'d": 2925,
      "Ġhighly": 2926,
      "ĠAv": 2927,
      "ĠGoogle": 2928,
      "Ġcomplete": 2929,
      "Ġliter": 2930,
      "Ġworked": 2931,
      "Ġmeal": 2932,
      "Ġinfrastructure": 2933,
      "aff": 2934,
      "Ġgames": 2935,
      "itch": 2936,
      "Ġexperiment": 2937,
      "Ġfish": 2938,
      "Ġwild": 2939,
      "\",": 2940,
      "Ġrecip": 2941,
      "hold": 2942,
      "Ġsil": 2943,
      "orage": 2944,
      "unte": 2945,
      "Ġhands": 2946,
      "Ġpair": 2947,
      "Ġcoffee": 2948,
      "inary": 2949,
      "Ġwent": 2950,
      "Ġweather": 2951,
      "Ġmel": 2952,
      "ying": 2953,
      "Ġeasier": 2954,
      "ctor": 2955,
      "Ġfest": 2956,
      "Ġchann": 2957,
      "ancing": 2958,
      "ĠOur": 2959,
      "Ġblog": 2960,
      "Ġdraw": 2961,
      "Ġfall": 2962,
      "Ġsolar": 2963,
      "Ġbelieve": 2964,
      "Ġsafety": 2965,
      "Ġpolicies": 2966,
      "Ġpowers": 2967,
      "Ġdeveloped": 2968,
      "term": 2969,
      "ĠWor": 2970,
      "=\"": 2971,
      "itle": 2972,
      "Ġappear": 2973,
      "ĠJack": 2974,
      "rame": 2975,
      "Ġproblem": 2976,
      "Ġimplemented": 2977,
      "Ġstream": 2978,
      "Ġoutside": 2979,
      "Ġmedium": 2980,
      "Ġvoice": 2981,
      "sy": 2982,
      "Ġrice": 2983,
      "Ġplayers": 2984,
      "Ġthemes": 2985,
      "Ġflav": 2986,
      "Ġleaders": 2987,
      "Ġrecent": 2988,
      "uild": 2989,
      "Ġlat": 2990,
      "pective": 2991,
      "Ġemp": 2992,
      "ĠMarket": 2993,
      "Ġweight": 2994,
      "Ġstir": 2995,
      "Ġclose": 2996,
      "step": 2997,
      "ties": 2998,
      "Ġmatter": 2999,
      "aries": 3000,
      "Ġ200": 3001,
      "Ġwhether": 3002,
      "ned": 3003,
      "ĠAf": 3004,
      "Ġfour": 3005,
      "By": 3006,
      "Ġvaluable": 3007,
      "ĠUnited": 3008,
      "Ġlonger": 3009,
      "asted": 3010,
      "ĠRed": 3011,
      "Ġfight": 3012,
      "Ġarg": 3013,
      "augh": 3014,
      "Ġhair": 3015,
      "Ġmedical": 3016,
      "Ġdecision": 3017,
      "ĠOnce": 3018,
      "ĠOn": 3019,
      "Ġwhole": 3020,
      "ĠCo": 3021,
      "Ġult": 3022,
      "alf": 3023,
      "ags": 3024,
      "Ġacad": 3025,
      "Ġnews": 3026,
      "pri": 3027,
      "Ġvideos": 3028,
      "Ġpieces": 3029,
      "Ġmanufact": 3030,
      "Ġchoice": 3031,
      "ctions": 3032,
      "Ġseemed": 3033,
      "Ġfitness": 3034,
      "Ġelement": 3035,
      "Ġthr": 3036,
      "Ġcalcul": 3037,
      "Ġcard": 3038,
      "ĠWhile": 3039,
      "Ġmeasures": 3040,
      "iddle": 3041,
      "----": 3042,
      "Ġcred": 3043,
      "Ġadvanced": 3044,
      "Ġdance": 3045,
      "Ġcontinued": 3046,
      "une": 3047,
      "init": 3048,
      "atitude": 3049,
      "tings": 3050,
      "Ġunc": 3051,
      "ocolate": 3052,
      "lection": 3053,
      "ĠCent": 3054,
      "Ġquestion": 3055,
      "ference": 3056,
      "Ġmax": 3057,
      "Ġdoing": 3058,
      "Ġfinal": 3059,
      "ecut": 3060,
      "Ġexcellent": 3061,
      "Ġseries": 3062,
      "Ġnumbers": 3063,
      "Ġdemonst": 3064,
      "Ġgraph": 3065,
      "Ġawareness": 3066,
      "Could": 3067,
      "Ġbrown": 3068,
      "Ġhear": 3069,
      "ĠLet": 3070,
      "ky": 3071,
      "irm": 3072,
      "hent": 3073,
      "Ġsus": 3074,
      "apan": 3075,
      "Ġdat": 3076,
      "Ġupdated": 3077,
      "ĠSet": 3078,
      "Ġplans": 3079,
      "Ġserve": 3080,
      "Ġancient": 3081,
      "lying": 3082,
      "ached": 3083,
      "isions": 3084,
      "Ġexpert": 3085,
      "Ġdanger": 3086,
      "Ġdecor": 3087,
      "Ġcirc": 3088,
      "oop": 3089,
      "ino": 3090,
      "Ġsafe": 3091,
      "Ġge": 3092,
      "Ġteas": 3093,
      "Ġfilled": 3094,
      "ĠKe": 3095,
      "Ġpractical": 3096,
      "Ġmeat": 3097,
      "Ġlocated": 3098,
      "agram": 3099,
      "Ġspeak": 3100,
      "ana": 3101,
      "Ġconnection": 3102,
      "icro": 3103,
      "mit": 3104,
      "oll": 3105,
      "rel": 3106,
      "Ġtaken": 3107,
      "Ġentire": 3108,
      "Ġspread": 3109,
      "Ġobs": 3110,
      "Ġhost": 3111,
      "Ġphone": 3112,
      "ony": 3113,
      "Ġbright": 3114,
      "iring": 3115,
      "ĠUniversity": 3116,
      "Ġmachine": 3117,
      "Ġet": 3118,
      "Ġpriorit": 3119,
      "Ġroll": 3120,
      "ĠMe": 3121,
      "agon": 3122,
      "Ġadvent": 3123,
      "Ġobst": 3124,
      "Ġproductivity": 3125,
      "Thanks": 3126,
      "Ġstra": 3127,
      "Ġreceive": 3128,
      "Ġprevious": 3129,
      "Ġgold": 3130,
      "ields": 3131,
      "ready": 3132,
      "Ġactive": 3133,
      "Ġreven": 3134,
      "oms": 3135,
      "Ġdy": 3136,
      "Ġmount": 3137,
      "There": 3138,
      "mosp": 3139,
      "Ġtried": 3140,
      "Ġmentioned": 3141,
      "Ġdistribut": 3142,
      "Ġloved": 3143,
      "ography": 3144,
      "ole": 3145,
      "Ġfail": 3146,
      "Ġbi": 3147,
      "Ġded": 3148,
      "Ġprim": 3149,
      "yond": 3150,
      "Ġvegan": 3151,
      "Ġbuilt": 3152,
      "Ġplanning": 3153,
      "Ġpurchase": 3154,
      "urope": 3155,
      "Ġshared": 3156,
      "uis": 3157,
      "Ġscen": 3158,
      "fs": 3159,
      "Ġsort": 3160,
      "Ġfashion": 3161,
      "plic": 3162,
      "Ad": 3163,
      "Ġthing": 3164,
      "Ġtreatment": 3165,
      "Des": 3166,
      "Ġbase": 3167,
      "Ġ18": 3168,
      "Ġconcept": 3169,
      "ĠProv": 3170,
      "Ġtrees": 3171,
      "Ġflour": 3172,
      "Ġappropri": 3173,
      "Ġsmart": 3174,
      "Ġgot": 3175,
      "hing": 3176,
      "Ġmonths": 3177,
      "chan": 3178,
      "Ġefficiency": 3179,
      "Ġthick": 3180,
      "Ġstorage": 3181,
      "Ġproblems": 3182,
      "Ġincorporating": 3183,
      "Ġlimited": 3184,
      "irl": 3185,
      "idge": 3186,
      "Ġinteractive": 3187,
      "Ġgas": 3188,
      "Ġatmosp": 3189,
      "ON": 3190,
      "Ġsuit": 3191,
      "Ġflex": 3192,
      "ricult": 3193,
      "ronic": 3194,
      "fully": 3195,
      "Ġmor": 3196,
      "ĠAt": 3197,
      "Ġconstant": 3198,
      "Ġbir": 3199,
      "Ġrelig": 3200,
      "initely": 3201,
      "ades": 3202,
      "artment": 3203,
      "Ġmillion": 3204,
      "],": 3205,
      "ĠJapan": 3206,
      "board": 3207,
      "Ġlaw": 3208,
      "Ġgreater": 3209,
      "Ġadvance": 3210,
      "You": 3211,
      "Ġlooks": 3212,
      "Ġshows": 3213,
      "Ġalready": 3214,
      "Ġsand": 3215,
      "amed": 3216,
      "att": 3217,
      "ux": 3218,
      "Inst": 3219,
      "Ġdesigns": 3220,
      "Ġbooks": 3221,
      "Ġcreatures": 3222,
      "rict": 3223,
      "ilies": 3224,
      "Ġpurpose": 3225,
      "Ġoffering": 3226,
      "Ġsoon": 3227,
      "Ġ12": 3228,
      "Ġutil": 3229,
      "Ġjuice": 3230,
      "ena": 3231,
      "Ġobstac": 3232,
      "hib": 3233,
      "Ġcontribute": 3234,
      "ado": 3235,
      "rition": 3236,
      "ler": 3237,
      "Ġidentity": 3238,
      "Ġsurface": 3239,
      "Ġstyles": 3240,
      "Ġwrite": 3241,
      "Ġreli": 3242,
      "Ġcommunicate": 3243,
      "Ġtesting": 3244,
      "Ġreality": 3245,
      "inks": 3246,
      "ww": 3247,
      "iling": 3248,
      "Ġestablish": 3249,
      "verage": 3250,
      "comes": 3251,
      "Ġadvertising": 3252,
      "ĠX": 3253,
      "Ex": 3254,
      "19": 3255,
      "Ġexpand": 3256,
      "othing": 3257,
      "ĠUS": 3258,
      "En": 3259,
      "alu": 3260,
      "izz": 3261,
      "su": 3262,
      "Ġ*": 3263,
      "Ġproduce": 3264,
      "ĠEurope": 3265,
      "ĠChrist": 3266,
      "Ġabs": 3267,
      "Ġfeelings": 3268,
      "Ġpolitical": 3269,
      "Ġfra": 3270,
      "Ġscript": 3271,
      "Ġvivid": 3272,
      "sequ": 3273,
      "Ġinterests": 3274,
      "Ġbeyond": 3275,
      "ĠSocial": 3276,
      "With": 3277,
      "Ġmatch": 3278,
      "ĠAfric": 3279,
      "Ġabilities": 3280,
      "ĠEmily": 3281,
      "Ġhelping": 3282,
      "ulate": 3283,
      "Ġcam": 3284,
      "ios": 3285,
      "Ġnavigate": 3286,
      "Ġmemory": 3287,
      "nal": 3288,
      "not": 3289,
      "ses": 3290,
      "Ġshape": 3291,
      "Ġloyal": 3292,
      "ison": 3293,
      "Ġimproved": 3294,
      "Ġemissions": 3295,
      "Ġwasn": 3296,
      "inating": 3297,
      "eper": 3298,
      "Ġscience": 3299,
      "ror": 3300,
      "Ġoptimize": 3301,
      "Ġwon": 3302,
      "arc": 3303,
      "Ġsite": 3304,
      "Ġscreen": 3305,
      "Ġinfluence": 3306,
      "Ġrunning": 3307,
      "ĠThat": 3308,
      "Ġrad": 3309,
      "sych": 3310,
      "Ġprec": 3311,
      "rought": 3312,
      "Ġfamous": 3313,
      "atory": 3314,
      "Ġoutd": 3315,
      "ban": 3316,
      "my": 3317,
      "etry": 3318,
      "Ġdepending": 3319,
      "iles": 3320,
      "Ġexperienced": 3321,
      "pre": 3322,
      "Ġhor": 3323,
      "ĠTw": 3324,
      "Ġinitiatives": 3325,
      "ĠOverall": 3326,
      "Ġimplementing": 3327,
      "Ġcomfortable": 3328,
      "Ġallowed": 3329,
      "Ġrob": 3330,
      "Ġeconomy": 3331,
      "Ġsection": 3332,
      "Ġdead": 3333,
      "Ġevalu": 3334,
      "Ġwoman": 3335,
      "lude": 3336,
      "ĠMy": 3337,
      "rant": 3338,
      "Ġfu": 3339,
      "Ġsingle": 3340,
      "ager": 3341,
      "Ġremove": 3342,
      "Ġblue": 3343,
      "Ġauthent": 3344,
      "Ġrequires": 3345,
      "Ġmass": 3346,
      "Ġinvestment": 3347,
      "Ġpropos": 3348,
      "ission": 3349,
      "Ġflavors": 3350,
      "Ġ15": 3351,
      "ĠPr": 3352,
      "ĠRo": 3353,
      "Ġlab": 3354,
      "ervation": 3355,
      "Ġanalyze": 3356,
      "ĠDon": 3357,
      "Ġindustries": 3358,
      "Ġrestaurant": 3359,
      "Ġshown": 3360,
      "Ġalone": 3361,
      "Ġlink": 3362,
      "eter": 3363,
      "Ġserving": 3364,
      "Ġthreat": 3365,
      "Ġincred": 3366,
      "Ġdrive": 3367,
      "Ġcompon": 3368,
      "Ġenter": 3369,
      "Ġword": 3370,
      "ĠHis": 3371,
      "Ġsoup": 3372,
      "Ġleave": 3373,
      "Ġclassic": 3374,
      "Ġresil": 3375,
      "Ġinside": 3376,
      "arian": 3377,
      "Ġforms": 3378,
      "Ġteac": 3379,
      "Ġmovement": 3380,
      "Ġscene": 3381,
      "ĠMany": 3382,
      "Ġbra": 3383,
      "oon": 3384,
      "faction": 3385,
      "erns": 3386,
      "Ġfasc": 3387,
      "ĠFace": 3388,
      "Ġstudent": 3389,
      "Ġlibr": 3390,
      "Ġsharing": 3391,
      "Ġcoc": 3392,
      "ĠNational": 3393,
      "Ġmyself": 3394,
      "Ġgratitude": 3395,
      "ĠTake": 3396,
      "Ġvolunte": 3397,
      "Ġtrends": 3398,
      "ded": 3399,
      "Ġacademic": 3400,
      "',": 3401,
      "ĠStud": 3402,
      "igation": 3403,
      "Ġrequirements": 3404,
      "Ġcollection": 3405,
      "Ġinnovative": 3406,
      "Ġi": 3407,
      "Ġtruly": 3408,
      "Ġworkout": 3409,
      "Ġans": 3410,
      "ĠSam": 3411,
      "Ġsky": 3412,
      "Ġfast": 3413,
      "Ġsepar": 3414,
      "Ġmechan": 3415,
      "Ġlandsc": 3416,
      "icy": 3417,
      "li": 3418,
      "Ġage": 3419,
      "ccording": 3420,
      "Ġcomplet": 3421,
      "Ġadvant": 3422,
      "ĠInt": 3423,
      "etic": 3424,
      "Ġlimit": 3425,
      "imp": 3426,
      "Ġoutcomes": 3427,
      "ĠAg": 3428,
      "Ġpatients": 3429,
      "Ġcollaboration": 3430,
      "Ġdiscovered": 3431,
      "ided": 3432,
      "Ġwonder": 3433,
      "ĠPe": 3434,
      "Ġpassage": 3435,
      "Ġsubs": 3436,
      "ĠDevelop": 3437,
      "Ġimpacts": 3438,
      "Ġveh": 3439,
      "Ġvisitors": 3440,
      "Ġarticle": 3441,
      "Ġbott": 3442,
      "Ġtail": 3443,
      "Ġactions": 3444,
      "Ġcuis": 3445,
      "coming": 3446,
      "ĠAI": 3447,
      "ES": 3448,
      "Ġcooked": 3449,
      "Ġformat": 3450,
      "Ġready": 3451,
      "ume": 3452,
      "Ġrecipes": 3453,
      "Ġoutput": 3454,
      "Ġsolution": 3455,
      "Ġsubject": 3456,
      "Ġblood": 3457,
      "Con": 3458,
      "Ġdeath": 3459,
      "ĠCal": 3460,
      "Ġspeed": 3461,
      "rect": 3462,
      "Ġoffic": 3463,
      "Ġfinally": 3464,
      "bor": 3465,
      "Ġreaders": 3466,
      "icing": 3467,
      "ĠDis": 3468,
      "Ġatmosphere": 3469,
      "overy": 3470,
      "lam": 3471,
      "ourage": 3472,
      "Ġroad": 3473,
      "Ġparents": 3474,
      "Ġonto": 3475,
      "Ġsoil": 3476,
      "Ġpassion": 3477,
      "Ġpush": 3478,
      "Ġsummary": 3479,
      "ĠAlex": 3480,
      "house": 3481,
      "ĠChoose": 3482,
      "AS": 3483,
      "Ġtone": 3484,
      "Ġdifference": 3485,
      "Ġaffordable": 3486,
      "umber": 3487,
      "Ġsea": 3488,
      "Ġdesired": 3489,
      "Ġsituation": 3490,
      "Ġimpress": 3491,
      "Ġprofession": 3492,
      "Ġhol": 3493,
      "Ġpressure": 3494,
      "Ġappropriate": 3495,
      "Ġparticular": 3496,
      "Ġpict": 3497,
      "PI": 3498,
      "Ġcand": 3499,
      "Thank": 3500,
      "Ġteaspoon": 3501,
      "Ġheld": 3502,
      "Ġtask": 3503,
      "aced": 3504,
      "Ġstarting": 3505,
      "Ġfruit": 3506,
      "Ġupon": 3507,
      "Ġchat": 3508,
      "ounter": 3509,
      "Ġwritten": 3510,
      "12": 3511,
      "Ġexpected": 3512,
      "lut": 3513,
      "mar": 3514,
      "ĠHealth": 3515,
      "Ġfamilies": 3516,
      "Ġtypically": 3517,
      "Ġhun": 3518,
      "Ġdeeper": 3519,
      "Ġblock": 3520,
      "ĠFacebook": 3521,
      "Ġensuring": 3522,
      "Ġissue": 3523,
      "Ġwanted": 3524,
      "Ġfront": 3525,
      "Ġvisually": 3526,
      "Ġerror": 3527,
      "Ġlarger": 3528,
      "Ġexploring": 3529,
      "ĠUs": 3530,
      "ample": 3531,
      "Ġgradu": 3532,
      "Ġfinding": 3533,
      "Ġsignificance": 3534,
      "roll": 3535,
      "Ġwine": 3536,
      "Ġworth": 3537,
      "abilities": 3538,
      "Ġpark": 3539,
      "Ġcop": 3540,
      "Ġincluded": 3541,
      "Ġinstru": 3542,
      "Ġarchitecture": 3543,
      "Ġvalid": 3544,
      "ifications": 3545,
      "Ġonion": 3546,
      "Ġagricult": 3547,
      "Ġregularly": 3548,
      "Ġgrowing": 3549,
      "oost": 3550,
      "Ġpatient": 3551,
      "Ġsustainability": 3552,
      "Ġchocolate": 3553,
      "ĠStates": 3554,
      "Ġevidence": 3555,
      "Ġgarden": 3556,
      "Ġband": 3557,
      "aim": 3558,
      "Ġfully": 3559,
      "cl": 3560,
      "Ġthird": 3561,
      "ĠQu": 3562,
      "che": 3563,
      "Ġinstance": 3564,
      "Ġconvey": 3565,
      "Ġbed": 3566,
      "cean": 3567,
      "Ġparts": 3568,
      "Ġtechnique": 3569,
      "Ġdetermine": 3570,
      "Ġlemon": 3571,
      "unning": 3572,
      "Ġlength": 3573,
      "Ġrevenue": 3574,
      "Ġeye": 3575,
      "Ġplaying": 3576,
      "Ġassess": 3577,
      "oke": 3578,
      "Ġblend": 3579,
      "words": 3580,
      "Ġlatest": 3581,
      "Ġconsid": 3582,
      "Ġremote": 3583,
      "Ġtracking": 3584,
      "Ġeffort": 3585,
      "Ġyet": 3586,
      "Ġvict": 3587,
      "Ġsatisfaction": 3588,
      "Ġbenefit": 3589,
      "Ġconcerns": 3590,
      "Ġeffectiveness": 3591,
      "Ġimmers": 3592,
      "rad": 3593,
      "Ġwid": 3594,
      "ellig": 3595,
      "Ġdamage": 3596,
      "ĠDr": 3597,
      "Ġmusc": 3598,
      "ĠGree": 3599,
      "Ġcombination": 3600,
      "Ġdevice": 3601,
      "rew": 3602,
      "Ġtalk": 3603,
      "Ġlooked": 3604,
      "Ġspent": 3605,
      "Ġschools": 3606,
      "Ġheard": 3607,
      "ĠPart": 3608,
      "ĠRec": 3609,
      "Ġalign": 3610,
      "Ġaffected": 3611,
      "Ġtax": 3612,
      "Ġpresence": 3613,
      "Ġglass": 3614,
      "Here": 3615,
      "Ġtree": 3616,
      "Ġdate": 3617,
      "Ġdou": 3618,
      "Ġconstruction": 3619,
      "gredients": 3620,
      "ured": 3621,
      "Ġcyc": 3622,
      "Ġemployee": 3623,
      "oint": 3624,
      "load": 3625,
      "illa": 3626,
      "key": 3627,
      "Ġoperations": 3628,
      "ara": 3629,
      "Ġalternative": 3630,
      "Ġstri": 3631,
      "Ġprocesses": 3632,
      "AT": 3633,
      "Ġsupply": 3634,
      "Ġfeet": 3635,
      "Ġmoments": 3636,
      "Ġregard": 3637,
      "Ġmaxim": 3638,
      "Ġdecisions": 3639,
      "Ġrespond": 3640,
      "Ġdisease": 3641,
      "Ġprice": 3642,
      "pected": 3643,
      "When": 3644,
      "Ġvib": 3645,
      "Ġbrain": 3646,
      "Ġspecies": 3647,
      "ĠAfter": 3648,
      "Ġreading": 3649,
      "Ġboard": 3650,
      "idents": 3651,
      "Ġexecut": 3652,
      "ĠAss": 3653,
      "rief": 3654,
      "Ġri": 3655,
      "Ġappreciate": 3656,
      "Ġdefinitely": 3657,
      "Int": 3658,
      "agonist": 3659,
      "Ġbatter": 3660,
      "Ġteams": 3661,
      "Ġrain": 3662,
      "Ġrock": 3663,
      "Ġmonth": 3664,
      "chool": 3665,
      "overs": 3666,
      "ppers": 3667,
      "Ġshowcase": 3668,
      "Ġseeds": 3669,
      "Ġdocument": 3670,
      "Ġlater": 3671,
      "Ġinternational": 3672,
      "Ġesc": 3673,
      "Ġdeg": 3674,
      "Ġreve": 3675,
      "Ġhimself": 3676,
      "EN": 3677,
      "Ġdatab": 3678,
      "Ġdiv": 3679,
      "Ġlack": 3680,
      "Ġrisks": 3681,
      "Ġjoy": 3682,
      "Ġthinking": 3683,
      "Ġremember": 3684,
      "edi": 3685,
      "30": 3686,
      "Ġhalf": 3687,
      "Ġlines": 3688,
      "15": 3689,
      "Your": 3690,
      "ĠGu": 3691,
      "Ġtot": 3692,
      "Ġhon": 3693,
      "Ġdepression": 3694,
      "Ġhoney": 3695,
      "Ġfive": 3696,
      "onut": 3697,
      "Ġaccur": 3698,
      "Ġmission": 3699,
      "Ġanyone": 3700,
      "ffect": 3701,
      "idden": 3702,
      "ĠWorld": 3703,
      "Ġinfluenced": 3704,
      "amb": 3705,
      "inc": 3706,
      "Ġstaff": 3707,
      "('": 3708,
      "ivery": 3709,
      "Ġeco": 3710,
      "Ġturned": 3711,
      "Ġchannels": 3712,
      "EO": 3713,
      "Ġcuisine": 3714,
      "ĠKeep": 3715,
      "etimes": 3716,
      "het": 3717,
      "itary": 3718,
      "Ġweeks": 3719,
      "Ġkn": 3720,
      "ules": 3721,
      "Ġreader": 3722,
      "Ġprotagonist": 3723,
      "Ġinj": 3724,
      "rench": 3725,
      "Ġtopics": 3726,
      "Ġframe": 3727,
      "Ġaccept": 3728,
      "Ġcompos": 3729,
      "Ġhyd": 3730,
      "ka": 3731,
      "ister": 3732,
      "Ġretail": 3733,
      "Ġbuildings": 3734,
      "itter": 3735,
      "Ġconsidered": 3736,
      "ĠReg": 3737,
      "rug": 3738,
      "Ġprompt": 3739,
      "ĠArt": 3740,
      "Ġdeal": 3741,
      "Ġnumer": 3742,
      "lies": 3743,
      "Ġfa": 3744,
      "Ġearth": 3745,
      "rs": 3746,
      "Ġproperties": 3747,
      "ought": 3748,
      "Ġwomen": 3749,
      "enn": 3750,
      "works": 3751,
      "Ġsliced": 3752,
      "ief": 3753,
      "Ingredients": 3754,
      "Ġrather": 3755,
      "ĠCom": 3756,
      "ifically": 3757,
      "ĠRemember": 3758,
      "Ġdeliver": 3759,
      "AN": 3760,
      "Ġpainting": 3761,
      "Ġrecyc": 3762,
      "Ġherbs": 3763,
      "Ġaccessible": 3764,
      "Ġinvolve": 3765,
      "Ġslight": 3766,
      "Ġstop": 3767,
      "Ġsports": 3768,
      "Ġanalytics": 3769,
      "iber": 3770,
      "ognitive": 3771,
      "Ġharm": 3772,
      "Ġserved": 3773,
      "rupt": 3774,
      "Another": 3775,
      "ĠEl": 3776,
      "Ġstret": 3777,
      "Ġsignificantly": 3778,
      "ĠFinally": 3779,
      "lines": 3780,
      "Ġsmaller": 3781,
      "Â°": 3782,
      "tenance": 3783,
      "ĠFl": 3784,
      "Ġfab": 3785,
      "more": 3786,
      "Ġregions": 3787,
      "Ġcold": 3788,
      "Ġschedule": 3789,
      "Ġpal": 3790,
      "Ġ/": 3791,
      "Ġprivate": 3792,
      "used": 3793,
      "Ġhop": 3794,
      "ĠGr": 3795,
      "Ġspices": 3796,
      "Ġadvice": 3797,
      "Ġdistance": 3798,
      "inated": 3799,
      "Ġbrought": 3800,
      "enses": 3801,
      "wh": 3802,
      "ĠInstagram": 3803,
      "Ġdiverse": 3804,
      "Ġexpos": 3805,
      "Ġdiscover": 3806,
      "order": 3807,
      "Ġnovel": 3808,
      "://": 3809,
      "Ġobstacles": 3810,
      "Ġinitial": 3811,
      "Ġreceived": 3812,
      "Ġcreativity": 3813,
      "Ġtrade": 3814,
      "Ġtow": 3815,
      "Ġice": 3816,
      "ĠStart": 3817,
      "ĠMon": 3818,
      "))": 3819,
      "Ġgrew": 3820,
      "fit": 3821,
      "iration": 3822,
      "ĠResearch": 3823,
      "ĠOff": 3824,
      "Pro": 3825,
      "ĠHigh": 3826,
      "Ġcast": 3827,
      "inger": 3828,
      "Ġhistorical": 3829,
      "Ġalmond": 3830,
      "Ġrelease": 3831,
      "iam": 3832,
      "Ġprefer": 3833,
      "Ġgeneral": 3834,
      "Ġmodels": 3835,
      "Ġstruggles": 3836,
      "ĠTechn": 3837,
      "apter": 3838,
      "Ġneigh": 3839,
      "ini": 3840,
      "Ġcatch": 3841,
      "Ġtomatoes": 3842,
      "Ġnarr": 3843,
      "itute": 3844,
      "Ġoffice": 3845,
      "</": 3846,
      "ental": 3847,
      "Ġspr": 3848,
      "Ġgiving": 3849,
      "Ġbox": 3850,
      "ken": 3851,
      "Em": 3852,
      "Ġpolicy": 3853,
      "Ġpercent": 3854,
      "Ġreduced": 3855,
      "ums": 3856,
      "ĠSouth": 3857,
      "Ġevol": 3858,
      "Ġkit": 3859,
      "Ġcourses": 3860,
      "Ġheavy": 3861,
      "like": 3862,
      "ivil": 3863,
      "Ġleads": 3864,
      "Ġletter": 3865,
      "Ġfields": 3866,
      "Ġcompared": 3867,
      "Ġdynam": 3868,
      "ĠPre": 3869,
      "Ġpartner": 3870,
      "Ġplaces": 3871,
      "Ġdough": 3872,
      "Ġban": 3873,
      "Ġoccur": 3874,
      "Ġmist": 3875,
      "Ġintric": 3876,
      "yl": 3877,
      "Ġshel": 3878,
      "Ġtheme": 3879,
      "Ġdeb": 3880,
      "ĠCheck": 3881,
      "porary": 3882,
      "Ġmit": 3883,
      "ended": 3884,
      "icated": 3885,
      "Ġworkers": 3886,
      "Ġmaintaining": 3887,
      "Ġplastic": 3888,
      "ĠĠĠĠĠĠĠĠĠĠĠĠĠĠĠ": 3889,
      "ĠTheir": 3890,
      "Ġapps": 3891,
      "ĠBr": 3892,
      "ĠFe": 3893,
      "Ġpsych": 3894,
      "Ġhosp": 3895,
      "Ġcups": 3896,
      "Ġtrip": 3897,
      "ball": 3898,
      "Ġimplementation": 3899,
      "Ġbelieved": 3900,
      "Ġprofessionals": 3901,
      "ither": 3902,
      "ipped": 3903,
      "Ġclient": 3904,
      "Ġmood": 3905,
      "Ġahead": 3906,
      "vest": 3907,
      "force": 3908,
      "ellow": 3909,
      "Ġphotos": 3910,
      "Ġchanging": 3911,
      "Ġflowers": 3912,
      "Ġboost": 3913,
      "Ġexhib": 3914,
      "Ġfunding": 3915,
      "Ġcultures": 3916,
      "AC": 3917,
      "Ġnutrition": 3918,
      "Ġsets": 3919,
      "Ġconsequ": 3920,
      "comm": 3921,
      "Ġvegetable": 3922,
      "Ġdelivery": 3923,
      "urance": 3924,
      "Ġultimately": 3925,
      "He": 3926,
      "Ġcontext": 3927,
      "iding": 3928,
      "Ġmuse": 3929,
      "Ġanalyz": 3930,
      "Ġtwist": 3931,
      "ĠPar": 3932,
      "ĠPark": 3933,
      "Ġgrand": 3934,
      "Ġdepth": 3935,
      "Ġcomputer": 3936,
      "Ġsatisf": 3937,
      "Ġplayer": 3938,
      "Ġoutdoor": 3939,
      "Ġcoming": 3940,
      "Ġcorrect": 3941,
      "ulner": 3942,
      "Create": 3943,
      "itors": 3944,
      "ĠPer": 3945,
      "ĠCommun": 3946,
      "ateful": 3947,
      "gment": 3948,
      "que": 3949,
      "Ġalgorithm": 3950,
      "Ġclasses": 3951,
      "ĠRep": 3952,
      "Ġchance": 3953,
      "Ġresponsible": 3954,
      "otes": 3955,
      "Ġadopt": 3956,
      "Ġmother": 3957,
      "uries": 3958,
      "Ġtechnical": 3959,
      "Ġmonitor": 3960,
      "Ġincent": 3961,
      "Ġobjects": 3962,
      "Ġmeals": 3963,
      "Instructions": 3964,
      "Ġcells": 3965,
      "Ġcat": 3966,
      "Ġintellig": 3967,
      "itor": 3968,
      "Ġrise": 3969,
      "Ġcentury": 3970,
      "Ġcompetition": 3971,
      "Ġappealing": 3972,
      "Ġleaving": 3973,
      "Ġdom": 3974,
      "Ġprioritize": 3975,
      "ĠBar": 3976,
      "ĠEns": 3977,
      "Ġ.": 3978,
      "Ġbeans": 3979,
      "fast": 3980,
      "ĠMarketing": 3981,
      "Ġmemories": 3982,
      "Ġdirectly": 3983,
      "Ġcrisp": 3984,
      "ares": 3985,
      "Ġtea": 3986,
      "Ġnothing": 3987,
      "Ġdiscount": 3988,
      "iol": 3989,
      "dom": 3990,
      "Ġimmedi": 3991,
      "list": 3992,
      "name": 3993,
      "Ġsessions": 3994,
      "Ġresilience": 3995,
      "Ġinde": 3996,
      "Ġcreates": 3997,
      "Ġcaused": 3998,
      "sem": 3999,
      "Ġcross": 4000,
      "Ġwalking": 4001,
      "Ġgather": 4002,
      "Ġeggs": 4003,
      "Ġsuccessfully": 4004,
      "Ġcompletely": 4005,
      "Ġguidance": 4006,
      "Ġ100": 4007,
      "Ġic": 4008,
      "ĠWar": 4009,
      "encies": 4010,
      "ĠIntern": 4011,
      "Ġcancer": 4012,
      "Ġvulner": 4013,
      "onic": 4014,
      "Ġshad": 4015,
      "Ġmas": 4016,
      "Ġdoesn": 4017,
      "________________": 4018,
      "Ġillust": 4019,
      "Ġexcept": 4020,
      "ĠCity": 4021,
      "Ġstronger": 4022,
      "race": 4023,
      "Ġsituations": 4024,
      "Ġcontrast": 4025,
      "Ġoverw": 4026,
      "Ġsummer": 4027,
      "Ġhidden": 4028,
      "Ġbecoming": 4029,
      "isk": 4030,
      "ĠCook": 4031,
      "Ġproperly": 4032,
      "Ġchanged": 4033,
      "uments": 4034,
      "Ġcraft": 4035,
      "au": 4036,
      "Ġcities": 4037,
      "Ġplanet": 4038,
      "Ġorganic": 4039,
      "Ġbrands": 4040,
      "Ġbuy": 4041,
      "Ġbelow": 4042,
      "uth": 4043,
      "Ġtotal": 4044,
      "Ġaspects": 4045,
      "Ġpet": 4046,
      "Ġcognitive": 4047,
      "lusive": 4048,
      "Ġalmost": 4049,
      "Ġinterface": 4050,
      "Ġbeef": 4051,
      "Ġuseful": 4052,
      "Ġgrateful": 4053,
      "ublic": 4054,
      "ĠEar": 4055,
      "Ġconsistent": 4056,
      "Ġfoods": 4057,
      "Ġpick": 4058,
      "Ġapply": 4059,
      "If": 4060,
      "ĠSim": 4061,
      "arp": 4062,
      "Ġyoga": 4063,
      "Ġpotatoes": 4064,
      "Ġqual": 4065,
      "lear": 4066,
      "Ġbasic": 4067,
      "Ġwat": 4068,
      "chen": 4069,
      "Ġmember": 4070,
      "Ġec": 4071,
      "Ġfro": 4072,
      "Ġhous": 4073,
      "Ġconflict": 4074,
      "Ġdatabase": 4075,
      "Ġcases": 4076,
      "ava": 4077,
      "ung": 4078,
      "Ġstunning": 4079,
      "Ġloyalty": 4080,
      "ula": 4081,
      "Ġstreet": 4082,
      "umn": 4083,
      "Ġsensory": 4084,
      "Ġreb": 4085,
      "Ġsold": 4086,
      "Ġposts": 4087,
      "Ġmetrics": 4088,
      "Ġslightly": 4089,
      "Ġopp": 4090,
      "Ġrecommended": 4091,
      "Ġvac": 4092,
      "eries": 4093,
      "fered": 4094,
      "ceed": 4095,
      "Ġocean": 4096,
      "Ġforce": 4097,
      "ĠVis": 4098,
      "ek": 4099,
      "ĠMaybe": 4100,
      "Ġconsequences": 4101,
      "Ġcin": 4102,
      "Ġhit": 4103,
      "anging": 4104,
      "Ġstruct": 4105,
      "Ġcro": 4106,
      "gram": 4107,
      "ĠSw": 4108,
      "Ġconcise": 4109,
      "Ġoriginal": 4110,
      "Ġoffered": 4111,
      "Ġlighting": 4112,
      "Ġretur": 4113,
      "ĠEnsure": 4114,
      "Ġintricate": 4115,
      "pty": 4116,
      "Ġtele": 4117,
      "Ġexpertise": 4118,
      "Ġcoconut": 4119,
      "Ġmaintenance": 4120,
      "Ġreviews": 4121,
      "Ġpages": 4122,
      "Our": 4123,
      "raft": 4124,
      "yd": 4125,
      "ĠPract": 4126,
      "Ġdoor": 4127,
      "ĠAust": 4128,
      "Ġadds": 4129,
      "ĠEach": 4130,
      "Ġnamed": 4131,
      "Ġtablespoon": 4132,
      "Ġprepare": 4133,
      "Ġagree": 4134,
      "Ġmenu": 4135,
      "ups": 4136,
      "ompl": 4137,
      "lier": 4138,
      "].": 4139,
      "Ġcry": 4140,
      "eless": 4141,
      "clusion": 4142,
      "urch": 4143,
      "Ġlayer": 4144,
      "rong": 4145,
      "Ġdescriptions": 4146,
      "Ġadventure": 4147,
      "duc": 4148,
      "Ġwebsites": 4149,
      "ĠNo": 4150,
      "Ġcateg": 4151,
      "ply": 4152,
      "Ġcomments": 4153,
      "nown": 4154,
      "Ġeducational": 4155,
      "Ġlate": 4156,
      "Ġdetermined": 4157,
      "Ġspot": 4158,
      "Ġgift": 4159,
      "Ġball": 4160,
      "Ġoverwhel": 4161,
      "Ġmovie": 4162,
      "col": 4163,
      "Ġcollege": 4164,
      "ably": 4165,
      "Ġchem": 4166,
      "Ġdecre": 4167,
      "ocal": 4168,
      "Ġtraditions": 4169,
      "Ġrestaurants": 4170,
      "ĠIndia": 4171,
      "Ġreact": 4172,
      "Ġcontem": 4173,
      "uous": 4174,
      "Ġterm": 4175,
      "Ġworksh": 4176,
      "Ġvine": 4177,
      "Ġincome": 4178,
      "Ġmessages": 4179,
      "Ġvan": 4180,
      "ĠProvide": 4181,
      "Ġcreation": 4182,
      "akers": 4183,
      "Ġparty": 4184,
      "Ġload": 4185,
      "sm": 4186,
      "Ġfilling": 4187,
      "Ġresulting": 4188,
      "ttps": 4189,
      "Ġclick": 4190,
      "Ġmoving": 4191,
      "Ġpricing": 4192,
      "Hey": 4193,
      "Ġchain": 4194,
      "Ġcurious": 4195,
      "Ġupdates": 4196,
      "Ġreligious": 4197,
      "Ġfascinating": 4198,
      "ibilities": 4199,
      "Ġaccompl": 4200,
      "ĠFrench": 4201,
      "ĠSystem": 4202,
      "Ġsimply": 4203,
      "umin": 4204,
      "Ġclothing": 4205,
      "Ġx": 4206,
      "Ġstruggling": 4207,
      "rooms": 4208,
      "Ġcondition": 4209,
      "Ġlandscape": 4210,
      "Ġmilitary": 4211,
      "inct": 4212,
      "Ġcalm": 4213,
      "Ġvary": 4214,
      "Ġexisting": 4215,
      "Ġbroad": 4216,
      "Ġnumerous": 4217,
      "Rem": 4218,
      "Ġitself": 4219,
      "ĠSec": 4220,
      "Ġmeeting": 4221,
      "Ġinnovation": 4222,
      "isms": 4223,
      "Ġsympt": 4224,
      "agn": 4225,
      "Ġsettings": 4226,
      "down": 4227,
      "Ġfat": 4228,
      "Ġpap": 4229,
      "ĠMix": 4230,
      "Ġdescription": 4231,
      "ĠGl": 4232,
      "Ġrequest": 4233,
      ",âĢĿ": 4234,
      "gr": 4235,
      "Ġcarry": 4236,
      "Ġmanaging": 4237,
      "ĠCustom": 4238,
      "ifying": 4239,
      "Ġmovements": 4240,
      "essert": 4241,
      "Ġtut": 4242,
      "Ġurban": 4243,
      "eling": 4244,
      "Ġbond": 4245,
      "Ġglut": 4246,
      "Ġstage": 4247,
      "ĠNe": 4248,
      "Ġrh": 4249,
      "Ġmorning": 4250,
      "Ġencount": 4251,
      "Ġusage": 4252,
      "Ġmap": 4253,
      "erce": 4254,
      "Ġweak": 4255,
      "Ġextract": 4256,
      "fficient": 4257,
      "Ġver": 4258,
      "Ġproperty": 4259,
      "IC": 4260,
      "ĠMus": 4261,
      "ront": 4262,
      "Ġanimal": 4263,
      "ĠEnc": 4264,
      "ĠWill": 4265,
      "flow": 4266,
      "Ġtension": 4267,
      "Ġdriving": 4268,
      "water": 4269,
      "zy": 4270,
      "icip": 4271,
      "Ġmotivated": 4272,
      "Ġspiritual": 4273,
      "inner": 4274,
      "Ġstores": 4275,
      "ĠGreek": 4276,
      "Ġgent": 4277,
      "Ġspecifically": 4278,
      "Ġapart": 4279,
      "ocado": 4280,
      "eria": 4281,
      "oe": 4282,
      "Ġfruits": 4283,
      "Ġpayment": 4284,
      "Ġmagic": 4285,
      "Ġgave": 4286,
      "Ġwalls": 4287,
      "Ġengaged": 4288,
      "emade": 4289,
      "ĠServ": 4290,
      "ython": 4291,
      "Ġpassed": 4292,
      "ĠPol": 4293,
      "Ġinterview": 4294,
      "Ġusually": 4295,
      "Ġmiddle": 4296,
      "Ġpeppers": 4297,
      "?\"": 4298,
      "Ġparticipate": 4299,
      "oration": 4300,
      "iers": 4301,
      "ipping": 4302,
      "itage": 4303,
      "ĠNorth": 4304,
      "enerate": 4305,
      "Ġalgorithms": 4306,
      "Ġimpacted": 4307,
      "Ġsnow": 4308,
      "Ġstruggle": 4309,
      "Ġpredict": 4310,
      "Ġsymptoms": 4311,
      "Ġhabit": 4312,
      "Ġ25": 4313,
      "Ġdecided": 4314,
      "Ġbreathing": 4315,
      "ĠGe": 4316,
      "Despite": 4317,
      "Ġisol": 4318,
      "Ġjobs": 4319,
      "Ġimagery": 4320,
      "iff": 4321,
      "ica": 4322,
      "Ġsummar": 4323,
      "acity": 4324,
      "Ġnutri": 4325,
      "Ġexch": 4326,
      "Ġinfluencers": 4327,
      "roduction": 4328,
      "ĠGo": 4329,
      "Ġisland": 4330,
      "Ġnuts": 4331,
      "Ġcontinues": 4332,
      "ĠTry": 4333,
      "chol": 4334,
      "Ġhar": 4335,
      "Ġprices": 4336,
      "fu": 4337,
      "ulations": 4338,
      "ĠServe": 4339,
      "iday": 4340,
      "Ġfigure": 4341,
      "icks": 4342,
      "ĠVal": 4343,
      "Ġclim": 4344,
      "orders": 4345,
      "Ġdescriptive": 4346,
      "ox": 4347,
      "Ġideal": 4348,
      "Ġcapture": 4349,
      "Ġoccas": 4350,
      "Ġparticipants": 4351,
      "ĠEd": 4352,
      "log": 4353,
      "asure": 4354,
      "Ġdrug": 4355,
      "Ġpollut": 4356,
      "aked": 4357,
      "eral": 4358,
      "Ġfiles": 4359,
      "Ġappl": 4360,
      "11": 4361,
      "AY": 4362,
      "assion": 4363,
      "Ġru": 4364,
      "Ġshopping": 4365,
      "Ġcomplement": 4366,
      "Ġimprovement": 4367,
      "Ġexciting": 4368,
      "Ġresearc": 4369,
      "Ġir": 4370,
      "ĠSchool": 4371,
      "Ġmark": 4372,
      "ibly": 4373,
      "Ġterr": 4374,
      "Ġgirl": 4375,
      "Ġpod": 4376,
      "ults": 4377,
      "So": 4378,
      "Ġtender": 4379,
      "where": 4380,
      "Ġviews": 4381,
      "ĠYork": 4382,
      "host": 4383,
      "Ġlo": 4384,
      "ĠChina": 4385,
      "Ġassistance": 4386,
      "Ġkeeping": 4387,
      "Ġtransl": 4388,
      "At": 4389,
      "Ġtsp": 4390,
      "Ġdiseases": 4391,
      "Ġconsumption": 4392,
      "Ġvill": 4393,
      "Ġclaim": 4394,
      "Ġmonitoring": 4395,
      "OR": 4396,
      "orial": 4397,
      "Ġinvent": 4398,
      "ĠInclude": 4399,
      "Ġfarmers": 4400,
      "Ġep": 4401,
      "Ġreason": 4402,
      "Ġdessert": 4403,
      "uilding": 4404,
      "Enter": 4405,
      "orporate": 4406,
      "Ġmid": 4407,
      "Ġroasted": 4408,
      "poons": 4409,
      "Ġinstitut": 4410,
      "known": 4411,
      "Ġachieving": 4412,
      "Ġspaces": 4413,
      "Ġtrain": 4414,
      "Ġdiced": 4415,
      "Ġbold": 4416,
      "Ġ16": 4417,
      "ĠVe": 4418,
      "Ġdial": 4419,
      "usion": 4420,
      "Ġprimary": 4421,
      "Ġconfidence": 4422,
      "Ġwall": 4423,
      "ht": 4424,
      "Ġquant": 4425,
      "gy": 4426,
      "Ġbell": 4427,
      "Ġuns": 4428,
      "iation": 4429,
      "ĠState": 4430,
      "inations": 4431,
      "Ġlibrary": 4432,
      "ĠPlease": 4433,
      "Ġseek": 4434,
      "Ġfair": 4435,
      "uration": 4436,
      "Ġinspired": 4437,
      "Ġpasta": 4438,
      "Ġlifest": 4439,
      "Ġleadership": 4440,
      "Ġspend": 4441,
      "Ġperspective": 4442,
      "denly": 4443,
      "NA": 4444,
      "Ġcivil": 4445,
      "illet": 4446,
      "âĢ¢": 4447,
      "Ġcleaning": 4448,
      "athy": 4449,
      "Ġassign": 4450,
      "Ġlistening": 4451,
      "ensity": 4452,
      "Ġattack": 4453,
      "Ġeating": 4454,
      "Ġath": 4455,
      "Ġhomes": 4456,
      "Ġplays": 4457,
      "ius": 4458,
      "Ġbeliefs": 4459,
      "Ġsusp": 4460,
      "Ġsector": 4461,
      "ersonal": 4462,
      "Ġautomation": 4463,
      "ĠTrans": 4464,
      "Ġreliable": 4465,
      "Ġwear": 4466,
      "ands": 4467,
      "Ġguests": 4468,
      "Ġcrow": 4469,
      "Ġeither": 4470,
      "Ġunex": 4471,
      "num": 4472,
      "Ġserver": 4473,
      "ĠIndian": 4474,
      "Ġwait": 4475,
      "ĠPlan": 4476,
      "ID": 4477,
      "Ġmicro": 4478,
      "Ġenab": 4479,
      "Ġstrange": 4480,
      "Ġ50": 4481,
      "ĠAre": 4482,
      "Ġads": 4483,
      "Ġran": 4484,
      "Ġquite": 4485,
      "Ġnational": 4486,
      "Ġtopic": 4487,
      "berries": 4488,
      "elines": 4489,
      "Ġscientific": 4490,
      "Ġelectricity": 4491,
      "Ġwilling": 4492,
      "Ġtight": 4493,
      "Ġlisten": 4494,
      "unction": 4495,
      "gen": 4496,
      "Ġfuel": 4497,
      "sole": 4498,
      "Ġcontains": 4499,
      "ĠEnjoy": 4500,
      "Ġbecomes": 4501,
      "Ġbutton": 4502,
      "Ġvegetarian": 4503,
      "ĠAut": 4504,
      "oman": 4505,
      "Ġcloud": 4506,
      "ĠAPI": 4507,
      "Ġslowly": 4508,
      "Ġbottom": 4509,
      "Ġsurpr": 4510,
      "Ġpoetry": 4511,
      "inese": 4512,
      "Ġstatus": 4513,
      "Ġartist": 4514,
      "oves": 4515,
      "Ġmis": 4516,
      "Ġnarrative": 4517,
      "Ġbattle": 4518,
      "Ġstatement": 4519,
      "eline": 4520,
      "iller": 4521,
      "ĠHar": 4522,
      "ĠLily": 4523,
      "Ġlux": 4524,
      "Ġpul": 4525,
      "mat": 4526,
      "Ġenable": 4527,
      "Ġprocessing": 4528,
      "Ġcloser": 4529,
      "Ġmush": 4530,
      "\">": 4531,
      "Ġsmell": 4532,
      "Ġbul": 4533,
      "ube": 4534,
      "backs": 4535,
      "Ġfilter": 4536,
      "Ġconfident": 4537,
      "Ġintervent": 4538,
      "Ġsurrounding": 4539,
      "ushed": 4540,
      "Ġ==": 4541,
      "ĠSoph": 4542,
      "Ġcompetitive": 4543,
      "iate": 4544,
      "ales": 4545,
      "Ġreput": 4546,
      "Ġsoul": 4547,
      "iors": 4548,
      "Sc": 4549,
      "25": 4550,
      "\")": 4551,
      "antic": 4552,
      "Finally": 4553,
      "Ġintelligence": 4554,
      "Ġdifferences": 4555,
      "Ġwaves": 4556,
      "Ġsac": 4557,
      "ulpt": 4558,
      "ĠBrit": 4559,
      "atively": 4560,
      "Ġmoist": 4561,
      "empt": 4562,
      "Ġexcited": 4563,
      "Ġsched": 4564,
      "ĠAvoid": 4565,
      "Ġrent": 4566,
      "sec": 4567,
      "going": 4568,
      "Ġlaunch": 4569,
      "Ġalive": 4570,
      "Ġgod": 4571,
      "ĠAnother": 4572,
      "Ġloop": 4573,
      "ĠĠčĊ": 4574,
      "gon": 4575,
      "Ġdog": 4576,
      "Ġforg": 4577,
      "Ġgluten": 4578,
      "Ġconsumers": 4579,
      "Ġskillet": 4580,
      "ute": 4581,
      "ĠGod": 4582,
      "Ġdri": 4583,
      "iking": 4584,
      "Ġanswer": 4585,
      "Ġspin": 4586,
      "Ġindepend": 4587,
      "Ġfabric": 4588,
      "Ġrelaxation": 4589,
      "ĠJames": 4590,
      "date": 4591,
      "Ġmagical": 4592,
      "Ġdescribe": 4593,
      "atures": 4594,
      "Ġplot": 4595,
      "ĠAnaly": 4596,
      "usiness": 4597,
      "Ġentertain": 4598,
      "ĠEmma": 4599,
      "rating": 4600,
      "Ġdressing": 4601,
      "Ġrepe": 4602,
      "Ġsecret": 4603,
      "Ġcamera": 4604,
      "inate": 4605,
      "UT": 4606,
      "Ġconven": 4607,
      "Ġresearchers": 4608,
      "Ġfollowers": 4609,
      "Ġcommitment": 4610,
      "Ġfestival": 4611,
      "Ġgentle": 4612,
      "Ġvibrant": 4613,
      "ĠProgram": 4614,
      "itate": 4615,
      "Ġrecognition": 4616,
      "acing": 4617,
      "Ġescape": 4618,
      "ĠLa": 4619,
      "uge": 4620,
      "ĠCenter": 4621,
      "Ġpracticing": 4622,
      "hetic": 4623,
      "Ġcher": 4624,
      "asons": 4625,
      "Ġcit": 4626,
      "Ġinstruction": 4627,
      "ĠOut": 4628,
      "icine": 4629,
      "Ġsuitable": 4630,
      "Ġwed": 4631,
      "rie": 4632,
      "enty": 4633,
      "add": 4634,
      "Ġreports": 4635,
      "Ġprepared": 4636,
      "Ġwealth": 4637,
      "ĠTom": 4638,
      "ED": 4639,
      "Ġrom": 4640,
      "found": 4641,
      "Ġstorm": 4642,
      "Ġedge": 4643,
      "Ġcy": 4644,
      "Ġerrors": 4645,
      "Ġwit": 4646,
      "Ġbeach": 4647,
      "Ġvast": 4648,
      "Conclusion": 4649,
      "Ġtargeted": 4650,
      "Ġcere": 4651,
      "Ġhotel": 4652,
      "ked": 4653,
      "Ġuniverse": 4654,
      "Ġquiet": 4655,
      "Ġfocusing": 4656,
      "umbled": 4657,
      "ĠEduc": 4658,
      "Ġinformative": 4659,
      "Ġmanufacturing": 4660,
      "Ġpattern": 4661,
      "Ġexpression": 4662,
      "ĠTwitter": 4663,
      "Ġpoems": 4664,
      "Ġmixed": 4665,
      "Ġfather": 4666,
      "Ġnorm": 4667,
      "roduct": 4668,
      "âĢľ": 4669,
      "Ġsnack": 4670,
      "ĠMind": 4671,
      "making": 4672,
      "Ġacqu": 4673,
      "Ġnearby": 4674,
      "Ġreplace": 4675,
      "Ġseems": 4676,
      "Ġstretch": 4677,
      "Ġrepl": 4678,
      "Ġunexpected": 4679,
      "ogue": 4680,
      "Ġfaster": 4681,
      "Ġviol": 4682,
      "Ġpaint": 4683,
      "Ġliterature": 4684,
      "rix": 4685,
      "aught": 4686,
      "Ġmaster": 4687,
      "Ġsummarize": 4688,
      "file": 4689,
      "Ġcarro": 4690,
      "Ġeat": 4691,
      "ĠAmerica": 4692,
      "Ġsuff": 4693,
      "Ġonions": 4694,
      "Ġsculpt": 4695,
      "ĠNet": 4696,
      "ommod": 4697,
      "Remember": 4698,
      "Ġamb": 4699,
      "Ġcombine": 4700,
      "Ġaddiction": 4701,
      "Ġresource": 4702,
      "Ġdistract": 4703,
      "Ġsix": 4704,
      "itam": 4705,
      "Ġeventually": 4706,
      "Ġbreaks": 4707,
      "Ġmagn": 4708,
      "Ġgolden": 4709,
      "Ġinspire": 4710,
      "Ġple": 4711,
      "Ġcannot": 4712,
      "Ġsurvive": 4713,
      "ada": 4714,
      "Ġincredible": 4715,
      "Ġspending": 4716,
      "Ġlargest": 4717,
      "Ġseeking": 4718,
      "Ġconnected": 4719,
      "arsh": 4720,
      "world": 4721,
      "Ġvehicles": 4722,
      "Ġcausing": 4723,
      "Ġforget": 4724,
      "Ġstars": 4725,
      "Ġmarkets": 4726,
      "ĠThrough": 4727,
      "Ġadvantage": 4728,
      "Ġextre": 4729,
      "Ġsongs": 4730,
      "Ġintense": 4731,
      "Ġremains": 4732,
      "Ġexpectations": 4733,
      "ĠBased": 4734,
      "ĠTest": 4735,
      "Ġpublished": 4736,
      "Ġsend": 4737,
      "Ġkitchen": 4738,
      "Ġvinegar": 4739,
      "Ġdreams": 4740,
      "urthermore": 4741,
      "Ġstatistics": 4742,
      "iences": 4743,
      "Ġcoll": 4744,
      "Ġinspiration": 4745,
      "aming": 4746,
      "Ġscore": 4747,
      "Ġskill": 4748,
      "ĠAccording": 4749,
      "Ġbrow": 4750,
      "Ġsides": 4751,
      "Ġhumans": 4752,
      "Ġdried": 4753,
      "Ġbroth": 4754,
      "Ġaims": 4755,
      "ĠAc": 4756,
      "Ġtalent": 4757,
      "Ġstandard": 4758,
      "ĠJust": 4759,
      "ansion": 4760,
      "Ġowners": 4761,
      "Ġbound": 4762,
      "kin": 4763,
      "Ġyogurt": 4764,
      "Ġreson": 4765,
      "antha": 4766,
      "Ġbirds": 4767,
      "agers": 4768,
      "Ġcombined": 4769,
      "Ġstar": 4770,
      "Ġcontainer": 4771,
      "Ġcarefully": 4772,
      "Ġstake": 4773,
      "Ġagriculture": 4774,
      "Ġresidents": 4775,
      "azon": 4776,
      "Ġsometimes": 4777,
      "Ġcake": 4778,
      "Ġreturns": 4779,
      "Ġprin": 4780,
      "Ġempty": 4781,
      "Ġbrief": 4782,
      "ĠEnergy": 4783,
      "efore": 4784,
      "Ġpopulation": 4785,
      "though": 4786,
      "Ġdedicated": 4787,
      "Ġvision": 4788,
      "Ġdangerous": 4789,
      "inkle": 4790,
      "ĠPlace": 4791,
      "Ġwalked": 4792,
      "IT": 4793,
      "Ġlaugh": 4794,
      "Ġpros": 4795,
      "Ġcontemporary": 4796,
      "ĠInstead": 4797,
      "Ġhabits": 4798,
      "Ġcrust": 4799,
      "However": 4800,
      "Ġstick": 4801,
      "Ġcreamy": 4802,
      "Ġtact": 4803,
      "Ġdespite": 4804,
      "Ġease": 4805,
      "Ġmessaging": 4806,
      "ĠOpt": 4807,
      "Ġinteractions": 4808,
      "Ġaf": 4809,
      "Ġstructures": 4810,
      "oosing": 4811,
      "Ġroot": 4812,
      "Ġtold": 4813,
      "pec": 4814,
      "wide": 4815,
      "Comp": 4816,
      "Ġshapes": 4817,
      "Ġfollowed": 4818,
      "tra": 4819,
      "Ġsupporting": 4820,
      "emy": 4821,
      "Ġfunctions": 4822,
      "Ġsuggests": 4823,
      "ael": 4824,
      "Ġexpenses": 4825,
      "Ġaccurate": 4826,
      "asts": 4827,
      "Ġpu": 4828,
      "Ġheight": 4829,
      "oli": 4830,
      "Ġcomponents": 4831,
      "Ġreduction": 4832,
      "ĠEvery": 4833,
      "Ġgoods": 4834,
      "Ġfinish": 4835,
      "Ġmut": 4836,
      "Ġround": 4837,
      "wood": 4838,
      "bsp": 4839,
      "Ġhomemade": 4840,
      "izza": 4841,
      "Ġnotes": 4842,
      "ĠId": 4843,
      "Ġinsight": 4844,
      "ĠDav": 4845,
      "minist": 4846,
      "hest": 4847,
      "Ġimpressive": 4848,
      "vere": 4849,
      "Ġindic": 4850,
      "Ġtransition": 4851,
      "Ġdim": 4852,
      "ĠAct": 4853,
      "Ġcurrently": 4854,
      "Ġwatching": 4855,
      "Ġaw": 4856,
      "Ġaverage": 4857,
      "Ġfost": 4858,
      "Ġjournal": 4859,
      "ĠFrom": 4860,
      "ech": 4861,
      "Ġfacing": 4862,
      "udd": 4863,
      "ĠEnglish": 4864,
      "Ġheritage": 4865,
      "Ġincreasingly": 4866,
      "Ġconnections": 4867,
      "Ġsizes": 4868,
      "bing": 4869,
      "ffective": 4870,
      "px": 4871,
      "erved": 4872,
      "They": 4873,
      "INT": 4874,
      "Ġtang": 4875,
      "icking": 4876,
      "Ġbag": 4877,
      "Ġdura": 4878,
      "gers": 4879,
      "Ġ2018": 4880,
      "Ġcorn": 4881,
      "lick": 4882,
      "zzle": 4883,
      "Ġpassword": 4884,
      "\".": 4885,
      "Ġleader": 4886,
      "Ġwel": 4887,
      "Ġfix": 4888,
      "ĠEarth": 4889,
      "ĉĉ": 4890,
      "ĠGreat": 4891,
      "Ġord": 4892,
      "ĠGerm": 4893,
      "nesses": 4894,
      "Ġlifestyle": 4895,
      "Ġjud": 4896,
      "Ġunderg": 4897,
      "Ġconstantly": 4898,
      "iled": 4899,
      "Ġpodcast": 4900,
      "ĠChinese": 4901,
      "ĠCount": 4902,
      "ĠUsing": 4903,
      "ĠDef": 4904,
      "ĠCS": 4905,
      "Ġrand": 4906,
      "aph": 4907,
      "Ġtaught": 4908,
      "Ġdro": 4909,
      "Ġtough": 4910,
      "Cl": 4911,
      "ĠAfrican": 4912,
      "Ġbeginning": 4913,
      "ĠLook": 4914,
      "Ġcontributed": 4915,
      "ĠChar": 4916,
      "year": 4917,
      "Ġkids": 4918,
      "Ġforever": 4919,
      "aze": 4920,
      "Ġexact": 4921,
      "ocks": 4922,
      "ĠAb": 4923,
      "osing": 4924,
      "Ġpackaging": 4925,
      "ught": 4926,
      "Ġconducted": 4927,
      "Ġaccommod": 4928,
      "Ġfeels": 4929,
      "sol": 4930,
      "ception": 4931,
      "iant": 4932,
      "Ġhighlights": 4933,
      "Ġobjectives": 4934,
      "Ġmemor": 4935,
      "odies": 4936,
      "ĠAir": 4937,
      "lessly": 4938,
      "Ġdistribution": 4939,
      "ĠGreen": 4940,
      "ashing": 4941,
      "Ġinformed": 4942,
      "ĠMin": 4943,
      "Im": 4944,
      "ĠJapanese": 4945,
      "Ġdemonstrate": 4946,
      "aint": 4947,
      "Ġcommonly": 4948,
      "Ġencountered": 4949,
      "Ġattempt": 4950,
      "Ġavailability": 4951,
      "Ġstruggled": 4952,
      "De": 4953,
      "input": 4954,
      "Ġsour": 4955,
      "bre": 4956,
      "AD": 4957,
      "odes": 4958,
      "My": 4959,
      "ĠTO": 4960,
      "ĠĠĠĠĠĠĠĠĠĠĠĠĠĠĠĠ": 4961,
      "Ġestablished": 4962,
      "Ġmetal": 4963,
      "She": 4964,
      "Ġrust": 4965,
      "ĠWhe": 4966,
      "Ġtablespoons": 4967,
      "ĠHave": 4968,
      "Ġasked": 4969,
      "Ġwire": 4970,
      "ĠPres": 4971,
      "Ġconsult": 4972,
      "ĠDespite": 4973,
      "ander": 4974,
      "IS": 4975,
      "Ġhes": 4976,
      "related": 4977,
      "inking": 4978,
      "Ġcert": 4979,
      "Ġteachers": 4980,
      "Ġneighbor": 4981,
      "ira": 4982,
      "Ġcovered": 4983,
      "Ġbrush": 4984,
      "Ġstock": 4985,
      "cription": 4986,
      "Ġefficiently": 4987,
      "ĠRemove": 4988,
      "orough": 4989,
      "Ġvariations": 4990,
      "ket": 4991,
      "Ġenvironments": 4992,
      "Ġer": 4993,
      "ppings": 4994,
      "Ġavocado": 4995,
      "AM": 4996,
      "Ġimmediately": 4997,
      "Ġtrou": 4998,
      "Ġremov": 4999,
      "Ġrow": 5000,
      "Ġ11": 5001,
      "Ġmyst": 5002,
      "Ġsud": 5003,
      "Ġhandling": 5004,
      "Ġdetermination": 5005,
      "ĠAmazon": 5006,
      "Ġcoord": 5007,
      "Ġfiber": 5008,
      "Ġcolleag": 5009,
      "right": 5010,
      "Ġcolorful": 5011,
      "Ġbreakfast": 5012,
      "Ġknowing": 5013,
      "Ġpand": 5014,
      "Ġongoing": 5015,
      "Ġrepresents": 5016,
      "holders": 5017,
      "vis": 5018,
      "igen": 5019,
      "Ġearlier": 5020,
      "();": 5021,
      "Ġluck": 5022,
      "Ġgro": 5023,
      "inoa": 5024,
      "rial": 5025,
      "Ġmanaged": 5026,
      "Ġpaid": 5027,
      "Ġdrink": 5028,
      "Ġpollution": 5029,
      "Ġstanding": 5030,
      "verty": 5031,
      "Please": 5032,
      "Ġpoverty": 5033,
      "ĠAustral": 5034,
      "Ġshall": 5035,
      "Ġfulf": 5036,
      "ĠFin": 5037,
      "Ġroles": 5038,
      "Ġkept": 5039,
      "Ġ14": 5040,
      "Ġfirm": 5041,
      "mal": 5042,
      "Ġshift": 5043,
      "Ġgenerated": 5044,
      "working": 5045,
      "off": 5046,
      "ĠGood": 5047,
      "ĠâĢĶ": 5048,
      "rest": 5049,
      "prene": 5050,
      "Ġphr": 5051,
      "Ġsell": 5052,
      "Ġprotection": 5053,
      "Ġbike": 5054,
      "OS": 5055,
      "Ġsequ": 5056,
      "ĠTV": 5057,
      "Ġexperts": 5058,
      "Ġcentral": 5059,
      "Ġintegration": 5060,
      "Ġtomato": 5061,
      "Ġorganized": 5062,
      "fl": 5063,
      "ĠGet": 5064,
      "Ġgeneration": 5065,
      "Ġconversation": 5066,
      "reprene": 5067,
      "ĠAng": 5068,
      "Ġreveal": 5069,
      "ĠOver": 5070,
      "iance": 5071,
      "Ġinteger": 5072,
      "lean": 5073,
      "Ġast": 5074,
      "exic": 5075,
      "Given": 5076,
      "Ġinternet": 5077,
      "Ġlocations": 5078,
      "Ġsharp": 5079,
      "ĠIts": 5080,
      "cious": 5081,
      "Ġine": 5082,
      "Ġspicy": 5083,
      "ĠExper": 5084,
      "Ġaccomplish": 5085,
      "itement": 5086,
      "Ġtransfer": 5087,
      "On": 5088,
      "Ġfloor": 5089,
      "ĠNot": 5090,
      "Ġrandom": 5091,
      "oreover": 5092,
      "Ġnote": 5093,
      "Ġcalls": 5094,
      "Generate": 5095,
      "Ġsight": 5096,
      "Ġ:": 5097,
      "60": 5098,
      "Ġrecovery": 5099,
      "Ġnoise": 5100,
      "Ġexcess": 5101,
      "Ġrural": 5102,
      "Ġsites": 5103,
      "pen": 5104,
      "ĠInternational": 5105,
      "Ġinvesting": 5106,
      "namon": 5107,
      "Ġswe": 5108,
      "ĠCut": 5109,
      "ĠApple": 5110,
      "ĠPat": 5111,
      "Ġimmersive": 5112,
      "()`": 5113,
      "son": 5114,
      "Ġwrong": 5115,
      "Ġweap": 5116,
      "laborate": 5117,
      "Ġconservation": 5118,
      "ĠDAY": 5119,
      "Ġalb": 5120,
      "Ġwinter": 5121,
      "aby": 5122,
      "Ġstarts": 5123,
      "Ġseconds": 5124,
      "aper": 5125,
      "Ġtbsp": 5126,
      "Ġadvancements": 5127,
      "ĠProm": 5128,
      "iny": 5129,
      "Ġstraight": 5130,
      "rates": 5131,
      "Ġconflicts": 5132,
      "Ġ17": 5133,
      ".âĢĿ": 5134,
      "Ġcontroll": 5135,
      "Ġscent": 5136,
      "Ġkeywords": 5137,
      "ĠDet": 5138,
      "Ġdisorders": 5139,
      "yn": 5140,
      "erse": 5141,
      "Ġpicture": 5142,
      "Ġexcitement": 5143,
      "ĠOther": 5144,
      "Ġserves": 5145,
      "ĠBlack": 5146,
      "Ġmur": 5147,
      "Ġmanip": 5148,
      "Ġmaximum": 5149,
      "Ġdisapp": 5150,
      "Al": 5151,
      "Ġmuseum": 5152,
      "mental": 5153,
      "ĠDesign": 5154,
      "uts": 5155,
      "Ġaid": 5156,
      "bles": 5157,
      "Ġbird": 5158,
      "ĠDep": 5159,
      "Ġthorough": 5160,
      "Ġfacil": 5161,
      "iture": 5162,
      "Ġgoes": 5163,
      "Ġpackage": 5164,
      "ĠInter": 5165,
      "Ġceremon": 5166,
      "Ġtourism": 5167,
      "Ġ2019": 5168,
      "Ġchili": 5169,
      "Ġprogramming": 5170,
      "Ġcredit": 5171,
      "AL": 5172,
      "plement": 5173,
      "ola": 5174,
      "Ġchips": 5175,
      "Ġcaught": 5176,
      "Ġreported": 5177,
      "iliar": 5178,
      "bed": 5179,
      "ĠMich": 5180,
      "ĠWater": 5181,
      "ĠDay": 5182,
      "ivals": 5183,
      "Ġresistance": 5184,
      "Ġproviders": 5185,
      "Ġexchange": 5186,
      "Ġselection": 5187,
      "Ġcoaching": 5188,
      "hern": 5189,
      "def": 5190,
      "Ġathlet": 5191,
      "Ġdram": 5192,
      "Ġminced": 5193,
      "ints": 5194,
      "Ġseparate": 5195,
      "Ġworkshops": 5196,
      "Ġclar": 5197,
      "After": 5198,
      "isc": 5199,
      "Ġteaching": 5200,
      "ĠLear": 5201,
      "Ġfant": 5202,
      "chain": 5203,
      "Ġholding": 5204,
      "Ġreached": 5205,
      "Ġextensive": 5206,
      "ĠMc": 5207,
      "Ġ199": 5208,
      "rations": 5209,
      "Ġflo": 5210,
      "Ġdynamic": 5211,
      "Ġsitting": 5212,
      "ionally": 5213,
      "Ġghost": 5214,
      "ĠBusiness": 5215,
      "Ġtend": 5216,
      "Ġmeaningful": 5217,
      "Ġpersonality": 5218,
      "Ġaffects": 5219,
      "21": 5220,
      "ilant": 5221,
      "Ġ24": 5222,
      "Ġanalyzing": 5223,
      "ĠImpro": 5224,
      "Ġfurn": 5225,
      "ternal": 5226,
      "Ġengineering": 5227,
      "lt": 5228,
      "ographic": 5229,
      "Ġwellness": 5230,
      "Ġrealize": 5231,
      "ctors": 5232,
      "Ġjew": 5233,
      "ĠIdent": 5234,
      "Ġmeant": 5235,
      "ĠMexic": 5236,
      "ament": 5237,
      "Ġrespect": 5238,
      "Ġnotable": 5239,
      "Ġfont": 5240,
      "la": 5241,
      "Ġhour": 5242,
      "Ġglow": 5243,
      "Ġconfig": 5244,
      "osystem": 5245,
      "ĠFirst": 5246,
      "aker": 5247,
      "Ġpresentation": 5248,
      "ĠIncre": 5249,
      "Ġheavily": 5250,
      "Ġinner": 5251,
      "Ġdire": 5252,
      "Ġrhyth": 5253,
      "Ġexplan": 5254,
      "Ġking": 5255,
      "Ġplenty": 5256,
      "...": 5257,
      "Ġupdate": 5258,
      "action": 5259,
      "ama": 5260,
      "Ġlived": 5261,
      "ĠCO": 5262,
      "Chapter": 5263,
      "Ġfacilities": 5264,
      "Ġchoices": 5265,
      "aren": 5266,
      "ĠAR": 5267,
      "Ġscenar": 5268,
      "Ġsheet": 5269,
      "ĠCompany": 5270,
      "EM": 5271,
      "Ġworkplace": 5272,
      "Ġproduced": 5273,
      "Ġempathy": 5274,
      "Ġcapacity": 5275,
      "Ġdarkness": 5276,
      "riger": 5277,
      "Ġassist": 5278,
      "Ġindex": 5279,
      "Ġhaun": 5280,
      "ĠPractice": 5281,
      "Ġchronic": 5282,
      "Ġcalculate": 5283,
      "Ġbeat": 5284,
      "Ġflu": 5285,
      "Ġflexibility": 5286,
      "azz": 5287,
      "Ġang": 5288,
      "raid": 5289,
      "Ġshop": 5290,
      "Ġpartnerships": 5291,
      "Ġensures": 5292,
      "ĠRet": 5293,
      "Ġnode": 5294,
      "Ġjoin": 5295,
      "mission": 5296,
      "Ġemerged": 5297,
      "Ġmixing": 5298,
      "Ġlessons": 5299,
      "14": 5300,
      "amples": 5301,
      "Ġ<<": 5302,
      "Ġfans": 5303,
      "Ġrevolution": 5304,
      "Ġvital": 5305,
      "Ġnewfound": 5306,
      "Ġstates": 5307,
      "erving": 5308,
      "Ġdestination": 5309,
      "airs": 5310,
      "!\"": 5311,
      "Ġchemical": 5312,
      "Ġmaybe": 5313,
      "lin": 5314,
      "uracy": 5315,
      "craft": 5316,
      "Ġresolution": 5317,
      "alse": 5318,
      "Ġpars": 5319,
      "Ġsurrounded": 5320,
      "Ġrefresh": 5321,
      "Ġreferr": 5322,
      "ĠDuring": 5323,
      "Ġmusical": 5324,
      "ails": 5325,
      "Ġmanufacture": 5326,
      "Ġnoticed": 5327,
      "Ġmulti": 5328,
      "Ġcommitted": 5329,
      "Ġwaiting": 5330,
      "Ġsurvey": 5331,
      "Ġincentives": 5332,
      "ĠWest": 5333,
      "commerce": 5334,
      "Ġchart": 5335,
      "Ġecosystem": 5336,
      "All": 5337,
      "Ġlabor": 5338,
      "ĠSan": 5339,
      "Ġformer": 5340,
      "ĠPo": 5341,
      "Ġexposure": 5342,
      "asters": 5343,
      "Ġcars": 5344,
      "Ġrights": 5345,
      "ographics": 5346,
      "rees": 5347,
      "Ġfo": 5348,
      "Ġcontract": 5349,
      "Ġhappened": 5350,
      "Ġcarrots": 5351,
      "Ġactually": 5352,
      "ĠSte": 5353,
      "Ġdistinct": 5354,
      "Ġmountain": 5355,
      "gra": 5356,
      "Ġconcepts": 5357,
      "oom": 5358,
      "Ġenables": 5359,
      "Ġrely": 5360,
      "Ġspl": 5361,
      "Ġrat": 5362,
      "Ġfootprint": 5363,
      "Ġstreets": 5364,
      "telling": 5365,
      "inch": 5366,
      "Ġperformances": 5367,
      "Ġgraphics": 5368,
      "ercial": 5369,
      "ĠBro": 5370,
      "Ġaudio": 5371,
      "Ġsurvival": 5372,
      "Ġnames": 5373,
      "ĠMuse": 5374,
      "atur": 5375,
      "iche": 5376,
      "raw": 5377,
      "estern": 5378,
      "Ġ>": 5379,
      "Ġhero": 5380,
      "Ġchatb": 5381,
      "Ġsession": 5382,
      "Ġtall": 5383,
      "Ġdialogue": 5384,
      "alian": 5385,
      "Ġtoppings": 5386,
      "Ġsolve": 5387,
      "ser": 5388,
      "Ġpizza": 5389,
      "acking": 5390,
      "Ġmoved": 5391,
      "18": 5392,
      "Ġidentifying": 5393,
      "Ġbarri": 5394,
      "rets": 5395,
      "Ġgreenhouse": 5396,
      "ĠSEO": 5397,
      "Ġraise": 5398,
      "Ġpump": 5399,
      "otic": 5400,
      "Ġecho": 5401,
      "Ġrap": 5402,
      "Ġwidely": 5403,
      "--------": 5404,
      "Ġstandards": 5405,
      "Ġarticles": 5406,
      "Ġseam": 5407,
      "Ġtitle": 5408,
      "Ġmitigate": 5409,
      "bl": 5410,
      "Ġauthentic": 5411,
      "Ġclin": 5412,
      "Ġfriendly": 5413,
      "Ġfunctionality": 5414,
      "Ġvitam": 5415,
      "ille": 5416,
      "othes": 5417,
      "outs": 5418,
      "Ġhousing": 5419,
      "Ġfeaturing": 5420,
      "Ġchoosing": 5421,
      "Ġvanilla": 5422,
      "Ġtraum": 5423,
      "ĠMax": 5424,
      "ĠEncourage": 5425,
      "Ġcustomize": 5426,
      "Ġgives": 5427,
      "Ġinternal": 5428,
      "ĠThen": 5429,
      "zen": 5430,
      "Ġfold": 5431,
      "Ġseasoning": 5432,
      "Ġphoto": 5433,
      "imal": 5434,
      "Ġcapabilities": 5435,
      "Ġminimal": 5436,
      "arily": 5437,
      "Ġsays": 5438,
      "Ġafraid": 5439,
      "ensions": 5440,
      "Ġguided": 5441,
      "Ġcomplexity": 5442,
      "Ġod": 5443,
      "Ġjump": 5444,
      "Ġcovers": 5445,
      "achel": 5446,
      "Ġcab": 5447,
      "Ar": 5448,
      "Ġflexible": 5449,
      "Ġfactor": 5450,
      "Ġstrengths": 5451,
      "plications": 5452,
      "Ġpandemic": 5453,
      "tered": 5454,
      "Ġfill": 5455,
      "ighter": 5456,
      "Ġprofile": 5457,
      "ĠÂ": 5458,
      "Ġaccuracy": 5459,
      "Re": 5460,
      "Ġburn": 5461,
      "income": 5462,
      "Ġcompleted": 5463,
      "Ġvegg": 5464,
      "EL": 5465,
      "Ġmemorable": 5466,
      "active": 5467,
      "Ġcompl": 5468,
      "Ġfears": 5469,
      "Ġcookies": 5470,
      "ounds": 5471,
      "asting": 5472,
      "Ġmotivation": 5473,
      "Ġarts": 5474,
      "Ġstakeholders": 5475,
      "Ġinventory": 5476,
      "Ġadoption": 5477,
      "overn": 5478,
      "Ġpolice": 5479,
      "part": 5480,
      "oles": 5481,
      "Ġdouble": 5482,
      "Ġspeaking": 5483,
      "Ġunivers": 5484,
      "ĠHouse": 5485,
      "Ġvariable": 5486,
      "rup": 5487,
      "Ġencry": 5488,
      "char": 5489,
      "ĠJo": 5490,
      "Ġbillion": 5491,
      "Ġstability": 5492,
      "Ġrace": 5493,
      "Ġupcoming": 5494,
      "wise": 5495,
      "Ġarms": 5496,
      "Ġrewards": 5497,
      "ls": 5498,
      "Ġbad": 5499,
      "Ġshr": 5500,
      "Ġadvoc": 5501,
      "Ġdeploy": 5502,
      "Ġflavorful": 5503,
      "ila": 5504,
      "Ġappearance": 5505,
      "oday": 5506,
      "Ġcore": 5507,
      "ĠAtt": 5508,
      "ĠBritish": 5509,
      "pan": 5510,
      "Ġmill": 5511,
      "Ġteach": 5512,
      "Ġcapable": 5513,
      "Ġbeg": 5514,
      "rror": 5515,
      "Ġdevelopers": 5516,
      "Ġshowed": 5517,
      "Ġlights": 5518,
      "ciples": 5519,
      "Ġexplores": 5520,
      "ĠCreat": 5521,
      "âĢĶ": 5522,
      "`.": 5523,
      "ulated": 5524,
      "Ġmassive": 5525,
      "ĠSpr": 5526,
      "Ġgrav": 5527,
      "ĠAfrica": 5528,
      "Ġentreprene": 5529,
      "ero": 5530,
      "Ġmuscle": 5531,
      "Ġregarding": 5532,
      "Ġfrequently": 5533,
      "ĠSalt": 5534,
      "Ġ13": 5535,
      "Ġmushrooms": 5536,
      "Ġconsumer": 5537,
      "ĠBre": 5538,
      "Ġhiking": 5539,
      "gypt": 5540,
      "ĠFocus": 5541,
      "Ġtransp": 5542,
      "Ġreward": 5543,
      "Ġaudiences": 5544,
      "div": 5545,
      "arter": 5546,
      "standing": 5547,
      "Ġsnacks": 5548,
      "dis": 5549,
      "ae": 5550,
      "Ġtrail": 5551,
      "www": 5552,
      "Ġcinnamon": 5553,
      "Ġlegal": 5554,
      "Ġcas": 5555,
      "Ġpriv": 5556,
      "mber": 5557,
      "Ġjustice": 5558,
      "Ġfocuses": 5559,
      "Ġetc": 5560,
      "Ġnerv": 5561,
      "string": 5562,
      "data": 5563,
      "yme": 5564,
      "Ġexpensive": 5565,
      "Ġsor": 5566,
      "ĠGroup": 5567,
      "PS": 5568,
      "ny": 5569,
      "Ġevaluate": 5570,
      "Do": 5571,
      "Ġdinner": 5572,
      "Ġconstruct": 5573,
      "uing": 5574,
      "Ġfrequency": 5575,
      "Ġdeeply": 5576,
      "Ġneighborhood": 5577,
      "OM": 5578,
      "Sh": 5579,
      "org": 5580,
      "Ġencourages": 5581,
      "Ġreputation": 5582,
      "Ġnotice": 5583,
      "Ġrealistic": 5584,
      "rick": 5585,
      "Ġsacr": 5586,
      "Ġque": 5587,
      "ams": 5588,
      "ĠInf": 5589,
      "Ġresol": 5590,
      "Ġglad": 5591,
      "hand": 5592,
      "ĠDec": 5593,
      "Ġcrispy": 5594,
      "Ġrefriger": 5595,
      "Ġgenerations": 5596,
      "Ġcolleagues": 5597,
      "Ġexclusive": 5598,
      "Ġsupplies": 5599,
      "Ġenjoyed": 5600,
      "ĠKing": 5601,
      "Name": 5602,
      "top": 5603,
      "Ġmig": 5604,
      "cont": 5605,
      "Ġevenly": 5606,
      "owered": 5607,
      "Ġdow": 5608,
      "ĠVR": 5609,
      "Ġconversion": 5610,
      "Ġshot": 5611,
      "osed": 5612,
      "ĠData": 5613,
      "ether": 5614,
      "Ġtruth": 5615,
      "text": 5616,
      "Ġsoy": 5617,
      "Ġopened": 5618,
      "lamm": 5619,
      "Ġwindow": 5620,
      "Ġforeign": 5621,
      "Ġtempl": 5622,
      "Ġrein": 5623,
      "Ġcompelling": 5624,
      "Ġremaining": 5625,
      "Ġembrace": 5626,
      "Ġcompare": 5627,
      "reg": 5628,
      "Ġdisrupt": 5629,
      "Ġdirection": 5630,
      "Ġappreciation": 5631,
      "Ġaccounts": 5632,
      "Ġcontributions": 5633,
      "Ġstaying": 5634,
      "Ġchest": 5635,
      "Ġcycle": 5636,
      "ĠItalian": 5637,
      "ette": 5638,
      "13": 5639,
      "Ġcouple": 5640,
      "ĠOrgan": 5641,
      "Once": 5642,
      "style": 5643,
      "ĠMod": 5644,
      "Ġcrops": 5645,
      "Ġresponsibility": 5646,
      "ĠSamantha": 5647,
      "Ġpossess": 5648,
      "Ġlaun": 5649,
      "Ġattacks": 5650,
      "Ph": 5651,
      "Ġguidelines": 5652,
      "Ġdoll": 5653,
      "Ġvir": 5654,
      "angers": 5655,
      "hab": 5656,
      "ancy": 5657,
      "Ġnetworks": 5658,
      "kay": 5659,
      "ĠEgypt": 5660,
      "ĠJour": 5661,
      "Ġflood": 5662,
      "Ġcommand": 5663,
      "Ġrot": 5664,
      "Ġmechanisms": 5665,
      "Ġcandid": 5666,
      "umes": 5667,
      "edom": 5668,
      "Ġspeaker": 5669,
      "Ġtofu": 5670,
      "Ġaside": 5671,
      "Ġchildhood": 5672,
      "Ġserious": 5673,
      "nel": 5674,
      "Ġpoor": 5675,
      "ounce": 5676,
      "Ġinstallation": 5677,
      "Ġprinciples": 5678,
      "Ġgrown": 5679,
      "Ġscientists": 5680,
      "box": 5681,
      "Ġtailored": 5682,
      "Ġstudying": 5683,
      "ij": 5684,
      "Ġcha": 5685,
      "Ġinterp": 5686,
      "Ġlimitations": 5687,
      "dr": 5688,
      "Ġhospital": 5689,
      "Ġpotato": 5690,
      "Ġadminist": 5691,
      "Ġswitch": 5692,
      "acon": 5693,
      "Ġship": 5694,
      "ĠMedia": 5695,
      "Ġgone": 5696,
      "Ġcorner": 5697,
      "Ġcollaborate": 5698,
      "Ġthank": 5699,
      "ĠRiver": 5700,
      "Ġrelief": 5701,
      "Ġlanguages": 5702,
      "lets": 5703,
      "Ġopin": 5704,
      "Ġsavings": 5705,
      "Ġtactics": 5706,
      "person": 5707,
      "Ġcommercial": 5708,
      "Ġtrig": 5709,
      "hus": 5710,
      "Ġcontinuous": 5711,
      "ET": 5712,
      "omet": 5713,
      "Ġ2017": 5714,
      "bert": 5715,
      "Ġconcent": 5716,
      "ĠRuss": 5717,
      "Ġpeaceful": 5718,
      "Ġstorytelling": 5719,
      "++": 5720,
      "Ġauthentication": 5721,
      "Ġinstruments": 5722,
      "ĠSur": 5723,
      "`,": 5724,
      "ĠEuropean": 5725,
      "ĠPersonal": 5726,
      "Ġinstitutions": 5727,
      "Ġfurniture": 5728,
      "Ġexperiencing": 5729,
      "CT": 5730,
      "Ġproced": 5731,
      "Ġjewel": 5732,
      "ague": 5733,
      "Ġemails": 5734,
      "Ġstood": 5735,
      "Ġschol": 5736,
      "oding": 5737,
      "Ġaddressing": 5738,
      "Ġsuc": 5739,
      "ĠMuseum": 5740,
      "Ġcustomized": 5741,
      "Ġconv": 5742,
      "Ġriver": 5743,
      "can": 5744,
      "icial": 5745,
      "ĠIr": 5746,
      "iox": 5747,
      "Ġbelong": 5748,
      "ĠTy": 5749,
      "Ġparties": 5750,
      "Ġcompost": 5751,
      "ĠAns": 5752,
      "Ġteacher": 5753,
      "Ġreminder": 5754,
      "Ġbusy": 5755,
      "ĠColle": 5756,
      "Ġadults": 5757,
      "Ġtick": 5758,
      "Ġapple": 5759,
      "Ġdiscounts": 5760,
      "pace": 5761,
      "Ġinfect": 5762,
      "Ġolder": 5763,
      "Ġpurs": 5764,
      "des": 5765,
      "roud": 5766,
      "Ġspinach": 5767,
      "Ġperiods": 5768,
      "ogether": 5769,
      "band": 5770,
      "Ġpure": 5771,
      "ĠBal": 5772,
      "Ġadop": 5773,
      "berry": 5774,
      "Ġapproaches": 5775,
      "ĠScience": 5776,
      "Ġvictim": 5777,
      "Ġwider": 5778,
      "ĠBo": 5779,
      "Ġalert": 5780,
      "ĠPlay": 5781,
      "Ġcounter": 5782,
      "ham": 5783,
      "ĠII": 5784,
      "Ġsurroundings": 5785,
      "Ġencounter": 5786,
      "Ġscale": 5787,
      "Ġinfluencer": 5788,
      "ĠâĢĺ": 5789,
      "Ġopening": 5790,
      "Ġswim": 5791,
      "Ġachieved": 5792,
      "mas": 5793,
      "Ġflat": 5794,
      "ĠDavid": 5795,
      "Ġbank": 5796,
      "anch": 5797,
      "Ġcreature": 5798,
      "ications": 5799,
      "ĠWilliam": 5800,
      "Ġcareful": 5801,
      "Ġcompassion": 5802,
      "writ": 5803,
      "ĠSophie": 5804,
      "Ġride": 5805,
      "igenous": 5806,
      "Ġginger": 5807,
      "olf": 5808,
      "Ġrit": 5809,
      "Ġfindings": 5810,
      "Ġliqu": 5811,
      "Ġpartnership": 5812,
      "ishing": 5813,
      "Ġends": 5814,
      "ĠEducation": 5815,
      "ĠCr": 5816,
      "Ġhighlighting": 5817,
      "Ġcenturies": 5818,
      "ĠThank": 5819,
      "ĠSl": 5820,
      "bal": 5821,
      "ĠMary": 5822,
      "Ġaccordingly": 5823,
      "Ġrapid": 5824,
      "Ġcompetitors": 5825,
      "Introduction": 5826,
      "Ġforces": 5827,
      "Ġforced": 5828,
      "Ġemergency": 5829,
      "ros": 5830,
      "Ġdispl": 5831,
      "Ġago": 5832,
      "Ġkindness": 5833,
      "Ġbot": 5834,
      "Ġoptimization": 5835,
      "Ġrecently": 5836,
      "Ġvend": 5837,
      "Ġber": 5838,
      "Ġbath": 5839,
      "Ġfestivals": 5840,
      "omb": 5841,
      "Through": 5842,
      "Ġcater": 5843,
      "Ġtun": 5844,
      "cel": 5845,
      "Ġaimed": 5846,
      "Ġsucceed": 5847,
      "reheat": 5848,
      "ously": 5849,
      "Ġprofit": 5850,
      "Ġsupports": 5851,
      "Ġhappiness": 5852,
      "Ġluxury": 5853,
      "Ġcomponent": 5854,
      "Ġitem": 5855,
      "Ġfine": 5856,
      "ĠTherefore": 5857,
      "rical": 5858,
      "Ġbirth": 5859,
      "ault": 5860,
      "isis": 5861,
      "Ġgrilled": 5862,
      "ocation": 5863,
      "ĠAssoci": 5864,
      "Ġreleased": 5865,
      "Ġhighest": 5866,
      "mented": 5867,
      "Ġvisuals": 5868,
      "ender": 5869,
      "Ġrecognize": 5870,
      "Ġdiagn": 5871,
      ".)": 5872,
      "Ġelectronic": 5873,
      "Ġ--": 5874,
      "ĠJane": 5875,
      "Ġtours": 5876,
      "Ġarm": 5877,
      "Ġgradually": 5878,
      "Ġequal": 5879,
      "Ġdesire": 5880,
      "Ġpun": 5881,
      "bur": 5882,
      "ĠImplement": 5883,
      "Ġcopy": 5884,
      "ĠGra": 5885,
      "Ġdesert": 5886,
      "under": 5887,
      "Ġinsurance": 5888,
      "ien": 5889,
      "olk": 5890,
      "fall": 5891,
      "ifact": 5892,
      "Ġdesk": 5893,
      "Ġworldwide": 5894,
      "Ġnutrients": 5895,
      "Based": 5896,
      "Ġprinting": 5897,
      "Ġfaces": 5898,
      "ĠShare": 5899,
      "Ġdownload": 5900,
      "Ġimprovements": 5901,
      "Ġintroduced": 5902,
      "Ġversat": 5903,
      "ĠProduct": 5904,
      "ĠJava": 5905,
      "Ġhasht": 5906,
      "Ġprofound": 5907,
      "afood": 5908,
      "igating": 5909,
      "Ġpursu": 5910,
      "Ġdefe": 5911,
      "weight": 5912,
      "Ġvulnerable": 5913,
      "ĠMark": 5914,
      "ari": 5915,
      "Ġbehaviors": 5916,
      "iforn": 5917,
      "ificial": 5918,
      "Ġbags": 5919,
      "Ġsquare": 5920,
      "Ġ500": 5921,
      "ĠFind": 5922,
      "Ġsupportive": 5923,
      "Ġcompar": 5924,
      "Ġprem": 5925,
      "ĠMor": 5926,
      "Ġdisaster": 5927,
      "Ġharsh": 5928,
      "Chor": 5929,
      "Ġreflects": 5930,
      "Ġscenes": 5931,
      "verse": 5932,
      "ĠBen": 5933,
      "Ġmanner": 5934,
      "Ġsyrup": 5935,
      "Ġfollows": 5936,
      "Ġsearching": 5937,
      "($": 5938,
      "ĠPython": 5939,
      "atically": 5940,
      "16": 5941,
      "Ġtreatments": 5942,
      "Ġvent": 5943,
      "Ġengines": 5944,
      "Ġsandw": 5945,
      "Ġshelter": 5946,
      "Ġlime": 5947,
      "idential": 5948,
      "Ġmyth": 5949,
      "ĠManagement": 5950,
      "Res": 5951,
      "ĠPal": 5952,
      "Chorus": 5953,
      "Ġsymbols": 5954,
      "peas": 5955,
      "Ġsolid": 5956,
      "ĠUsers": 5957,
      "ads": 5958,
      "Ġsecrets": 5959,
      "Ġ2016": 5960,
      "Ġpsychological": 5961,
      "Ġcapital": 5962,
      "ĠFood": 5963,
      "Ġtrend": 5964,
      "Ġestim": 5965,
      "Ġhealing": 5966,
      "Ġquinoa": 5967,
      "Ġturns": 5968,
      "athe": 5969,
      "Ġdegree": 5970,
      "uses": 5971,
      "Ġ%": 5972,
      "ohol": 5973,
      "kes": 5974,
      "Ġbrings": 5975,
      "Ġwriter": 5976,
      "Ġcutting": 5977,
      "Ġbattery": 5978,
      "haps": 5979,
      "Ġscan": 5980,
      "osen": 5981,
      "Ġhappen": 5982,
      "ifornia": 5983,
      "pes": 5984,
      "17": 5985,
      "arn": 5986,
      "Ġvia": 5987,
      "Ġspirits": 5988,
      "Ġlinks": 5989,
      "Ġretention": 5990,
      "Ġdrop": 5991,
      "Ġson": 5992,
      "TM": 5993,
      "ĠHol": 5994,
      "Ġdefine": 5995,
      "Ġneck": 5996,
      "While": 5997,
      "Ġwildlife": 5998,
      "IL": 5999,
      "ooper": 6000,
      "Ġmountains": 6001,
      "ĠStr": 6002,
      "ĠProject": 6003,
      "Ġmissing": 6004,
      "mp": 6005,
      "tr": 6006,
      "ĠUp": 6007,
      "mark": 6008,
      "Ġcoast": 6009,
      "imon": 6010,
      "Ġcenters": 6011,
      "Ġtechnological": 6012,
      "Ġshadows": 6013,
      "ett": 6014,
      "Ġconcern": 6015,
      "Ġwriters": 6016,
      "cohol": 6017,
      "Ġsample": 6018,
      "Ġevolved": 6019,
      "Ġartifact": 6020,
      "lete": 6021,
      "ifts": 6022,
      "Ġconsistency": 6023,
      "ĠUnder": 6024,
      "Ġfaith": 6025,
      "Ġcourage": 6026,
      "Ġ40": 6027,
      "ounc": 6028,
      "Ġobtain": 6029,
      "Ġvisibility": 6030,
      "Ġinterventions": 6031,
      "Ġalbum": 6032,
      "ĠMicro": 6033,
      "Ġentertainment": 6034,
      "Ġspons": 6035,
      "Ġincredibly": 6036,
      "husi": 6037,
      "Ġfunctional": 6038,
      "ĠLena": 6039,
      "ĠEst": 6040,
      "erie": 6041,
      "anges": 6042,
      "80": 6043,
      "Ġscheme": 6044,
      "Ġjewelry": 6045,
      "Ġremained": 6046,
      "ĠTime": 6047,
      "efficient": 6048,
      "Ġpresented": 6049,
      "Ġgained": 6050,
      "ĠBra": 6051,
      "Ġmer": 6052,
      "izer": 6053,
      "andon": 6054,
      "Ġorange": 6055,
      "Ġwave": 6056,
      "ĠRoman": 6057,
      "phone": 6058,
      "Ġisolation": 6059,
      "abel": 6060,
      "Ġincorporated": 6061,
      "Ġpictures": 6062,
      "Ġtemperatures": 6063,
      "ĠOpen": 6064,
      "Ġexploration": 6065,
      "Ġvolume": 6066,
      "Ġhousehold": 6067,
      "Ġven": 6068,
      "Ġgently": 6069,
      "ache": 6070,
      "Ġrecycling": 6071,
      "Ġrefreshing": 6072,
      "Ġfier": 6073,
      "rika": 6074,
      "ĠWind": 6075,
      "Ġboy": 6076,
      "ĠAnswer": 6077,
      "ĠTur": 6078,
      "Ġproud": 6079,
      "ĠPort": 6080,
      "Ġalle": 6081,
      "Ġintegrate": 6082,
      "Ġreduces": 6083,
      "Ġdrinks": 6084,
      "Ġsegment": 6085,
      "Ġaest": 6086,
      "asp": 6087,
      "Ġimmune": 6088,
      "Ġfunds": 6089,
      "inked": 6090,
      "Ġsurviv": 6091,
      "Ġtalking": 6092,
      "Ġearn": 6093,
      "Ġdoub": 6094,
      "ugg": 6095,
      "Ġhttps": 6096,
      "veys": 6097,
      "Ġintegrated": 6098,
      "Ġslices": 6099,
      "Ġign": 6100,
      "Ġminimize": 6101,
      "Ġhealthier": 6102,
      "import": 6103,
      "Ġcards": 6104,
      "Ġsigns": 6105,
      "ĠJoh": 6106,
      "Ġencouraging": 6107,
      "Error": 6108,
      "Ġabsor": 6109,
      "cknow": 6110,
      "Ins": 6111,
      "Ġskilled": 6112,
      "Ġspark": 6113,
      "Ġcauses": 6114,
      "Ġspeech": 6115,
      "Ġdedication": 6116,
      "count": 6117,
      "Ġgets": 6118,
      "ĠEmp": 6119,
      "Ġthous": 6120,
      "Ġarrange": 6121,
      "Ġadm": 6122,
      "ĠWork": 6123,
      "ĠCollege": 6124,
      "Ġartistic": 6125,
      "resp": 6126,
      "Ġnavigation": 6127,
      "Ġenthusi": 6128,
      "Ġsynt": 6129,
      "Ġmystery": 6130,
      "Ġelaborate": 6131,
      "Ġmole": 6132,
      "Ġaward": 6133,
      "Ġargument": 6134,
      "Ġelim": 6135,
      "Ġbes": 6136,
      "ĠPreheat": 6137,
      "solving": 6138,
      "Ġyellow": 6139,
      "wers": 6140,
      "Ġsyn": 6141,
      "Ġproposed": 6142,
      "cur": 6143,
      "met": 6144,
      "Ġfrust": 6145,
      "IM": 6146,
      "Ġmovies": 6147,
      "ishes": 6148,
      "Ġsociet": 6149,
      "Ġgall": 6150,
      "ĠOl": 6151,
      "bit": 6152,
      "Ġmusicians": 6153,
      "Ġsensors": 6154,
      "Ġapplied": 6155,
      "Ġtargeting": 6156,
      "aul": 6157,
      "itar": 6158,
      "ĠCalifornia": 6159,
      "Ġveggies": 6160,
      "200": 6161,
      "ĠIncorporate": 6162,
      "Ġfreedom": 6163,
      "Ġexplanation": 6164,
      "Ġtag": 6165,
      "Ġclothes": 6166,
      "nes": 6167,
      "ĠSom": 6168,
      "anted": 6169,
      "ĠUK": 6170,
      "Ġlon": 6171,
      "Ġsensitive": 6172,
      "Ġbasil": 6173,
      "Ġhydro": 6174,
      "Ġpanels": 6175,
      "reeze": 6176,
      "Ġwatched": 6177,
      "Ġaccident": 6178,
      "night": 6179,
      "Ġsem": 6180,
      "ĠEast": 6181,
      "Ġmuscles": 6182,
      "Ġiconic": 6183,
      "Ġoperating": 6184,
      "Ġseeing": 6185,
      "Ġstumbled": 6186,
      "Ġcuc": 6187,
      "];": 6188,
      "According": 6189,
      "Ġselecting": 6190,
      "Ġscr": 6191,
      "ords": 6192,
      "Ġshowing": 6193,
      "Ġclosely": 6194,
      "Ġcrunch": 6195,
      "Ġmotion": 6196,
      "Ġsen": 6197,
      "Ġsevere": 6198,
      "ĠTop": 6199,
      "tering": 6200,
      "ocking": 6201,
      "length": 6202,
      "Ġshaping": 6203,
      "page": 6204,
      "Title": 6205,
      "Sarah": 6206,
      "ĠWal": 6207,
      "ĠMal": 6208,
      "Ġlaunched": 6209,
      "Ġwarmth": 6210,
      "Ġoverview": 6211,
      "Ġapprox": 6212,
      "Ġthanks": 6213,
      "profit": 6214,
      "Ġlinked": 6215,
      "ĠMichael": 6216,
      "Ġstim": 6217,
      "Ġmachines": 6218,
      "Ġseafood": 6219,
      "mus": 6220,
      "Ġpit": 6221,
      "Ġupl": 6222,
      "Ġcrack": 6223,
      "Ġlogo": 6224,
      "Ġcolon": 6225,
      "Ġromantic": 6226,
      "Ġhowever": 6227,
      "Ġten": 6228,
      "Ġbeneficial": 6229,
      "Ġemphasizes": 6230,
      "40": 6231,
      "amic": 6232,
      "Ġfigures": 6233,
      "Ġarom": 6234,
      "Ġinitiative": 6235,
      "Ġmistakes": 6236,
      "Ġturning": 6237,
      "RE": 6238,
      "Ġhumor": 6239,
      "ĠSol": 6240,
      "abet": 6241,
      "Ġcrew": 6242,
      "cons": 6243,
      "ĠMount": 6244,
      "ĠFollow": 6245,
      "Ġwrap": 6246,
      "Ġadvantages": 6247,
      "Ġgram": 6248,
      "Ġpromotions": 6249,
      "Ġparam": 6250,
      "Ġcrisis": 6251,
      "Ġdietary": 6252,
      "Ġreasons": 6253,
      "asy": 6254,
      "ulating": 6255,
      "Ġresponsibilities": 6256,
      "ilarly": 6257,
      "Ġsunlight": 6258,
      "Ġmyster": 6259,
      "ĠExpl": 6260,
      "esan": 6261,
      "Ġunw": 6262,
      "Ġpret": 6263,
      "ĠMag": 6264,
      "ĠGovern": 6265,
      "Ġcouns": 6266,
      "Ġwhisk": 6267,
      "Ġofficial": 6268,
      "Ġfamiliar": 6269,
      "uddenly": 6270,
      "Ġexternal": 6271,
      "ĠRead": 6272,
      "Ġnood": 6273,
      "ondon": 6274,
      "formation": 6275,
      "Ġstrings": 6276,
      "Ġdust": 6277,
      "str": 6278,
      "Ġbringing": 6279,
      "Ġfle": 6280,
      "::": 6281,
      "Ġstation": 6282,
      "ĠĠĠĠčĊ": 6283,
      "Qu": 6284,
      "Ġenabling": 6285,
      "ĠIdentify": 6286,
      "Ġraised": 6287,
      "Ġrecognized": 6288,
      "Ġillustrate": 6289,
      "Ġacid": 6290,
      "Ġsuspense": 6291,
      "Ġbars": 6292,
      "Ġtextures": 6293,
      "Ġpassing": 6294,
      "ĠSupport": 6295,
      "Ġagency": 6296,
      "ĠEven": 6297,
      "roy": 6298,
      "Ġvisiting": 6299,
      "ĠMusic": 6300,
      "Ġparsley": 6301,
      "Ġscal": 6302,
      "Ġperformed": 6303,
      "Ġsto": 6304,
      "Ġinspiring": 6305,
      "John": 6306,
      "Ġplaced": 6307,
      "reet": 6308,
      "izable": 6309,
      "Ġcitiz": 6310,
      "Ġsavory": 6311,
      "Ġiron": 6312,
      "Ġappoint": 6313,
      "Ġbaby": 6314,
      "')": 6315,
      "Ġartwork": 6316,
      "uk": 6317,
      "ait": 6318,
      "Ġfan": 6319,
      "Ġintu": 6320,
      "rapy": 6321,
      "atever": 6322,
      "Ġpen": 6323,
      "Ġdiscovery": 6324,
      "ĠCor": 6325,
      "ĠWrite": 6326,
      "ruit": 6327,
      "Ġschedul": 6328,
      "Ġdisplays": 6329,
      "Ġce": 6330,
      "Ġfighting": 6331,
      "ĠIns": 6332,
      "Ġmeetings": 6333,
      "ĠHot": 6334,
      "ending": 6335,
      "Ġmeets": 6336,
      "Ġeveryday": 6337,
      "Ġdepartment": 6338,
      "angle": 6339,
      "Ġdesigners": 6340,
      "Ġfailure": 6341,
      "rowing": 6342,
      "Ġbiggest": 6343,
      "osis": 6344,
      "Ġstrategic": 6345,
      "ĠPay": 6346,
      "Ġcelebrate": 6347,
      "Ġ@": 6348,
      "Ġstone": 6349,
      "Ġminimum": 6350,
      "Ġsimmer": 6351,
      "Ġregist": 6352,
      "Ġmedicine": 6353,
      "\":": 6354,
      "ports": 6355,
      "Ġselling": 6356,
      "Ġnegot": 6357,
      "Ġpopulations": 6358,
      "String": 6359,
      "ossible": 6360,
      "Develop": 6361,
      "ask": 6362,
      "Ġclosed": 6363,
      "ĠTechnology": 6364,
      "Ġkne": 6365,
      "Ġunf": 6366,
      "airy": 6367,
      "Ġrhythm": 6368,
      "Ġsurf": 6369,
      "Ġoutl": 6370,
      "Ġreaching": 6371,
      "Ġsubmit": 6372,
      "lim": 6373,
      "comp": 6374,
      "Ġske": 6375,
      "Ġevolution": 6376,
      "Ġabandon": 6377,
      "Ġextreme": 6378,
      "Ġannual": 6379,
      "Ġuniversity": 6380,
      "armesan": 6381,
      "Ġarrived": 6382,
      "aughter": 6383,
      "Ġoverwhelming": 6384,
      "ouncil": 6385,
      "Ġwedding": 6386,
      "Ġinjury": 6387,
      "Ġmelted": 6388,
      "Ġrepair": 6389,
      "ĠParis": 6390,
      "Ġshred": 6391,
      "Ġmatrix": 6392,
      "Ġresulted": 6393,
      "Ġcul": 6394,
      "Ġprob": 6395,
      "Ġchosen": 6396,
      "Ġfrozen": 6397,
      "ĠJu": 6398,
      "Ġgrill": 6399,
      "marks": 6400,
      "Un": 6401,
      "rome": 6402,
      "Ġeleg": 6403,
      "Ġfly": 6404,
      "Over": 6405,
      "Ġcalories": 6406,
      "Ġ2015": 6407,
      "ĠDel": 6408,
      "Ġstraw": 6409,
      "equ": 6410,
      "Ġvehicle": 6411,
      "Ġmoisture": 6412,
      "ctu": 6413,
      "ounced": 6414,
      "Ġgrace": 6415,
      "then": 6416,
      "Ġholiday": 6417,
      "Ġbegins": 6418,
      "Ġboundaries": 6419,
      "ĠNow": 6420,
      "Ġpork": 6421,
      "ĠCommunity": 6422,
      "Ġpray": 6423,
      "ucch": 6424,
      "ĠPour": 6425,
      "powered": 6426,
      "asive": 6427,
      "Ġnotifications": 6428,
      "Ġoperation": 6429,
      "Additionally": 6430,
      "ĠFound": 6431,
      "Ġrub": 6432,
      "Ġrules": 6433,
      "Ġcrop": 6434,
      "Ġkiller": 6435,
      "real": 6436,
      "anish": 6437,
      "Ġillness": 6438,
      "ford": 6439,
      "Ġinteraction": 6440,
      "Ġberries": 6441,
      "ĠGener": 6442,
      "ĠJan": 6443,
      "Ġencouraged": 6444,
      "Is": 6445,
      "Ġidentified": 6446,
      "Ġblockchain": 6447,
      "Ġhob": 6448,
      "Cont": 6449,
      "Ġruns": 6450,
      "field": 6451,
      "Ġspecialized": 6452,
      "Ġentrepreneurs": 6453,
      "Ġnutritional": 6454,
      "lo": 6455,
      "ipl": 6456,
      "inter": 6457,
      "Ġpaprika": 6458,
      "Ġliquid": 6459,
      "Ġappeal": 6460,
      "Ġlas": 6461,
      "Ġdistractions": 6462,
      "ores": 6463,
      "ĠStir": 6464,
      "Ġcoat": 6465,
      "rying": 6466,
      "Ġflower": 6467,
      "ĠClick": 6468,
      "Ġconver": 6469,
      "Ġfilms": 6470,
      "ĠAnt": 6471,
      "Ġchickpeas": 6472,
      "Ġlegs": 6473,
      "Ġcloves": 6474,
      "Ġdecline": 6475,
      "?:": 6476,
      "ilantro": 6477,
      "Ġfert": 6478,
      "Ġbroken": 6479,
      "soft": 6480,
      "onom": 6481,
      "Ġpursue": 6482,
      "phones": 6483,
      "US": 6484,
      "Ġconvenient": 6485,
      "ln": 6486,
      "Ġther": 6487,
      "Ġsentence": 6488,
      "Ġvillage": 6489,
      "Ġmanager": 6490,
      "Ġuncertain": 6491,
      "Ġunable": 6492,
      "Ġtransformation": 6493,
      "Ġturb": 6494,
      "Ġshoes": 6495,
      "ĠWhether": 6496,
      "Ġsoph": 6497,
      "Ġly": 6498,
      "ifting": 6499,
      "ĠChild": 6500,
      "ĠPeople": 6501,
      "apping": 6502,
      "Ġsimpl": 6503,
      "ltimately": 6504,
      "ĠCounty": 6505,
      "eem": 6506,
      "inst": 6507,
      "while": 6508,
      "Ġcryst": 6509,
      "Ġclassical": 6510,
      "igital": 6511,
      "ĠList": 6512,
      "ml": 6513,
      "pectives": 6514,
      "Ġpotentially": 6515,
      "Ġbreaking": 6516,
      "atching": 6517,
      "Ġsubstitute": 6518,
      "Ġcourt": 6519,
      "Ġcaf": 6520,
      "EX": 6521,
      "ĠLondon": 6522,
      "à¤": 6523,
      "Ġcozy": 6524,
      "Ġintegers": 6525,
      "Ġbene": 6526,
      "ĠAsia": 6527,
      "alax": 6528,
      "Ġdelicate": 6529,
      "Ġox": 6530,
      "Ġgovernments": 6531,
      "Ġemphasis": 6532,
      "ĠOffer": 6533,
      "Ġperfectly": 6534,
      "ĠDefine": 6535,
      "ĠRel": 6536,
      "Ġscenarios": 6537,
      "Ġassistant": 6538,
      "Some": 6539,
      "Ġdates": 6540,
      "pass": 6541,
      "ĠMet": 6542,
      "ĠPower": 6543,
      "Ġvolunteer": 6544,
      "Scene": 6545,
      "ĠConf": 6546,
      "Ġera": 6547,
      "Ġconvert": 6548,
      "never": 6549,
      "estion": 6550,
      "ĠChristian": 6551,
      "Ġclub": 6552,
      "valid": 6553,
      "Ġletters": 6554,
      "Ġrespective": 6555,
      "Ġliterary": 6556,
      "Ġrefer": 6557,
      "Ġgun": 6558,
      "Ġselected": 6559,
      "Ġbalanced": 6560,
      "Ġtech": 6561,
      "Ġretailers": 6562,
      "Ġrestrict": 6563,
      "Ġcumin": 6564,
      "pack": 6565,
      "From": 6566,
      "Ġfeatured": 6567,
      "Ġwra": 6568,
      "Ġenjoying": 6569,
      "Ġintroduction": 6570,
      "ĠJournal": 6571,
      "size": 6572,
      "Ġlabel": 6573,
      "ĠMain": 6574,
      "point": 6575,
      "Ġorganize": 6576,
      "Ġperforming": 6577,
      "Ġlayout": 6578,
      "CUT": 6579,
      "Ġfell": 6580,
      "Ġstored": 6581,
      "ĠDevelopment": 6582,
      "Ġden": 6583,
      "fol": 6584,
      "Ġcrime": 6585,
      "Ġpromin": 6586,
      "Ġattractions": 6587,
      "Ġintensity": 6588,
      "Ġanticip": 6589,
      "ĠBel": 6590,
      "Ġsmile": 6591,
      "Ġ=>": 6592,
      "Ġhistoric": 6593,
      "car": 6594,
      "ĠHum": 6595,
      "Ġanti": 6596,
      "75": 6597,
      "Ġsoldiers": 6598,
      "Ġurg": 6599,
      "Ġimplications": 6600,
      "Ġboil": 6601,
      "Ġinvestigation": 6602,
      "Ġgreens": 6603,
      "ĠPublic": 6604,
      "Ġathletes": 6605,
      "Ġattendees": 6606,
      "Ġgran": 6607,
      "Ġweapons": 6608,
      "ĠIN": 6609,
      "ĠIsland": 6610,
      "ederal": 6611,
      "ĠBefore": 6612,
      "Ġtort": 6613,
      "Ġacknow": 6614,
      "Ġsatisfying": 6615,
      "Ġmac": 6616,
      "aration": 6617,
      "Ġ60": 6618,
      "ilos": 6619,
      "Ġmal": 6620,
      "Ġnormal": 6621,
      "Ġgenres": 6622,
      "Ġedges": 6623,
      "Ġcritic": 6624,
      "ĠChristmas": 6625,
      "Ġoptimal": 6626,
      "Ġfet": 6627,
      "Ġmindset": 6628,
      "scale": 6629,
      "Ġproposal": 6630,
      "Ġsmoothie": 6631,
      "sect": 6632,
      "Ġresponsive": 6633,
      "ĠSmith": 6634,
      "Ġachievements": 6635,
      "ĠPost": 6636,
      "unt": 6637,
      "Ġcriteria": 6638,
      "ĠTre": 6639,
      "rip": 6640,
      "ucchini": 6641,
      "ĠDI": 6642,
      "ĠMem": 6643,
      "Ġfinished": 6644,
      "Ġthreats": 6645,
      "Ġnetworking": 6646,
      "ĠAug": 6647,
      "ĠHist": 6648,
      "case": 6649,
      "ĠDepartment": 6650,
      "Ġrecords": 6651,
      "Ġscholars": 6652,
      "Ġcorrectly": 6653,
      "ora": 6654,
      "Ġpull": 6655,
      "Ġtoss": 6656,
      "Ġrare": 6657,
      "Ġpairs": 6658,
      "ĠJohns": 6659,
      "class": 6660,
      "do": 6661,
      "Ġgrass": 6662,
      "Ġbeer": 6663,
      "Ġaccessories": 6664,
      "Ġlegend": 6665,
      "Ġsuggested": 6666,
      "Ġshrimp": 6667,
      "Ġwings": 6668,
      "Ġhur": 6669,
      "Ġreturned": 6670,
      "Ġbake": 6671,
      "ĠCur": 6672,
      "ĠRef": 6673,
      "Ġstreaming": 6674,
      "Ġsteel": 6675,
      "ĠPot": 6676,
      "through": 6677,
      "Ġagricultural": 6678,
      "Ġretain": 6679,
      "ooting": 6680,
      "ĠAud": 6681,
      "Ġsupported": 6682,
      "Ġdocuments": 6683,
      "Ġpour": 6684,
      "Ġframework": 6685,
      "ocr": 6686,
      "Ġcomputing": 6687,
      "Ġperspectives": 6688,
      "lower": 6689,
      "natural": 6690,
      "Ġcharge": 6691,
      "Ġgenre": 6692,
      "anut": 6693,
      "Ġsorted": 6694,
      "color": 6695,
      "ection": 6696,
      "ĠFest": 6697,
      "Ġastron": 6698,
      "Ġviewers": 6699,
      "Ġconsole": 6700,
      "ĠOptim": 6701,
      "serv": 6702,
      "ĠInvest": 6703,
      "ĠSa": 6704,
      "ĠLinked": 6705,
      "vision": 6706,
      "Ġclearly": 6707,
      "Ind": 6708,
      "Ġlesson": 6709,
      "Ġgrab": 6710,
      "aste": 6711,
      "ipp": 6712,
      "Ġchecking": 6713,
      "Ġfinds": 6714,
      "eah": 6715,
      "ĠFrance": 6716,
      "Ġdecrease": 6717,
      "Ġsod": 6718,
      "Ġ!": 6719,
      "Ġguitar": 6720,
      "ĠEmploy": 6721,
      "Ġbeneath": 6722,
      "Ġhospit": 6723,
      "unk": 6724,
      "Ġexceptional": 6725,
      "Ġentered": 6726,
      "Ġgaming": 6727,
      "amel": 6728,
      "IP": 6729,
      "reement": 6730,
      "ĠRO": 6731,
      "Ġdepends": 6732,
      "Ġformation": 6733,
      "Ġsprinkle": 6734,
      "Ġgenerally": 6735,
      "Ġtests": 6736,
      "Ġepis": 6737,
      "Ġinterpret": 6738,
      "ĠKore": 6739,
      "ccoli": 6740,
      "Ġblank": 6741,
      "ively": 6742,
      "kend": 6743,
      "Ġdu": 6744,
      "roid": 6745,
      "ĠCamp": 6746,
      "Ġtap": 6747,
      "Ġchecks": 6748,
      "ĠAustralia": 6749,
      "Ġtrained": 6750,
      "iter": 6751,
      "Ġlunch": 6752,
      "Ġlose": 6753,
      "Ġjar": 6754,
      "Ġemployment": 6755,
      "Ġattach": 6756,
      "ago": 6757,
      "Ġresc": 6758,
      "Ġcountless": 6759,
      "ĠStore": 6760,
      "Ġfrag": 6761,
      "pecific": 6762,
      "taking": 6763,
      "eles": 6764,
      "Ġpride": 6765,
      "Ġcomposition": 6766,
      "Ġblender": 6767,
      "Ġbuying": 6768,
      "Ġfoss": 6769,
      "Ġtreasure": 6770,
      "Ġcomment": 6771,
      "Ġnar": 6772,
      "Ġbreeze": 6773,
      "Ġfoundation": 6774,
      "bled": 6775,
      "Ġhuge": 6776,
      "raction": 6777,
      "Ġiter": 6778,
      "Ġasking": 6779,
      "Ġprovider": 6780,
      "Ġraw": 6781,
      "ĠExp": 6782,
      "Ġconcert": 6783,
      "Ġoils": 6784,
      "estic": 6785,
      "anes": 6786,
      "Ġpine": 6787,
      "rol": 6788,
      "Ġbill": 6789,
      "ĠHome": 6790,
      "js": 6791,
      "ĠMr": 6792,
      "Ġapproximately": 6793,
      "Ġmir": 6794,
      "Ġfoster": 6795,
      "ĠRev": 6796,
      "Ġstands": 6797,
      "Ġpreviously": 6798,
      "Ġlent": 6799,
      "Ġcharity": 6800,
      "Ġconfront": 6801,
      "Ġmarine": 6802,
      "Ġmoon": 6803,
      "Ġsubscrib": 6804,
      "Ġdisasters": 6805,
      "Ġrising": 6806,
      "Ġda": 6807,
      "Ġflight": 6808,
      "endar": 6809,
      "Ġinvestors": 6810,
      "Ġarise": 6811,
      "Ġstain": 6812,
      "Ġformed": 6813,
      "ĠMo": 6814,
      "Ġguard": 6815,
      "Ġemerging": 6816,
      "Ġrocks": 6817,
      "using": 6818,
      "ockt": 6819,
      "ĠAssociation": 6820,
      "Ġfort": 6821,
      "Ġimpossible": 6822,
      "Ġformula": 6823,
      "Ġshipping": 6824,
      "Ġrough": 6825,
      "osition": 6826,
      "Ġchaos": 6827,
      "such": 6828,
      "istry": 6829,
      "Ġsaut": 6830,
      "ĠVol": 6831,
      "Ġplate": 6832,
      "Ġspect": 6833,
      "atin": 6834,
      "rab": 6835,
      "rich": 6836,
      "Ġourselves": 6837,
      "orge": 6838,
      "Ġfalse": 6839,
      "Ġbodies": 6840,
      "function": 6841,
      "Ġspring": 6842,
      "Ġindependent": 6843,
      "Ġthyme": 6844,
      "ĠYouT": 6845,
      "Ġcilantro": 6846,
      "vide": 6847,
      "ĠSk": 6848,
      "Ġrequests": 6849,
      "Ġinjuries": 6850,
      "dy": 6851,
      "Ġawe": 6852,
      "ĠInstitute": 6853,
      "\";": 6854,
      "Ġcalming": 6855,
      "Ġcash": 6856,
      "Ġindustrial": 6857,
      "Ġsaved": 6858,
      "Ġfantastic": 6859,
      "ĠFire": 6860,
      "Ġsaying": 6861,
      "inf": 6862,
      "gener": 6863,
      "ĠsautÃ©": 6864,
      "Ġtrial": 6865,
      "ĠCanada": 6866,
      "ĠBur": 6867,
      "Ġtheory": 6868,
      "effective": 6869,
      "Ġlasting": 6870,
      "Ġcart": 6871,
      "lectric": 6872,
      "Ġpurpos": 6873,
      "Ġcel": 6874,
      "Ġ2020": 6875,
      "Ġpound": 6876,
      "Ġisn": 6877,
      "Ġteen": 6878,
      "Ġclassroom": 6879,
      "everance": 6880,
      "Ġrevised": 6881,
      "ĠPresident": 6882,
      "Ġenhancing": 6883,
      "Ġdepict": 6884,
      "Ġmouth": 6885,
      "iances": 6886,
      "Ġdurable": 6887,
      "ĠReview": 6888,
      "Ġgarn": 6889,
      "Ġtrauma": 6890,
      "Ġagencies": 6891,
      "Ġrooms": 6892,
      "rian": 6893,
      "Ġterrain": 6894,
      "Ġterror": 6895,
      "Ġwitness": 6896,
      "ĠFurthermore": 6897,
      "Ġconsidering": 6898,
      "ĠWhite": 6899,
      "Ġmindful": 6900,
      "Ġsurvivors": 6901,
      "Ġcompat": 6902,
      "Ġfriendship": 6903,
      "Ġfalling": 6904,
      "RO": 6905,
      "ĠChick": 6906,
      "Ġalt": 6907,
      "zer": 6908,
      "Ġminute": 6909,
      "Ġfem": 6910,
      "reens": 6911,
      "Ġbarriers": 6912,
      "ĠBest": 6913,
      "Ġconversations": 6914,
      "Ġhoping": 6915,
      "Ġadapted": 6916,
      "Ġcertainly": 6917,
      "idth": 6918,
      "Ġreflection": 6919,
      "Ġstirring": 6920,
      "BC": 6921,
      "Ġbub": 6922,
      "Ġgrated": 6923,
      "ĠMac": 6924,
      "Ġlegacy": 6925,
      "Ġhardware": 6926,
      "Ġformal": 6927,
      "yan": 6928,
      "ĠLim": 6929,
      "Ġtargets": 6930,
      "Ġwondering": 6931,
      "Ġphotography": 6932,
      "Ġbrew": 6933,
      "Ġjazz": 6934,
      "ĠWeb": 6935,
      "Ġpaste": 6936,
      "Ġpaintings": 6937,
      "Ġcub": 6938,
      "Ġstuff": 6939,
      "ĠMa": 6940,
      "ria": 6941,
      "enew": 6942,
      "Ġartificial": 6943,
      "Ġofferings": 6944,
      "ville": 6945,
      "Ġwants": 6946,
      "Ġwife": 6947,
      "ingers": 6948,
      "Ġcharacterized": 6949,
      "Ġchannel": 6950,
      "Ġexplored": 6951,
      "rete": 6952,
      "Ġagreement": 6953,
      "Ġapproached": 6954,
      "tery": 6955,
      "Ġmiles": 6956,
      "ĠWestern": 6957,
      "ĠIndust": 6958,
      "Ġversatile": 6959,
      "Ġcooper": 6960,
      "Ġpurposes": 6961,
      "Ġprop": 6962,
      "Ġautomatically": 6963,
      "Ġgrid": 6964,
      "path": 6965,
      "Ġwooden": 6966,
      "Ġretrie": 6967,
      "ĠClass": 6968,
      "Ġcope": 6969,
      "ala": 6970,
      "Verse": 6971,
      "Ġcurse": 6972,
      "Ġtransformed": 6973,
      "Ġoptimizing": 6974,
      "Ġmode": 6975,
      "Ġcharacteristics": 6976,
      "Ġshredded": 6977,
      "ĠChurch": 6978,
      "Ġincreases": 6979,
      "Ġcivilization": 6980,
      "Ġthousands": 6981,
      "Ġsan": 6982,
      "ĠSun": 6983,
      "Ġbottle": 6984,
      "ĠDist": 6985,
      "ĠSil": 6986,
      "Ġevening": 6987,
      "Ġlever": 6988,
      "Ġcrim": 6989,
      "Ġsatisfied": 6990,
      "Ġwalks": 6991,
      "Ġkid": 6992,
      "Ġamounts": 6993,
      "iments": 6994,
      "level": 6995,
      "Ġstack": 6996,
      "ĠContent": 6997,
      "500": 6998,
      "ĠSpanish": 6999,
      "rays": 7000,
      "Ġpromotes": 7001,
      "tles": 7002,
      "Ġtrapped": 7003,
      "Ġhappening": 7004,
      "conomic": 7005,
      "ĠBlue": 7006,
      "body": 7007,
      "Their": 7008,
      "Ġtangy": 7009,
      "Ġdeals": 7010,
      "Ġhearing": 7011,
      "Ġbranding": 7012,
      "Ġpurchasing": 7013,
      "Ġattribut": 7014,
      "ĠBake": 7015,
      "Ġdining": 7016,
      "Ġprivacy": 7017,
      "MS": 7018,
      "ĠStep": 7019,
      "Dear": 7020,
      "Ġspice": 7021,
      "Ġbeginners": 7022,
      "Read": 7023,
      "pril": 7024,
      "ĠSmart": 7025,
      "ĠYouTube": 7026,
      "Ġforecast": 7027,
      "fess": 7028,
      "iders": 7029,
      "otal": 7030,
      "ĠService": 7031,
      "List": 7032,
      "omen": 7033,
      "cery": 7034,
      "Add": 7035,
      "Ġenvironmentally": 7036,
      "agraph": 7037,
      "Ġfierce": 7038,
      "Ġspoke": 7039,
      "ĠAnalytics": 7040,
      "ĠUser": 7041,
      "Ġniche": 7042,
      "ĠSum": 7043,
      "Ġlayers": 7044,
      "Ġsequence": 7045,
      "Ġprocedures": 7046,
      "table": 7047,
      "ĠMat": 7048,
      "ĠCost": 7049,
      "Me": 7050,
      "Ġfundra": 7051,
      "Ġcircum": 7052,
      "Company": 7053,
      "Ġthoroughly": 7054,
      "Ġaccessibility": 7055,
      "ĠRoasted": 7056,
      "ĠJake": 7057,
      "ĠSeason": 7058,
      "ĠLinkedIn": 7059,
      "ĠOnline": 7060,
      "actions": 7061,
      "Ġexactly": 7062,
      "Ġcrowd": 7063,
      "izers": 7064,
      "Ġguest": 7065,
      "Ġdip": 7066,
      "ĠBudd": 7067,
      "Ġrelatively": 7068,
      "Ġfishing": 7069,
      "orship": 7070,
      "Ġlosing": 7071,
      "eters": 7072,
      "Ġmodify": 7073,
      "Ġshake": 7074,
      "rue": 7075,
      "alsa": 7076,
      "Ġinsert": 7077,
      "ĠIslam": 7078,
      "umps": 7079,
      "Ġhus": 7080,
      "Ġvoc": 7081,
      "AP": 7082,
      "usable": 7083,
      "Ġalcohol": 7084,
      "leep": 7085,
      "ĠMiddle": 7086,
      "aws": 7087,
      "Ġbackgrounds": 7088,
      "Ġinstalled": 7089,
      "ĠJohnson": 7090,
      "QL": 7091,
      "Ġfinance": 7092,
      "Ġcoverage": 7093,
      "Ġproducing": 7094,
      "Ġendless": 7095,
      "Ġsweetness": 7096,
      "Ġsculpture": 7097,
      "No": 7098,
      "oral": 7099,
      "Ġtit": 7100,
      "rote": 7101,
      "Ġcombat": 7102,
      "Ġmatches": 7103,
      "Ġhotels": 7104,
      "Ġinval": 7105,
      "Ġelev": 7106,
      "ĠTim": 7107,
      "front": 7108,
      "apes": 7109,
      "ĠStudents": 7110,
      "ĠEmpire": 7111,
      "ressive": 7112,
      "Ġcitizens": 7113,
      "Ġslice": 7114,
      "cher": 7115,
      "Ġduration": 7116,
      "Ġprompts": 7117,
      "ruption": 7118,
      "Ġpromotion": 7119,
      "Ġpushing": 7120,
      "Ġdestroy": 7121,
      "ĠSen": 7122,
      "Ġcontributing": 7123,
      "Ġphilos": 7124,
      "Ġwindows": 7125,
      "ĠFore": 7126,
      "insp": 7127,
      "Ġid": 7128,
      "redient": 7129,
      "Ġpredators": 7130,
      "lide": 7131,
      "esteem": 7132,
      "Pl": 7133,
      "99": 7134,
      "Ġnoodles": 7135,
      "70": 7136,
      "ĠSub": 7137,
      "Ġestate": 7138,
      "Ġunit": 7139,
      "Ġshares": 7140,
      "Ġstrengthen": 7141,
      "driven": 7142,
      "ubs": 7143,
      "Ġaccomp": 7144,
      "made": 7145,
      "Ġrush": 7146,
      "ĠOb": 7147,
      "Ġmillions": 7148,
      "Ġextended": 7149,
      "Ġresponses": 7150,
      "TS": 7151,
      "ĠBu": 7152,
      "Ġsymbolism": 7153,
      "Ġunknown": 7154,
      "Ġvolunteers": 7155,
      "othe": 7156,
      "Ġtimeline": 7157,
      "Ġquotes": 7158,
      "Ġokay": 7159,
      "Ġtutor": 7160,
      "Ġagg": 7161,
      "Ġlearners": 7162,
      "ĠLife": 7163,
      "Ġshaped": 7164,
      "ĠToday": 7165,
      "Ġreporting": 7166,
      "');": 7167,
      "Ġlists": 7168,
      "net": 7169,
      "Ġanimation": 7170,
      "Ġwish": 7171,
      "Ġteamwork": 7172,
      "rum": 7173,
      "Ġmedit": 7174,
      "Ġtire": 7175,
      "ditional": 7176,
      "roph": 7177,
      "Ġwhatever": 7178,
      "Ġpopularity": 7179,
      "Ġunl": 7180,
      "ĠShow": 7181,
      "Ġdifficulty": 7182,
      "Ġactively": 7183,
      "adow": 7184,
      "Ġroutes": 7185,
      "Ġlibraries": 7186,
      "Ġcontainers": 7187,
      "Ġdrawing": 7188,
      "Ġrepeat": 7189,
      "Ġworkouts": 7190,
      "Ġfought": 7191,
      "Ġoverwhelmed": 7192,
      "Don": 7193,
      "Ġconference": 7194,
      "Ġavoiding": 7195,
      "Ġshowcasing": 7196,
      "RL": 7197,
      "Ġtrib": 7198,
      "Ġquarter": 7199,
      "Ġwash": 7200,
      "ĠDem": 7201,
      "ĠLearning": 7202,
      "Ġinsect": 7203,
      "urpose": 7204,
      "Ġprime": 7205,
      "acher": 7206,
      "ĠServices": 7207,
      "Ġdaughter": 7208,
      "ĠUnion": 7209,
      "Ġbaked": 7210,
      "Ġperseverance": 7211,
      "Ġpool": 7212,
      "Ġvisualization": 7213,
      "arant": 7214,
      "Ġspecified": 7215,
      "storm": 7216,
      "Ġenjoyable": 7217,
      "ĠGold": 7218,
      "smiling": 7219,
      "Ġneuro": 7220,
      "ĠThom": 7221,
      "Ġgear": 7222,
      "ĠStar": 7223,
      "Now": 7224,
      "Ġbasket": 7225,
      "Ġinstrument": 7226,
      "Ġsad": 7227,
      "ivating": 7228,
      "Ġattending": 7229,
      "Let": 7230,
      "Ġintuitive": 7231,
      "bly": 7232,
      "vas": 7233,
      "Ġdivid": 7234,
      "Out": 7235,
      "Ġnice": 7236,
      "Ġcabin": 7237,
      "ald": 7238,
      "ĠRoad": 7239,
      "Ġfuels": 7240,
      "Ġdiscussion": 7241,
      "Ġsurprise": 7242,
      "Ġshowcases": 7243,
      "Ġinflamm": 7244,
      "Ġvisited": 7245,
      "Ġinqu": 7246,
      "ĠCare": 7247,
      "Ġmustard": 7248,
      "Ġhonor": 7249,
      "ĠBas": 7250,
      "Ġdiscussing": 7251,
      "ĠDIY": 7252,
      "Ġsignal": 7253,
      "ecd": 7254,
      "Ġowner": 7255,
      "Ġalongside": 7256,
      "ĠLuc": 7257,
      "Ġfossil": 7258,
      "Ġanecd": 7259,
      "ESS": 7260,
      "Ġtracks": 7261,
      "Col": 7262,
      "rase": 7263,
      "Ġcategories": 7264,
      "Ġfats": 7265,
      "enewable": 7266,
      "indu": 7267,
      "Ġdebt": 7268,
      "ðŁ": 7269,
      "olic": 7270,
      "100": 7271,
      "Ġsport": 7272,
      "Ġmild": 7273,
      "ĠGard": 7274,
      "sized": 7275,
      "Ġpreparing": 7276,
      "Ġpossibilities": 7277,
      "Ġdescribed": 7278,
      "Ġ2014": 7279,
      "ĠRob": 7280,
      "anches": 7281,
      "Ġnervous": 7282,
      "Ġarguments": 7283,
      "Ġaccurately": 7284,
      "Ġmort": 7285,
      "Ġhoriz": 7286,
      "IG": 7287,
      "ĠFestival": 7288,
      "etime": 7289,
      "Ġmanagers": 7290,
      "Ġessays": 7291,
      "Ġcategory": 7292,
      "rence": 7293,
      "Ġunderst": 7294,
      "cuss": 7295,
      "enery": 7296,
      "ida": 7297,
      "ĠRest": 7298,
      "Ġmeasuring": 7299,
      "value": 7300,
      "Ġdisorder": 7301,
      "ulum": 7302,
      "Ġmanual": 7303,
      "Ġroof": 7304,
      "Ġprey": 7305,
      "ona": 7306,
      "Ġnuc": 7307,
      "ĠDigital": 7308,
      "ikes": 7309,
      "Ġsalmon": 7310,
      "Ġparticipation": 7311,
      "Ġcelebrated": 7312,
      "Ġbasis": 7313,
      "Rec": 7314,
      "peat": 7315,
      "Ġhonest": 7316,
      "Ġpreparation": 7317,
      "oa": 7318,
      "Ġoptimized": 7319,
      "itable": 7320,
      "ĠDirect": 7321,
      "Ġhearts": 7322,
      "Ġpanel": 7323,
      "ĠIT": 7324,
      "lla": 7325,
      "Ġoperate": 7326,
      "ifies": 7327,
      "ĠBer": 7328,
      "ĠEv": 7329,
      "Ġquantum": 7330,
      "ĠGrand": 7331,
      "Ġbinary": 7332,
      "Ġflash": 7333,
      "Ġingredient": 7334,
      "Ġputting": 7335,
      "ĠStreet": 7336,
      "Ġdesigning": 7337,
      "ĠCoc": 7338,
      "Ġshell": 7339,
      "ĠAcad": 7340,
      "Ġbackup": 7341,
      "Ġlandmarks": 7342,
      "Ġcos": 7343,
      "otion": 7344,
      "Ġspray": 7345,
      "ĠAlice": 7346,
      "->": 7347,
      "ĠYog": 7348,
      "ĠInteg": 7349,
      "Ġfarming": 7350,
      "pects": 7351,
      "Ġencryption": 7352,
      "Ġentry": 7353,
      "ĠHold": 7354,
      "Ġvot": 7355,
      "ĠNav": 7356,
      "Ġbooking": 7357,
      "Ġwet": 7358,
      "ĠDid": 7359,
      "Ġediting": 7360,
      "men": 7361,
      "ĠWell": 7362,
      "ĠConnect": 7363,
      "Ġcoping": 7364,
      "ĠStay": 7365,
      "Ġdealing": 7366,
      "Ġsending": 7367,
      "Ġfees": 7368,
      "Ġpreferred": 7369,
      "ĠMil": 7370,
      "Ġwoods": 7371,
      "ĠHeat": 7372,
      "athered": 7373,
      "Ġcockt": 7374,
      "ĠSee": 7375,
      "obile": 7376,
      "Ġsett": 7377,
      "anged": 7378,
      "ĠAgreement": 7379,
      "folio": 7380,
      "Ġneut": 7381,
      "Ġphrases": 7382,
      "inse": 7383,
      "stract": 7384,
      "Ġmakeup": 7385,
      "Ġutilizing": 7386,
      "Ġlean": 7387,
      "ĠRachel": 7388,
      "Ġvolunteering": 7389,
      "Ġhorror": 7390,
      "ĠGar": 7391,
      "Ġproductive": 7392,
      "Ġdetection": 7393,
      "ĠHel": 7394,
      "most": 7395,
      "ĠMaria": 7396,
      "Ġkick": 7397,
      "ĠFranc": 7398,
      "Ġlanding": 7399,
      "Ġwhose": 7400,
      "bling": 7401,
      "Ġlogistics": 7402,
      "Ġinequality": 7403,
      "âĢ¦": 7404,
      "ref": 7405,
      "Ġentirely": 7406,
      "Ġdecl": 7407,
      "Ġpri": 7408,
      "Ġnearly": 7409,
      "Ġdegrees": 7410,
      "Ġhall": 7411,
      "ĠApril": 7412,
      "Ġprimarily": 7413,
      "Ġcherry": 7414,
      "Ġcurs": 7415,
      "Ġsubtle": 7416,
      "ometric": 7417,
      "Ġcow": 7418,
      "Ġleather": 7419,
      "Ġranking": 7420,
      "Script": 7421,
      "Ġlimits": 7422,
      "Ġyounger": 7423,
      "Ġassem": 7424,
      "Ġpreference": 7425,
      "Ġpace": 7426,
      "ella": 7427,
      "Ġcolumn": 7428,
      "ĠDNA": 7429,
      "Ġpreserve": 7430,
      "ĠLight": 7431,
      "Ġcloth": 7432,
      "Ġpercentage": 7433,
      "ĠAdv": 7434,
      "haust": 7435,
      "ĠStrateg": 7436,
      "Ġwearing": 7437,
      "ĠMoreover": 7438,
      "Ġdirectory": 7439,
      "Ġrevealed": 7440,
      "Ġdestruction": 7441,
      "Ġtrails": 7442,
      "Ġvendors": 7443,
      "Ġgreatest": 7444,
      "bris": 7445,
      "Ġcyber": 7446,
      "Ġflakes": 7447,
      "Ġcalling": 7448,
      "ĠMicrosoft": 7449,
      "Ġabandoned": 7450,
      "Ġbacon": 7451,
      "erals": 7452,
      "Ġequipped": 7453,
      "itivity": 7454,
      "Ġconscious": 7455,
      "Ġkingdom": 7456,
      "ĠSqu": 7457,
      "Ġemphasize": 7458,
      "ĠCustomer": 7459,
      "gs": 7460,
      "ĠLib": 7461,
      "ĠCSS": 7462,
      "ritious": 7463,
      "Ġthrive": 7464,
      "Ġchatbot": 7465,
      "Ġtiss": 7466,
      "Ġpink": 7467,
      "Ġdepart": 7468,
      "Ġbust": 7469,
      "Ġutilized": 7470,
      "Ġborn": 7471,
      "ĠClean": 7472,
      "Ġjoint": 7473,
      "Ġstable": 7474,
      "Ġmelody": 7475,
      "Ġzucchini": 7476,
      "TP": 7477,
      "Ġham": 7478,
      "ĠHand": 7479,
      "ĠEngland": 7480,
      "Ġunits": 7481,
      "Ġinterviews": 7482,
      "Ġgenerating": 7483,
      "Ġwellbeing": 7484,
      "Ġcomed": 7485,
      "reach": 7486,
      "requ": 7487,
      "Ġstead": 7488,
      "Ġcurry": 7489,
      "ĠQue": 7490,
      "otics": 7491,
      "Ġofficials": 7492,
      "Ġrituals": 7493,
      "Ġsought": 7494,
      "ĠAccess": 7495,
      "alysis": 7496,
      "Ġimagine": 7497,
      "insert": 7498,
      "22": 7499,
      "ĠFoundation": 7500,
      "Ġdash": 7501,
      "Ġgrocery": 7502,
      "ĠSince": 7503,
      "Ġcoach": 7504,
      "lymp": 7505,
      "iov": 7506,
      "Ġroute": 7507,
      "ĠEss": 7508,
      "Ġharder": 7509,
      "Ġsubstitut": 7510,
      "Ġdrawn": 7511,
      "Ġannounced": 7512,
      "**": 7513,
      "Ġoverc": 7514,
      "ĠBrand": 7515,
      "Ġpriority": 7516,
      "Ġgraphic": 7517,
      "Ġdebris": 7518,
      "Ġbranches": 7519,
      "Ġtestimon": 7520,
      "Ġalternatives": 7521,
      "Ġshops": 7522,
      "Ġoverl": 7523,
      "Ġlyrics": 7524,
      "Ġtears": 7525,
      "Ġparks": 7526,
      "Act": 7527,
      "Ġpapers": 7528,
      "Ġwrote": 7529,
      "Ġnutritious": 7530,
      "ĠĠĠĠĠĠĠĠĠ": 7531,
      "Ġhurt": 7532,
      "ĠLove": 7533,
      "ĠReal": 7534,
      "Ġsaving": 7535,
      "Ġbanana": 7536,
      "Ġvariables": 7537,
      "pending": 7538,
      "eli": 7539,
      "Ġleverage": 7540,
      "itting": 7541,
      "Ġlic": 7542,
      "Ġpreventing": 7543,
      "ĠHall": 7544,
      "Insert": 7545,
      "Ġrule": 7546,
      "Ġembra": 7547,
      "pie": 7548,
      "Ġweaknesses": 7549,
      "Ġpersist": 7550,
      "Ġhusband": 7551,
      "Ġjun": 7552,
      "ĠLead": 7553,
      "Ġvictory": 7554,
      "Ġseat": 7555,
      "Ġborder": 7556,
      "isco": 7557,
      "Ġgardens": 7558,
      "ĠAlthough": 7559,
      "ĠMaya": 7560,
      "Ġinvested": 7561,
      "una": 7562,
      "orter": 7563,
      "ĠBay": 7564,
      "Ġstew": 7565,
      "ĠSimilarly": 7566,
      "ĠWall": 7567,
      "Ġages": 7568,
      "ĠBeach": 7569,
      "Ġnewslet": 7570,
      "Ġapples": 7571,
      "Ġautomated": 7572,
      "ĠWrit": 7573,
      "Ġknife": 7574,
      "ĠST": 7575,
      "Ġroots": 7576,
      "ĠLike": 7577,
      "ĠSpe": 7578,
      "Ġwis": 7579,
      "ĠFresh": 7580,
      "Ġdiam": 7581,
      "Ġchair": 7582,
      "base": 7583,
      "Ġrul": 7584,
      "Ġtheater": 7585,
      "Ġveter": 7586,
      "inding": 7587,
      "ĠStand": 7588,
      "Ġregional": 7589,
      "Provide": 7590,
      "Ġshut": 7591,
      "ading": 7592,
      "lor": 7593,
      "Ġapartment": 7594,
      "ya": 7595,
      "but": 7596,
      "Ġindicate": 7597,
      "Ġorders": 7598,
      "https": 7599,
      "ampions": 7600,
      "Ġemotion": 7601,
      "Ġexpansion": 7602,
      "ĠVirtual": 7603,
      "uit": 7604,
      "Ġdirector": 7605,
      "Ġintake": 7606,
      "Ġsurveys": 7607,
      "ĠBuilding": 7608,
      "Ġmathe": 7609,
      "ascular": 7610,
      "ĠMarch": 7611,
      "ĠRich": 7612,
      "ĠImp": 7613,
      "width": 7614,
      "Ġrecycled": 7615,
      "Ġparagraph": 7616,
      "ĠMindfulness": 7617,
      "Ġbesides": 7618,
      "Ġauth": 7619,
      "Ġmansion": 7620,
      "Ġshoulder": 7621,
      "Ġhesit": 7622,
      "ester": 7623,
      "Ġestimated": 7624,
      "Ġmotor": 7625,
      "long": 7626,
      "ping": 7627,
      "Ġprecision": 7628,
      "Ġmargin": 7629,
      "ioxid": 7630,
      "Ġsuddenly": 7631,
      "________________________________": 7632,
      "celer": 7633,
      "ancer": 7634,
      "Ġcircumst": 7635,
      "building": 7636,
      "Ġconvent": 7637,
      "Ġwhisp": 7638,
      "Ġcalendar": 7639,
      "Ġpersu": 7640,
      "Ġappears": 7641,
      "ĠMart": 7642,
      "issance": 7643,
      "ĠGermany": 7644,
      "Ġrestrictions": 7645,
      "ĠYear": 7646,
      "Ġinvestig": 7647,
      "Ġreferral": 7648,
      "apple": 7649,
      "Ġexhaust": 7650,
      "bility": 7651,
      "plant": 7652,
      "ĠLeg": 7653,
      "Ġindigenous": 7654,
      "Ġtherapist": 7655,
      "vol": 7656,
      "orted": 7657,
      "Ġscar": 7658,
      "Ġrefused": 7659,
      "Ġpumpkin": 7660,
      "Ġclaims": 7661,
      "CH": 7662,
      "PA": 7663,
      "Ġradio": 7664,
      "asm": 7665,
      "Ġworry": 7666,
      "oos": 7667,
      "45": 7668,
      "iner": 7669,
      "Ġlift": 7670,
      "Ġmurder": 7671,
      "Or": 7672,
      "unately": 7673,
      "Ġburst": 7674,
      "Ġbear": 7675,
      "Ġpil": 7676,
      "ĠCam": 7677,
      "ĠSn": 7678,
      "Ġintended": 7679,
      "Ġuniversities": 7680,
      "lation": 7681,
      "Ġjack": 7682,
      "aware": 7683,
      "ĠOlymp": 7684,
      "Ġabuse": 7685,
      "Ġbridge": 7686,
      "Ġtalked": 7687,
      "Ġreusable": 7688,
      "ĠCloud": 7689,
      "Ġchees": 7690,
      "Ġnarrow": 7691,
      "Ġtraveling": 7692,
      "ĠSuper": 7693,
      "Ġune": 7694,
      "Ġcollected": 7695,
      "ĠLast": 7696,
      "Ġspell": 7697,
      "Ġinflammation": 7698,
      "Ġsections": 7699,
      "33": 7700,
      "Ġinvolvement": 7701,
      "Ġharvest": 7702,
      "Ġcurric": 7703,
      "Ġdriven": 7704,
      "osion": 7705,
      "ello": 7706,
      "atable": 7707,
      "formance": 7708,
      "Ġgalax": 7709,
      "high": 7710,
      "VID": 7711,
      "Ġmale": 7712,
      "Ġdevelopments": 7713,
      "Ġchurch": 7714,
      "Product": 7715,
      "Ġclarity": 7716,
      "Ġhashtags": 7717,
      "eal": 7718,
      "Ġpushed": 7719,
      "osh": 7720,
      "\");": 7721,
      "Ġheal": 7722,
      "ĠScott": 7723,
      "Ġuncover": 7724,
      "oir": 7725,
      "alle": 7726,
      "const": 7727,
      "aterials": 7728,
      "Ġinstruct": 7729,
      "Ġregulation": 7730,
      "ĠSoc": 7731,
      "Ġtells": 7732,
      "ĠCour": 7733,
      "attle": 7734,
      "Ġassessment": 7735,
      "ĠSales": 7736,
      "well": 7737,
      "Ġaer": 7738,
      "Ġdisplayed": 7739,
      "ĠTem": 7740,
      "enger": 7741,
      "Ġportray": 7742,
      "Using": 7743,
      "ĠCollabor": 7744,
      "gl": 7745,
      "Ġ21": 7746,
      "Ġinvestments": 7747,
      "Ġrose": 7748,
      "nic": 7749,
      "ĠStudies": 7750,
      "ĠAcc": 7751,
      "meg": 7752,
      "ĠRepeat": 7753,
      "Ġoutcome": 7754,
      "egin": 7755,
      "ĠContin": 7756,
      "Ġbroccoli": 7757,
      "Ġ2013": 7758,
      "Ġvacc": 7759,
      "Ġinches": 7760,
      "Ġfib": 7761,
      "Ġwelcome": 7762,
      "ĠSout": 7763,
      "Ġphotograph": 7764,
      "Ġmaximize": 7765,
      "othermal": 7766,
      "ograp": 7767,
      "Ġhumanity": 7768,
      "Ġsupernatural": 7769,
      "Ġaffecting": 7770,
      "Ġphilosoph": 7771,
      "immer": 7772,
      "ĠSelect": 7773,
      "Ġhorm": 7774,
      "Ġholds": 7775,
      "Ġnative": 7776,
      "Ġsale": 7777,
      "Ġdecide": 7778,
      "efits": 7779,
      "Ġsenses": 7780,
      "Ġwhis": 7781,
      "Ġdiscipl": 7782,
      "abetes": 7783,
      "Ġprominent": 7784,
      "During": 7785,
      "ST": 7786,
      "ricks": 7787,
      "Ġquote": 7788,
      "Ġneighb": 7789,
      "Ġinn": 7790,
      "redict": 7791,
      "Ġshadow": 7792,
      "Ġdut": 7793,
      "bell": 7794,
      "Ġinstant": 7795,
      "ĠCap": 7796,
      "ita": 7797,
      "edia": 7798,
      "ĠNative": 7799,
      "ĠOct": 7800,
      "bar": 7801,
      "ship": 7802,
      "gged": 7803,
      "arding": 7804,
      "Ġtutorials": 7805,
      "First": 7806,
      "mes": 7807,
      "Ġmysterious": 7808,
      "Ġbrother": 7809,
      "Ġdeadlines": 7810,
      "Ġclinical": 7811,
      "Ġrepet": 7812,
      "Ġintrig": 7813,
      "ĠAllow": 7814,
      "Ġfridge": 7815,
      "Ġenabled": 7816,
      "Ġcomparison": 7817,
      "Ġdevast": 7818,
      "cest": 7819,
      "Ġantioxid": 7820,
      "Ġcircle": 7821,
      "ĠFam": 7822,
      "Ġproteins": 7823,
      "Ġeight": 7824,
      "Ġvisible": 7825,
      "Ġwidth": 7826,
      "Ġpurchases": 7827,
      "Ġrobust": 7828,
      "Ġpretty": 7829,
      "Ġtwisted": 7830,
      "ivia": 7831,
      "OT": 7832,
      "optional": 7833,
      "Ġinitially": 7834,
      "Ġleaf": 7835,
      "Ġcommunic": 7836,
      "Ġguess": 7837,
      "Ġincorporates": 7838,
      "ĠNut": 7839,
      "Ġmodule": 7840,
      "Ġstepped": 7841,
      "Ġswimming": 7842,
      "inder": 7843,
      "Ġsoap": 7844,
      "Ġextend": 7845,
      "Ġdrawbacks": 7846,
      "Ġdelivering": 7847,
      "Ġdrugs": 7848,
      "ĠYes": 7849,
      "Ġceremony": 7850,
      "Ġshades": 7851,
      "Ġapplying": 7852,
      "Ġchances": 7853,
      "Ġmarin": 7854,
      "Ġproof": 7855,
      "ĠParmesan": 7856,
      "ĠOh": 7857,
      "Ġinch": 7858,
      "ĠCover": 7859,
      "Ġappeared": 7860,
      "Ġknows": 7861,
      "Ġultimate": 7862,
      "sum": 7863,
      "arency": 7864,
      "Ġhip": 7865,
      "Ġlocals": 7866,
      "Ġdemographics": 7867,
      "Ġupper": 7868,
      "Ġfrequent": 7869,
      "Ġsilence": 7870,
      "Ġevil": 7871,
      "dep": 7872,
      "Ġhaz": 7873,
      "ĠBring": 7874,
      "ingu": 7875,
      "Ġthrow": 7876,
      "iable": 7877,
      "Ġcollaborative": 7878,
      "Ġspots": 7879,
      "Ġovers": 7880,
      "Ġconsistently": 7881,
      "ĠCentral": 7882,
      "Furthermore": 7883,
      "Ġvalued": 7884,
      "Ġutilize": 7885,
      "ĠSing": 7886,
      "Ġ80": 7887,
      "urious": 7888,
      "Ġdestinations": 7889,
      "ĠGerman": 7890,
      "ĠAugust": 7891,
      "Ġspoon": 7892,
      "TML": 7893,
      "Ġregardless": 7894,
      "ĠJe": 7895,
      "Ġdied": 7896,
      "Ġlocally": 7897,
      "Ġpromotional": 7898,
      "Ġseed": 7899,
      "ASON": 7900,
      "reed": 7901,
      "Ġanecdotes": 7902,
      "Ġbare": 7903,
      "Ġouts": 7904,
      "Ġexh": 7905,
      "Ġpositions": 7906,
      "Su": 7907,
      "Ġrefrigerator": 7908,
      "Ġkeeps": 7909,
      "ushi": 7910,
      "Ġcompleting": 7911,
      "ocated": 7912,
      "appy": 7913,
      "Ġoutline": 7914,
      "Ġdiss": 7915,
      "Ġregul": 7916,
      "Ġreligion": 7917,
      "inant": 7918,
      "ĠJune": 7919,
      "eting": 7920,
      "ĠCult": 7921,
      "ĠJen": 7922,
      "Ġyouth": 7923,
      "Ġmissed": 7924,
      "ĠMonitor": 7925,
      "Ġnutrient": 7926,
      "Ġprotecting": 7927,
      "Ġharmony": 7928,
      "ĠEnviron": 7929,
      "Ġroast": 7930,
      "Ġdragon": 7931,
      "Ġspeakers": 7932,
      "Ġaffili": 7933,
      "Ġexplaining": 7934,
      "ashington": 7935,
      "brid": 7936,
      "ris": 7937,
      "CO": 7938,
      "Ġfraud": 7939,
      "Ġcookie": 7940,
      "afe": 7941,
      "Ġpayments": 7942,
      "Ġheating": 7943,
      "Ġtwists": 7944,
      "Ġfacilitate": 7945,
      "rus": 7946,
      "Ġtack": 7947,
      "Ġhummus": 7948,
      "Ġperhaps": 7949,
      "Ġwand": 7950,
      "Ġopinions": 7951,
      "Oh": 7952,
      "Tra": 7953,
      "Ġadjustments": 7954,
      "next": 7955,
      "Ġnation": 7956,
      "ĠTex": 7957,
      "Ġtransactions": 7958,
      "Ġroutines": 7959,
      "Ġachievement": 7960,
      "Ġdriver": 7961,
      "Ġlaws": 7962,
      "ĠAny": 7963,
      "ĠWood": 7964,
      "ĠThanks": 7965,
      "Ġmoves": 7966,
      "Ġpacked": 7967,
      "Ġparaph": 7968,
      "obal": 7969,
      "ĠFit": 7970,
      "ĠAutom": 7971,
      "ool": 7972,
      "Ġconcrete": 7973,
      "Ġshock": 7974,
      "Ġhaunted": 7975,
      "Ġfacilit": 7976,
      "Ġcircumstances": 7977,
      "ĠExerc": 7978,
      "Ġmeasurements": 7979,
      "acific": 7980,
      "Ġforgiveness": 7981,
      "Ġqueries": 7982,
      "Ġended": 7983,
      "Ġcamping": 7984,
      "Ġsilver": 7985,
      "ĠExperiment": 7986,
      "ĠCarol": 7987,
      "utch": 7988,
      "ĠSept": 7989,
      "Ġpassionate": 7990,
      "node": 7991,
      "Ġunp": 7992,
      "Ġregulate": 7993,
      "eras": 7994,
      "Ġmaple": 7995,
      "IV": 7996,
      "otton": 7997,
      "CD": 7998,
      "ivered": 7999,
      "Ġwheat": 8000,
      "Ġzero": 8001,
      "Ġmedication": 8002,
      "Ġexit": 8003,
      "Ġphase": 8004,
      "Ġfer": 8005,
      "ĠRock": 8006,
      "iovascular": 8007,
      "Ġstoring": 8008,
      "Ġalmonds": 8009,
      "Ġmuseums": 8010,
      "Ġgods": 8011,
      "ĠMexican": 8012,
      "Ġtab": 8013,
      "Ġfacility": 8014,
      "ĠEngine": 8015,
      "Ġmilest": 8016,
      "Ġsere": 8017,
      "ĠTurn": 8018,
      "ĠGrilled": 8019,
      "Ġnod": 8020,
      "ĠBook": 8021,
      "ĠAsk": 8022,
      "Ġholes": 8023,
      "opy": 8024,
      "Ġdrain": 8025,
      "Be": 8026,
      "Ġbite": 8027,
      "Ġbroader": 8028,
      "Ġweekend": 8029,
      "Ġfailed": 8030,
      "ĠUN": 8031,
      "Ġfingers": 8032,
      "Ġquery": 8033,
      "ĠProfess": 8034,
      "Ġcucumber": 8035,
      "Ġgathered": 8036,
      "Ġviolence": 8037,
      "Ġschedules": 8038,
      "Ġpeanut": 8039,
      "gu": 8040,
      "ĠLou": 8041,
      "Ġpositively": 8042,
      "Ġpaying": 8043,
      "Ġcollaborations": 8044,
      "fry": 8045,
      "zing": 8046,
      "iches": 8047,
      "aver": 8048,
      "Ġherb": 8049,
      "Ġfilters": 8050,
      "Ġsubscribers": 8051,
      "Ġmath": 8052,
      "undred": 8053,
      "books": 8054,
      "Are": 8055,
      "Ġmanipulate": 8056,
      "ĠLog": 8057,
      "ĠMexico": 8058,
      "ĠEnd": 8059,
      "ĠVeget": 8060,
      "Ġportfolio": 8061,
      "Ġsear": 8062,
      "Ġculinary": 8063,
      "ouds": 8064,
      "ĠSy": 8065,
      "Ġrelaxing": 8066,
      "Ġadvers": 8067,
      "ĠBuild": 8068,
      "ulty": 8069,
      "ori": 8070,
      "Ġterrit": 8071,
      "specific": 8072,
      "ĠCat": 8073,
      "Ġhaven": 8074,
      "uel": 8075,
      "ĠKey": 8076,
      "Ġsalsa": 8077,
      "ĠInstall": 8078,
      "ĠProt": 8079,
      "Ġkeyword": 8080,
      "Ġrepresenting": 8081,
      "Ġdownt": 8082,
      "Ġgym": 8083,
      "Ġcarried": 8084,
      "Ġdangers": 8085,
      "Ġmonthly": 8086,
      "zil": 8087,
      "ĠBig": 8088,
      "Ġconsumed": 8089,
      "Ġblow": 8090,
      "ĠHaw": 8091,
      "ĠLila": 8092,
      "Ġportion": 8093,
      "Ġevaluation": 8094,
      "ooth": 8095,
      "ĠPress": 8096,
      "leg": 8097,
      "Ġcultivate": 8098,
      "bies": 8099,
      "rem": 8100,
      "ĠAva": 8101,
      "Ġparticipating": 8102,
      "Ġunderstood": 8103,
      "Ġrental": 8104,
      "Ġcustoms": 8105,
      "Ġphysically": 8106,
      "Ġtourists": 8107,
      "ĠSecurity": 8108,
      "ĠSer": 8109,
      "ĠWashington": 8110,
      "Ġbact": 8111,
      "ĠMost": 8112,
      "Ġinfluences": 8113,
      "Ġsectors": 8114,
      "Ġworn": 8115,
      "Ġminerals": 8116,
      "Ġ2012": 8117,
      "ifted": 8118,
      "Ġbreathtaking": 8119,
      "Ġdesper": 8120,
      "Ġdocumentation": 8121,
      "essica": 8122,
      "Ġrefers": 8123,
      "ĠIncreased": 8124,
      "Ġseamless": 8125,
      "Ġinsec": 8126,
      "Ġpremium": 8127,
      "ession": 8128,
      "ferent": 8129,
      "Ġ($": 8130,
      "ĠOf": 8131,
      "ĠInit": 8132,
      "Ġmathemat": 8133,
      "PC": 8134,
      "cers": 8135,
      "Ġdoors": 8136,
      "Ġinputs": 8137,
      "Ġsleek": 8138,
      "Ġdisabilities": 8139,
      "isticated": 8140,
      "ĠBrown": 8141,
      "astern": 8142,
      "aphor": 8143,
      "Ġwinning": 8144,
      "Ġbelief": 8145,
      "Ġpackages": 8146,
      "Ġench": 8147,
      "Ġconversions": 8148,
      "ĠBoth": 8149,
      "respond": 8150,
      "Ġconfirm": 8151,
      "ĠVisual": 8152,
      "Ġreinforce": 8153,
      "Val": 8154,
      "Ġacquis": 8155,
      "rape": 8156,
      "arrator": 8157,
      "connect": 8158,
      "Ġrapidly": 8159,
      "AB": 8160,
      "Moreover": 8161,
      "Ġfewer": 8162,
      "Ġodd": 8163,
      "Sp": 8164,
      "Sub": 8165,
      "Ġresonates": 8166,
      "])": 8167,
      "ĠRena": 8168,
      "Ġsoda": 8169,
      "ĠSustain": 8170,
      "Ġprocessor": 8171,
      "Ġsentiment": 8172,
      "lishing": 8173,
      "Ġremoving": 8174,
      "ologies": 8175,
      "engers": 8176,
      "ĠBi": 8177,
      "Ġanywhere": 8178,
      "Ġformats": 8179,
      "Ġvitamins": 8180,
      "Ġcaut": 8181,
      "Ġcombinations": 8182,
      "Ġcontrolled": 8183,
      "Ġseven": 8184,
      "ĠOld": 8185,
      "Ġsudden": 8186,
      "ĠDan": 8187,
      "hesive": 8188,
      "ADE": 8189,
      "Ġmagaz": 8190,
      "Ġtailor": 8191
    },
    "merges": [
      [
        "Ġ",
        "t"
      ],
      [
        "Ġ",
        "a"
      ],
      [
        "i",
        "n"
      ],
      [
        "h",
        "e"
      ],
      [
        "r",
        "e"
      ],
      [
        "Ġ",
        "s"
      ],
      [
        "o",
        "n"
      ],
      [
        "č",
        "Ċ"
      ],
      [
        "Ġt",
        "he"
      ],
      [
        "e",
        "r"
      ],
      [
        "n",
        "d"
      ],
      [
        "a",
        "t"
      ],
      [
        "Ġ",
        "c"
      ],
      [
        "o",
        "r"
      ],
      [
        "e",
        "s"
      ],
      [
        "e",
        "n"
      ],
      [
        "Ġ",
        "w"
      ],
      [
        "o",
        "u"
      ],
      [
        "in",
        "g"
      ],
      [
        "i",
        "t"
      ],
      [
        "Ġ",
        "p"
      ],
      [
        "Ġa",
        "nd"
      ],
      [
        "a",
        "n"
      ],
      [
        "Ġ",
        "f"
      ],
      [
        "a",
        "l"
      ],
      [
        "Ġ",
        "o"
      ],
      [
        "i",
        "s"
      ],
      [
        "Ġ",
        "m"
      ],
      [
        "Ġt",
        "o"
      ],
      [
        "Ġ",
        "b"
      ],
      [
        "e",
        "d"
      ],
      [
        "Ġ",
        "in"
      ],
      [
        "a",
        "r"
      ],
      [
        "i",
        "on"
      ],
      [
        "Ġo",
        "f"
      ],
      [
        "i",
        "c"
      ],
      [
        "Ġ",
        "d"
      ],
      [
        "a",
        "s"
      ],
      [
        "l",
        "e"
      ],
      [
        "r",
        "o"
      ],
      [
        "Ġ",
        "h"
      ],
      [
        "u",
        "s"
      ],
      [
        "Ġ",
        "e"
      ],
      [
        "en",
        "t"
      ],
      [
        "Ġt",
        "h"
      ],
      [
        "o",
        "m"
      ],
      [
        "v",
        "e"
      ],
      [
        "Ġ",
        "re"
      ],
      [
        "c",
        "t"
      ],
      [
        "i",
        "l"
      ],
      [
        "Ġ",
        "l"
      ],
      [
        "Ġ",
        "y"
      ],
      [
        "e",
        "t"
      ],
      [
        "Ġ",
        "g"
      ],
      [
        "Ġy",
        "ou"
      ],
      [
        "r",
        "a"
      ],
      [
        "i",
        "m"
      ],
      [
        "Ġ",
        "T"
      ],
      [
        "i",
        "d"
      ],
      [
        "o",
        "w"
      ],
      [
        "Ġ",
        "n"
      ],
      [
        "c",
        "e"
      ],
      [
        "Ġf",
        "or"
      ],
      [
        "c",
        "h"
      ],
      [
        "Ġ",
        "Ġ"
      ],
      [
        "at",
        "ion"
      ],
      [
        "e",
        "l"
      ],
      [
        "Ġs",
        "t"
      ],
      [
        "Ġ",
        "he"
      ],
      [
        "o",
        "l"
      ],
      [
        "Ġth",
        "at"
      ],
      [
        "s",
        "t"
      ],
      [
        "i",
        "g"
      ],
      [
        "Ġ",
        "on"
      ],
      [
        "it",
        "h"
      ],
      [
        "Ġp",
        "ro"
      ],
      [
        "er",
        "s"
      ],
      [
        "i",
        "r"
      ],
      [
        "l",
        "y"
      ],
      [
        "u",
        "t"
      ],
      [
        "Ġb",
        "e"
      ],
      [
        "o",
        "t"
      ],
      [
        "Ġ",
        "I"
      ],
      [
        "Ġw",
        "ith"
      ],
      [
        "a",
        "m"
      ],
      [
        "Ġ",
        "is"
      ],
      [
        "a",
        "d"
      ],
      [
        "u",
        "r"
      ],
      [
        "i",
        "f"
      ],
      [
        "a",
        "y"
      ],
      [
        "is",
        "t"
      ],
      [
        "u",
        "l"
      ],
      [
        "an",
        "t"
      ],
      [
        "|",
        ">"
      ],
      [
        "<",
        "|"
      ],
      [
        "Ġ",
        "S"
      ],
      [
        "es",
        "s"
      ],
      [
        "v",
        "er"
      ],
      [
        "s",
        "e"
      ],
      [
        "Ġ",
        "or"
      ],
      [
        "u",
        "n"
      ],
      [
        "Ġ",
        "A"
      ],
      [
        "Ġc",
        "an"
      ],
      [
        "Ġc",
        "on"
      ],
      [
        "u",
        "re"
      ],
      [
        "Ġe",
        "x"
      ],
      [
        "at",
        "e"
      ],
      [
        "Ġ",
        "C"
      ],
      [
        "Ġ",
        "it"
      ],
      [
        "Ġa",
        "s"
      ],
      [
        "Ġa",
        "n"
      ],
      [
        "a",
        "g"
      ],
      [
        "Ġa",
        "l"
      ],
      [
        "m",
        "ent"
      ],
      [
        "o",
        "re"
      ],
      [
        "k",
        "e"
      ],
      [
        "ĠT",
        "he"
      ],
      [
        "p",
        "p"
      ],
      [
        "a",
        "b"
      ],
      [
        "Ġa",
        "re"
      ],
      [
        "Ġs",
        "u"
      ],
      [
        "ou",
        "t"
      ],
      [
        "Ġc",
        "om"
      ],
      [
        "i",
        "ve"
      ],
      [
        "Ġ",
        "us"
      ],
      [
        "Ġw",
        "h"
      ],
      [
        "i",
        "es"
      ],
      [
        "Ġ",
        "v"
      ],
      [
        "e",
        "re"
      ],
      [
        "l",
        "d"
      ],
      [
        "o",
        "o"
      ],
      [
        "he",
        "r"
      ],
      [
        "it",
        "y"
      ],
      [
        "i",
        "v"
      ],
      [
        "p",
        "e"
      ],
      [
        "'",
        "s"
      ],
      [
        "Ġyou",
        "r"
      ],
      [
        "as",
        "s"
      ],
      [
        "a",
        "c"
      ],
      [
        "t",
        "er"
      ],
      [
        "Ġd",
        "e"
      ],
      [
        "Ġc",
        "h"
      ],
      [
        "q",
        "u"
      ],
      [
        "il",
        "l"
      ],
      [
        "o",
        "c"
      ],
      [
        "or",
        "t"
      ],
      [
        "Ġh",
        "a"
      ],
      [
        "es",
        "t"
      ],
      [
        "Ġ",
        "en"
      ],
      [
        "u",
        "d"
      ],
      [
        "a",
        "in"
      ],
      [
        "Ġthe",
        "ir"
      ],
      [
        "ig",
        "h"
      ],
      [
        "us",
        "t"
      ],
      [
        "ou",
        "r"
      ],
      [
        "e",
        "m"
      ],
      [
        "Ġn",
        "e"
      ],
      [
        "Ġ",
        "H"
      ],
      [
        "Ġs",
        "e"
      ],
      [
        "i",
        "al"
      ],
      [
        "Ġ",
        "M"
      ],
      [
        "Ġw",
        "as"
      ],
      [
        "om",
        "e"
      ],
      [
        "o",
        "p"
      ],
      [
        "t",
        "h"
      ],
      [
        "Ġa",
        "d"
      ],
      [
        "Ġs",
        "h"
      ],
      [
        "Ġ",
        "im"
      ],
      [
        "Ġ",
        "le"
      ],
      [
        "e",
        "ct"
      ],
      [
        "r",
        "i"
      ],
      [
        "id",
        "e"
      ],
      [
        "Ġ",
        "P"
      ],
      [
        "Ġ",
        "B"
      ],
      [
        "ou",
        "ld"
      ],
      [
        "i",
        "z"
      ],
      [
        "ion",
        "s"
      ],
      [
        "al",
        "l"
      ],
      [
        "re",
        "s"
      ],
      [
        "u",
        "m"
      ],
      [
        "p",
        "l"
      ],
      [
        "r",
        "ou"
      ],
      [
        "n",
        "t"
      ],
      [
        "Ġm",
        "ore"
      ],
      [
        "Ġ",
        "r"
      ],
      [
        "ar",
        "t"
      ],
      [
        "Ġw",
        "or"
      ],
      [
        "o",
        "s"
      ],
      [
        "ĠĠ",
        "ĠĠ"
      ],
      [
        "Ġa",
        "b"
      ],
      [
        "Ġin",
        "c"
      ],
      [
        "p",
        "t"
      ],
      [
        "ist",
        "ant"
      ],
      [
        "d",
        "u"
      ],
      [
        "ro",
        "m"
      ],
      [
        "Ġt",
        "e"
      ],
      [
        "Ġp",
        "l"
      ],
      [
        "us",
        "er"
      ],
      [
        "ag",
        "e"
      ],
      [
        "ass",
        "istant"
      ],
      [
        "p",
        "er"
      ],
      [
        "k",
        "ing"
      ],
      [
        "igh",
        "t"
      ],
      [
        "Ġha",
        "ve"
      ],
      [
        "Ġim",
        "p"
      ],
      [
        "f",
        "f"
      ],
      [
        "Ġin",
        "t"
      ],
      [
        "a",
        "nd"
      ],
      [
        "a",
        "ct"
      ],
      [
        "Ġw",
        "e"
      ],
      [
        "Ġb",
        "y"
      ],
      [
        "Ġa",
        "t"
      ],
      [
        "Ġ",
        "W"
      ],
      [
        "Ġf",
        "e"
      ],
      [
        "Ġ",
        "u"
      ],
      [
        "e",
        "nd"
      ],
      [
        "a",
        "re"
      ],
      [
        "o",
        "d"
      ],
      [
        "i",
        "p"
      ],
      [
        "Ġhe",
        "r"
      ],
      [
        "g",
        "h"
      ],
      [
        "Ġ",
        "D"
      ],
      [
        "Ġf",
        "rom"
      ],
      [
        "ab",
        "le"
      ],
      [
        "Ġ",
        "F"
      ],
      [
        "or",
        "m"
      ],
      [
        "Ġm",
        "e"
      ],
      [
        "a",
        "ke"
      ],
      [
        "re",
        "at"
      ],
      [
        "Ġ",
        "R"
      ],
      [
        "g",
        "e"
      ],
      [
        "Ġ",
        "E"
      ],
      [
        "in",
        "e"
      ],
      [
        "o",
        "g"
      ],
      [
        "as",
        "t"
      ],
      [
        "ig",
        "n"
      ],
      [
        "Ġhe",
        "l"
      ],
      [
        "Ġcom",
        "p"
      ],
      [
        "i",
        "e"
      ],
      [
        "Ġhel",
        "p"
      ],
      [
        "c",
        "c"
      ],
      [
        "t",
        "her"
      ],
      [
        "Ġs",
        "ome"
      ],
      [
        "Ġthe",
        "y"
      ],
      [
        "ation",
        "s"
      ],
      [
        "an",
        "ce"
      ],
      [
        "f",
        "orm"
      ],
      [
        "â",
        "Ģ"
      ],
      [
        "r",
        "u"
      ],
      [
        "in",
        "d"
      ],
      [
        "k",
        "s"
      ],
      [
        "Ġcon",
        "t"
      ],
      [
        "Ġ",
        "1"
      ],
      [
        "el",
        "l"
      ],
      [
        "ar",
        "d"
      ],
      [
        "Ġpro",
        "v"
      ],
      [
        "s",
        "o"
      ],
      [
        "r",
        "y"
      ],
      [
        "Ġ",
        "j"
      ],
      [
        "ĠT",
        "h"
      ],
      [
        "a",
        "ch"
      ],
      [
        "Ġ",
        "L"
      ],
      [
        "Ġ",
        "un"
      ],
      [
        "en",
        "ce"
      ],
      [
        "ul",
        "t"
      ],
      [
        "o",
        "st"
      ],
      [
        "ic",
        "al"
      ],
      [
        "Ġh",
        "as"
      ],
      [
        "Ġ",
        "k"
      ],
      [
        "a",
        "il"
      ],
      [
        "Ġad",
        "d"
      ],
      [
        "e",
        "p"
      ],
      [
        "ve",
        "l"
      ],
      [
        "Ġh",
        "ow"
      ],
      [
        "Ġre",
        "s"
      ],
      [
        "ac",
        "k"
      ],
      [
        "a",
        "v"
      ],
      [
        "Ġab",
        "out"
      ],
      [
        "ou",
        "s"
      ],
      [
        "Ġc",
        "l"
      ],
      [
        "ic",
        "e"
      ],
      [
        "T",
        "he"
      ],
      [
        "Ġthe",
        "m"
      ],
      [
        "Ġ",
        "G"
      ],
      [
        "Ġt",
        "ra"
      ],
      [
        "Ġal",
        "so"
      ],
      [
        "it",
        "ion"
      ],
      [
        "Ġal",
        "l"
      ],
      [
        "Ġh",
        "ad"
      ],
      [
        "ic",
        "h"
      ],
      [
        "Ġa",
        "pp"
      ],
      [
        "Ġo",
        "ther"
      ],
      [
        "Ġ",
        "("
      ],
      [
        "as",
        "e"
      ],
      [
        "c",
        "es"
      ],
      [
        "oo",
        "d"
      ],
      [
        "Ġd",
        "is"
      ],
      [
        "Ġw",
        "ill"
      ],
      [
        "Ġe",
        "m"
      ],
      [
        "if",
        "ic"
      ],
      [
        "Ġth",
        "is"
      ],
      [
        "ent",
        "s"
      ],
      [
        "im",
        "e"
      ],
      [
        "at",
        "ed"
      ],
      [
        "l",
        "ud"
      ],
      [
        "Ġ",
        "\""
      ],
      [
        "Ġ",
        "2"
      ],
      [
        "an",
        "s"
      ],
      [
        "res",
        "s"
      ],
      [
        "Ġ",
        "out"
      ],
      [
        "a",
        "ce"
      ],
      [
        "Ġb",
        "ut"
      ],
      [
        "Ġl",
        "i"
      ],
      [
        "on",
        "g"
      ],
      [
        "Ġm",
        "an"
      ],
      [
        "it",
        "e"
      ],
      [
        "ĠTh",
        "is"
      ],
      [
        "Ġs",
        "p"
      ],
      [
        "Ġn",
        "ot"
      ],
      [
        "Ġu",
        "p"
      ],
      [
        "Ġ",
        "O"
      ],
      [
        "i",
        "re"
      ],
      [
        "Ġw",
        "he"
      ],
      [
        "al",
        "ly"
      ],
      [
        "Ġs",
        "he"
      ],
      [
        "Ġa",
        "r"
      ],
      [
        "Ġs",
        "pe"
      ],
      [
        "ct",
        "ion"
      ],
      [
        "Ġinc",
        "lud"
      ],
      [
        "Ġsu",
        "ch"
      ],
      [
        "Ġ",
        "N"
      ],
      [
        "n",
        "e"
      ],
      [
        "Ġ",
        "U"
      ],
      [
        "ar",
        "k"
      ],
      [
        "i",
        "le"
      ],
      [
        "or",
        "s"
      ],
      [
        "Ġs",
        "c"
      ],
      [
        "f",
        "ul"
      ],
      [
        "Ġe",
        "v"
      ],
      [
        "Ġre",
        "c"
      ],
      [
        "i",
        "b"
      ],
      [
        "a",
        "k"
      ],
      [
        "Ġwh",
        "ich"
      ],
      [
        "Ġus",
        "e"
      ],
      [
        "g",
        "et"
      ],
      [
        "ĠI",
        "n"
      ],
      [
        "Ġd",
        "es"
      ],
      [
        "Ġo",
        "ver"
      ],
      [
        "i",
        "a"
      ],
      [
        "f",
        "ere"
      ],
      [
        "Ġ",
        "-"
      ],
      [
        "ĠĠ",
        "Ġ"
      ],
      [
        "Ġan",
        "y"
      ],
      [
        "Ġcom",
        "m"
      ],
      [
        "on",
        "e"
      ],
      [
        "at",
        "er"
      ],
      [
        "a",
        "p"
      ],
      [
        "Ġs",
        "o"
      ],
      [
        "Ġm",
        "y"
      ],
      [
        "al",
        "s"
      ],
      [
        "Ġ",
        "qu"
      ],
      [
        "Ġ",
        "ro"
      ],
      [
        "Ġ",
        "J"
      ],
      [
        "rou",
        "gh"
      ],
      [
        "Ġh",
        "is"
      ],
      [
        "Ġwh",
        "o"
      ],
      [
        "l",
        "es"
      ],
      [
        "or",
        "y"
      ],
      [
        "u",
        "e"
      ],
      [
        "ou",
        "nd"
      ],
      [
        "an",
        "g"
      ],
      [
        "Ġp",
        "e"
      ],
      [
        "Ġc",
        "re"
      ],
      [
        "Ġa",
        "cc"
      ],
      [
        "am",
        "e"
      ],
      [
        "Ġne",
        "w"
      ],
      [
        "o",
        "ve"
      ],
      [
        "Ġd",
        "if"
      ],
      [
        "it",
        "ies"
      ],
      [
        "ĠI",
        "t"
      ],
      [
        "ing",
        "s"
      ],
      [
        "Ġli",
        "ke"
      ],
      [
        "ra",
        "m"
      ],
      [
        "Ġof",
        "f"
      ],
      [
        "Ġin",
        "d"
      ],
      [
        "Ġe",
        "ff"
      ],
      [
        "er",
        "v"
      ],
      [
        "Ġwor",
        "k"
      ],
      [
        "Ġt",
        "ime"
      ],
      [
        "Ġex",
        "am"
      ],
      [
        "Ġprov",
        "ide"
      ],
      [
        "Ġc",
        "ol"
      ],
      [
        "Ġp",
        "er"
      ],
      [
        "Ġp",
        "re"
      ],
      [
        "i",
        "ence"
      ],
      [
        "Ġex",
        "per"
      ],
      [
        "Ġint",
        "o"
      ],
      [
        "Ġf",
        "l"
      ],
      [
        "ment",
        "s"
      ],
      [
        "Ġpro",
        "du"
      ],
      [
        "or",
        "d"
      ],
      [
        "ou",
        "nt"
      ],
      [
        "ar",
        "y"
      ],
      [
        "Ġm",
        "ake"
      ],
      [
        "il",
        "d"
      ],
      [
        "oo",
        "k"
      ],
      [
        "al",
        "th"
      ],
      [
        "Ġit",
        "s"
      ],
      [
        "ay",
        "s"
      ],
      [
        "Ġw",
        "ere"
      ],
      [
        "Ġc",
        "ould"
      ],
      [
        "âĢ",
        "Ļ"
      ],
      [
        "b",
        "s"
      ],
      [
        "l",
        "ic"
      ],
      [
        "ch",
        "n"
      ],
      [
        "Ġg",
        "o"
      ],
      [
        "pp",
        "ort"
      ],
      [
        "r",
        "ic"
      ],
      [
        "e",
        "ar"
      ],
      [
        "o",
        "y"
      ],
      [
        "n",
        "ow"
      ],
      [
        "Ġp",
        "art"
      ],
      [
        "Ġspe",
        "c"
      ],
      [
        "Ġth",
        "rough"
      ],
      [
        "b",
        "er"
      ],
      [
        "ver",
        "y"
      ],
      [
        "ure",
        "s"
      ],
      [
        "ra",
        "ct"
      ],
      [
        "Ġd",
        "o"
      ],
      [
        "x",
        "t"
      ],
      [
        "rou",
        "nd"
      ],
      [
        "Ġs",
        "a"
      ],
      [
        "Ġs",
        "y"
      ],
      [
        "Ġm",
        "ed"
      ],
      [
        "i",
        "ous"
      ],
      [
        "vel",
        "op"
      ],
      [
        "Ġt",
        "r"
      ],
      [
        "en",
        "s"
      ],
      [
        "ust",
        "om"
      ],
      [
        "g",
        "g"
      ],
      [
        "Ġthe",
        "se"
      ],
      [
        "a",
        "king"
      ],
      [
        "Ġte",
        "chn"
      ],
      [
        "Ġin",
        "form"
      ],
      [
        "er",
        "t"
      ],
      [
        "Ġ",
        "our"
      ],
      [
        "Ġdif",
        "fere"
      ],
      [
        "er",
        "g"
      ],
      [
        "in",
        "t"
      ],
      [
        "Ġne",
        "ed"
      ],
      [
        "Ġ",
        "Y"
      ],
      [
        "ro",
        "w"
      ],
      [
        "n",
        "ess"
      ],
      [
        "Ġd",
        "et"
      ],
      [
        "Ġst",
        "r"
      ],
      [
        "Ġhe",
        "alth"
      ],
      [
        "il",
        "ity"
      ],
      [
        "Ġre",
        "l"
      ],
      [
        "Ġpro",
        "g"
      ],
      [
        "c",
        "k"
      ],
      [
        "Ġ",
        "čĊ"
      ],
      [
        "re",
        "e"
      ],
      [
        "at",
        "ing"
      ],
      [
        "el",
        "y"
      ],
      [
        "ic",
        "k"
      ],
      [
        "Ġw",
        "ould"
      ],
      [
        "l",
        "l"
      ],
      [
        "p",
        "le"
      ],
      [
        "ic",
        "es"
      ],
      [
        "n",
        "ing"
      ],
      [
        "iz",
        "e"
      ],
      [
        "Ġbe",
        "en"
      ],
      [
        "Ġs",
        "m"
      ],
      [
        "Ġon",
        "e"
      ],
      [
        "ol",
        "og"
      ],
      [
        "Ġp",
        "ers"
      ],
      [
        "if",
        "e"
      ],
      [
        "Ġc",
        "ustom"
      ],
      [
        "ĠS",
        "t"
      ],
      [
        "o",
        "v"
      ],
      [
        "g",
        "an"
      ],
      [
        "Ġs",
        "oc"
      ],
      [
        "Ġde",
        "velop"
      ],
      [
        "w",
        "e"
      ],
      [
        "nd",
        "er"
      ],
      [
        "l",
        "ow"
      ],
      [
        "re",
        "d"
      ],
      [
[...]
