{
  "version": "1.0",
  "truncation": null,
  "padding": null,
  "added_tokens": [
    {
      "id": 0,
      "content": "<|unk|>",
      "single_word": false,
      "lstrip": false,
      "rstrip": false,
      "normalized": false,
      "special": true
    },
    {
      "id": 1,
      "content": "<|pad|>",
      "single_word": false,
      "lstrip": false,
      "rstrip": false,
      "normalized": false,
      "special": true
    },
    {
      "id": 2,
      "content": "<|user|>",
      "single_word": false,
      "lstrip": false,
      "rstrip": false,
      "normalized": false,
      "special": true
    },
    {
      "id": 3,
      "content": "<|assistant|>",
      "single_word": false,
      "lstrip": false,
      "rstrip": false,
      "normalized": false,
      "special": true
    },
    {
      "id": 4,
      "content": "<|end|>",
      "single_word": false,
      "lstrip": false,
      "rstrip": false,
      "normalized": false,
      "special": true
    }
  ],
  "normalizer": null,
  "pre_tokenizer": {
    "type": "ByteLevel",
    "add_prefix_space": false,
    "trim_offsets": true,
    "use_regex": true
  },
  "post_processor": null,
  "decoder": {
    "type": "ByteLevel",
    "add_prefix_space": true,
    "trim_offsets": true,
    "use_regex": true
  },
  "model": {
    "type": "BPE",
    "dropout": null,
    "unk_token": "<|unk|>",
    "continuing_subword_prefix": null,
    "end_of_word_suffix": null,
    "fuse_unk": false,
    "byte_fallback": false,
    "ignore_merges": false,
    "vocab": {
      "<|unk|>": 0,
      "<|pad|>": 1,
      "<|user|>": 2,
      "<|assistant|>": 3,
      "<|end|>": 4,
      "!": 5,
      "\"": 6,
      "#": 7,
      "$": 8,
      "%": 9,
      "&": 10,
      "'": 11,
      "(": 12,
      ")": 13,
      "*": 14,
      "+": 15,
      ",": 16,
      "-": 17,
      ".": 18,
      "/": 19,
      "0": 20,
      "1": 21,
      "2": 22,
      "3": 23,
      "4": 24,
      "5": 25,
      "6": 26,
      "7": 27,
      "8": 28,
      "9": 29,
      ":": 30,
      ";": 31,
      "<": 32,
      "=": 33,
      ">": 34,
      "?": 35,
      "@": 36,
      "A": 37,
      "B": 38,
      "C": 39,
      "D": 40,
      "E": 41,
      "F": 42,
      "G": 43,
      "H": 44,
      "I": 45,
      "J": 46,
      "K": 47,
      "L": 48,
      "M": 49,
      "N": 50,
      "O": 51,
      "P": 52,
      "Q": 53,
      "R": 54,
      "S": 55,
      "T": 56,
      "U": 57,
      "V": 58,
      "W": 59,
      "X": 60,
      "Y": 61,
      "Z": 62,
      "[": 63,
      "\\": 64,
      "]": 65,
      "^": 66,
      "_": 67,
      "`": 68,
      "a": 69,
      "b": 70,
      "c": 71,
      "d": 72,
      "e": 73,
      "f": 74,
      "g": 75,
      "h": 76,
      "i": 77,
      "j": 78,
      "k": 79,
      "l": 80,
      "m": 81,
      "n": 82,
      "o": 83,
      "p": 84,
      "q": 85,
      "r": 86,
      "s": 87,
      "t": 88,
      "u": 89,
      "v": 90,
      "w": 91,
      "x": 92,
      "y": 93,
      "z": 94,
      "{": 95,
      "|": 96,
      "}": 97,
      "~": 98,
      "¡": 99,
      "¢": 100,
      "£": 101,
      "¤": 102,
      "¥": 103,
      "¦": 104,
      "§": 105,
      "¨": 106,
      "©": 107,
      "ª": 108,
      "«": 109,
      "¬": 110,
      "®": 111,
      "¯": 112,
      "°": 113,
      "±": 114,
      "²": 115,
      "³": 116,
      "´": 117,
      "µ": 118,
      "¶": 119,
      "·": 120,
      "¸": 121,
      "¹": 122,
      "º": 123,
      "»": 124,
      "¼": 125,
      "½": 126,
      "¾": 127,
      "¿": 128,
      "Â": 129,
      "Ã": 130,
      "Ä": 131,
      "Å": 132,
      "Æ": 133,
      "Ç": 134,
      "È": 135,
      "É": 136,
      "Ê": 137,
      "Ë": 138,
      "Ì": 139,
      "Í": 140,
      "Î": 141,
      "Ï": 142,
      "Ð": 143,
      "Ñ": 144,
      "Ò": 145,
      "Ô": 146,
      "Õ": 147,
      "Ö": 148,
      "×": 149,
      "Ø": 150,
      "Ù": 151,
      "Ú": 152,
      "Û": 153,
      "ß": 154,
      "à": 155,
      "á": 156,
      "â": 157,
      "ã": 158,
      "ä": 159,
      "å": 160,
      "æ": 161,
      "ç": 162,
      "è": 163,
      "é": 164,
      "ê": 165,
      "ë": 166,
      "ì": 167,
      "í": 168,
      "ï": 169,
      "ð": 170,
      "Ā": 171,
      "ă": 172,
      "ĉ": 173,
      "Ċ": 174,
      "đ": 175,
      "ę": 176,
      "ě": 177,
      "Ġ": 178,
      "Ģ": 179,
      "ģ": 180,
      "Ĥ": 181,
      "ĥ": 182,
      "Ħ": 183,
      "ħ": 184,
      "Ĩ": 185,
      "ĩ": 186,
      "Ī": 187,
      "ī": 188,
      "Ĭ": 189,
      "ĭ": 190,
      "Į": 191,
      "į": 192,
      "İ": 193,
      "ı": 194,
      "Ĳ": 195,
      "ĳ": 196,
      "Ĵ": 197,
      "ĵ": 198,
      "Ķ": 199,
      "ķ": 200,
      "ĸ": 201,
      "Ĺ": 202,
      "ĺ": 203,
      "Ļ": 204,
      "ļ": 205,
      "Ľ": 206,
      "ľ": 207,
      "Ŀ": 208,
      "ŀ": 209,
      "Ł": 210,
      "ł": 211,
      "Ń": 212,
      "Ġt": 213,
      "Ġa": 214,
      "in": 215,
      "he": 216,
      "re": 217,
      "Ġs": 218,
      "on": 219,
      "Ġthe": 220,
      "er": 221,
      "nd": 222,
      "at": 223,
      "Ġc": 224,
      "or": 225,
      "es": 226,
      "en": 227,
      "Ġw": 228,
      "ou": 229,
      "ing": 230,
      "it": 231,
      "Ġp": 232,
      "Ġand": 233,
      "an": 234,
      "Ġf": 235,
      "Ġo": 236,
      "al": 237,
      "is": 238,
      "Ġm": 239,
      "Ġto": 240,
      "Ġb": 241,
      "ed": 242,
      "Ġin": 243,
      "ar": 244,
      "ion": 245,
      "Ġof": 246,
      "ic": 247,
      "Ġd": 248,
      "as": 249,
      "le": 250,
      "ro": 251,
      "Ġh": 252,
      "us": 253,
      "Ġe": 254,
      "ent": 255,
      "Ġth": 256,
      "om": 257,
      "ve": 258,
      "Ġre": 259,
      "ct": 260,
      "il": 261,
      "Ġl": 262,
      "Ġy": 263,
      "et": 264,
      "Ġg": 265,
      "Ġyou": 266,
      "im": 267,
      "ra": 268,
      "ĠT": 269,
      "id": 270,
      "ow": 271,
      "Ġn": 272,
      "ce": 273,
      "ch": 274,
      "Ġfor": 275,
      "ation": 276,
      "el": 277,
      "ĠĠ": 278,
      "Ġst": 279,
      "Ġhe": 280,
      "ol": 281,
      "Ġthat": 282,
      "st": 283,
      "ig": 284,
      "Ġon": 285,
      "ith": 286,
      "Ġpro": 287,
      "ers": 288,
      "ly": 289,
      "ir": 290,
      "Ġbe": 291,
      "ut": 292,
      "ot": 293,
      "ĠI": 294,
      "Ġwith": 295,
      "am": 296,
      "Ġis": 297,
      "ad": 298,
      "ur": 299,
      "if": 300,
      "ay": 301,
      "ist": 302,
      "ul": 303,
      "ant": 304,
      "|>": 305,
      "<|": 306,
      "ĠS": 307,
      "ess": 308,
      "ver": 309,
      "se": 310,
      "un": 311,
      "Ġor": 312,
      "ĠA": 313,
      "Ġcan": 314,
      "Ġex": 315,
      "ure": 316,
      "Ġcon": 317,
      "ate": 318,
      "ĠC": 319,
      "Ġit": 320,
      "Ġas": 321,
      "ag": 322,
      "Ġal": 323,
      "Ġan": 324,
      "ment": 325,
      "ore": 326,
      "ke": 327,
      "ĠThe": 328,
      "pp": 329,
      "ab": 330,
      "Ġare": 331,
      "Ġsu": 332,
      "Ġcom": 333,
      "out": 334,
      "ive": 335,
      "Ġus": 336,
      "Ġwh": 337,
      "ies": 338,
      "ere": 339,
      "ld": 340,
      "Ġv": 341,
      "oo": 342,
      "ity": 343,
      "her": 344,
      "iv": 345,
      "pe": 346,
      "'s": 347,
      "Ġyour": 348,
      "ass": 349,
      "ter": 350,
      "Ġde": 351,
      "Ġch": 352,
      "ac": 353,
      "qu": 354,
      "ill": 355,
      "oc": 356,
      "ort": 357,
      "Ġha": 358,
      "est": 359,
      "ud": 360,
      "Ġen": 361,
      "Ġtheir": 362,
      "ain": 363,
      "igh": 364,
      "our": 365,
      "ust": 366,
      "em": 367,
      "Ġne": 368,
      "Ġse": 369,
      "ĠM": 370,
      "ĠH": 371,
      "Ġwas": 372,
      "ial": 373,
      "ome": 374,
      "th": 375,
      "op": 376,
      "Ġad": 377,
      "Ġsh": 378,
      "Ġim": 379,
      "Ġle": 380,
      "ect": 381,
      "ri": 382,
      "ĠP": 383,
      "ĠB": 384,
      "ould": 385,
      "ide": 386,
      "iz": 387,
      "ions": 388,
      "all": 389,
      "res": 390,
      "um": 391,
      "rou": 392,
      "pl": 393,
      "nt": 394,
      "Ġmore": 395,
      "Ġr": 396,
      "art": 397,
      "Ġwor": 398,
      "Ġab": 399,
      "os": 400,
      "Ġinc": 401,
      "istant": 402,
      "ĠĠĠĠ": 403,
      "rom": 404,
      "pt": 405,
      "Ġpl": 406,
      "Ġte": 407,
      "du": 408,
      "age": 409,
      "user": 410,
      "per": 411,
      "assistant": 412,
      "Ġhave": 413,
      "ight": 414,
      "king": 415,
      "Ġimp": 416,
      "ff": 417,
      "Ġint": 418,
      "and": 419,
      "act": 420,
      "Ġby": 421,
      "Ġat": 422,
      "ĠW": 423,
      "Ġwe": 424,
      "Ġher": 425,
      "Ġu": 426,
      "Ġfe": 427,
      "are": 428,
      "end": 429,
      "od": 430,
      "ip": 431,
      "gh": 432,
      "Ġfrom": 433,
      "ĠF": 434,
      "orm": 435,
      "ĠD": 436,
      "ĠE": 437,
      "Ġme": 438,
      "ake": 439,
      "ge": 440,
      "able": 441,
      "ĠR": 442,
      "reat": 443,
      "ine": 444,
      "ast": 445,
      "og": 446,
      "Ġhel": 447,
      "ign": 448,
      "ie": 449,
      "Ġcomp": 450,
      "Ġhelp": 451,
      "ther": 452,
      "cc": 453,
      "Ġthey": 454,
      "Ġsome": 455,
      "ations": 456,
      "âĢ": 457,
      "form": 458,
      "ance": 459,
      "ind": 460,
      "ell": 461,
      "ru": 462,
      "Ġ1": 463,
      "Ġcont": 464,
      "ks": 465,
      "ard": 466,
      "Ġprov": 467,
      "so": 468,
      "ry": 469,
      "Ġj": 470,
      "ach": 471,
      "his": 472,
      "ĠL": 473,
      "Ġun": 474,
      "ence": 475,
      "ical": 476,
      "ult": 477,
      "ost": 478,
      "ail": 479,
      "Ġhas": 480,
      "Ġk": 481,
      "Ġadd": 482,
      "vel": 483,
      "Ġhow": 484,
      "av": 485,
      "Ġres": 486,
      "ep": 487,
      "ous": 488,
      "Ġabout": 489,
      "ack": 490,
      "Ġcl": 491,
      "The": 492,
      "ice": 493,
      "Ġthem": 494,
      "Ġalso": 495,
      "ĠG": 496,
      "Ġhad": 497,
      "ition": 498,
      "Ġall": 499,
      "Ġtra": 500,
      "ich": 501,
      "Ġapp": 502,
      "Ġother": 503,
      "ase": 504,
      "Ġ(": 505,
      "Ġdis": 506,
      "ces": 507,
      "ood": 508,
      "Ġwill": 509,
      "ents": 510,
      "Ġem": 511,
      "ific": 512,
      "Ġthis": 513,
      "lud": 514,
      "ated": 515,
      "ime": 516,
      "Ġ\"": 517,
      "Ġ2": 518,
      "ans": 519,
      "Ġbut": 520,
      "Ġout": 521,
      "ress": 522,
      "ace": 523,
      "Ġli": 524,
      "ong": 525,
      "Ġsp": 526,
      "Ġshe": 527,
      "ĠThis": 528,
      "ite": 529,
      "Ġnot": 530,
      "ĠO": 531,
      "Ġman": 532,
      "Ġup": 533,
      "ire": 534,
      "Ġwhe": 535,
      "ĠN": 536,
      "Ġar": 537,
      "Ġinclud": 538,
      "ally": 539,
      "Ġspe": 540,
      "ction": 541,
      "Ġsuch": 542,
      "ne": 543,
      "ile": 544,
      "ĠU": 545,
      "ark": 546,
      "ors": 547,
      "Ġev": 548,
      "Ġsc": 549,
      "Ġrec": 550,
      "ful": 551,
      "ib": 552,
      "Ġwhich": 553,
      "Ġuse": 554,
      "ĠIn": 555,
      "ak": 556,
      "get": 557,
      "Ġcomm": 558,
      "ia": 559,
      "Ġover": 560,
      "fere": 561,
      "Ġdes": 562,
      "Ġ-": 563,
      "Ġany": 564,
      "ap": 565,
      "one": 566,
      "ater": 567,
      "Ġso": 568,
      "ĠĠĠ": 569,
      "rough": 570,
      "Ġro": 571,
      "Ġmy": 572,
      "als": 573,
      "Ġqu": 574,
      "ĠJ": 575,
      "Ġhis": 576,
      "ang": 577,
      "ue": 578,
      "Ġwho": 579,
      "les": 580,
      "ory": 581,
      "ities": 582,
      "Ġpe": 583,
      "Ġnew": 584,
      "ound": 585,
      "ame": 586,
      "ove": 587,
      "Ġacc": 588,
      "Ġcre": 589,
      "ram": 590,
      "ings": 591,
      "Ġdif": 592,
      "ĠIt": 593,
      "Ġoff": 594,
      "Ġlike": 595,
      "Ġper": 596,
      "Ġwork": 597,
      "Ġtime": 598,
      "Ġeff": 599,
      "erv": 600,
      "Ġcol": 601,
      "Ġprovide": 602,
      "Ġind": 603,
      "Ġexam": 604,
      "Ġpre": 605,
      "ience": 606,
      "Ġexper": 607,
      "Ġinto": 608,
      "ild": 609,
      "Ġfl": 610,
      "ord": 611,
      "ments": 612,
      "ary": 613,
      "Ġmake": 614,
      "ount": 615,
      "âĢĻ": 616,
      "ook": 617,
      "Ġits": 618,
      "Ġprodu": 619,
      "alth": 620,
      "ays": 621,
      "Ġcould": 622,
      "Ġwere": 623,
      "lic": 624,
      "bs": 625,
      "Ġgo": 626,
      "chn": 627,
      "ear": 628,
      "pport": 629,
      "Ġpart": 630,
      "now": 631,
      "Ġthrough": 632,
      "oy": 633,
      "ric": 634,
      "ures": 635,
      "very": 636,
      "ber": 637,
      "Ġspec": 638,
      "Ġdo": 639,
      "ract": 640,
      "Ġsa": 641,
      "velop": 642,
      "round": 643,
      "ious": 644,
      "Ġmed": 645,
      "Ġsy": 646,
      "xt": 647,
      "Ġtr": 648,
      "ens": 649,
      "gg": 650,
      "Ġthese": 651,
      "aking": 652,
      "ustom": 653,
      "ert": 654,
      "Ġinform": 655,
      "Ġtechn": 656,
      "Ġdiffere": 657,
      "Ġour": 658,
      "row": 659,
      "ĠY": 660,
      "Ġneed": 661,
      "ility": 662,
      "erg": 663,
      "int": 664,
      "ick": 665,
      "ĠĊ": 666,
      "ree": 667,
      "Ġstr": 668,
      "Ġprog": 669,
      "Ġhealth": 670,
      "ness": 671,
      "ating": 672,
      "ck": 673,
      "Ġdet": 674,
      "Ġwould": 675,
      "ely": 676,
      "Ġsm": 677,
      "Ġrel": 678,
      "ning": 679,
      "ize": 680,
      "Ġone": 681,
      "ices": 682,
      "ple": 683,
      "Ġpers": 684,
      "Ġbeen": 685,
      "ll": 686,
      "olog": 687,
      "ife": 688,
      "ĠSt": 689,
      "ov": 690,
      "Ġcustom": 691,
      "Ġsoc": 692,
      "low": 693,
      "Ġdevelop": 694,
      "gan": 695,
      "nder": 696,
      "red": 697,
      "we": 698,
      "Ġif": 699,
      "elf": 700,
      "Ġthere": 701,
      "Ġcommun": 702,
      "Ġused": 703,
      "uring": 704,
      "ular": 705,
      "ons": 706,
      "Ġinv": 707,
      "Ġinformation": 708,
      "arket": 709,
      "ased": 710,
      "ject": 711,
      "ns": 712,
      "ub": 713,
      "Ġknow": 714,
      "Ġstud": 715,
      "Ġdifferent": 716,
      "ips": 717,
      "iqu": 718,
      "te": 719,
      "'t": 720,
      "Ġcreat": 721,
      "ob": 722,
      "ef": 723,
      "ond": 724,
      "cess": 725,
      "ade": 726,
      "rit": 727,
      "Ġinter": 728,
      "Ġbet": 729,
      "Ġcons": 730,
      "Ġ3": 731,
      "ose": 732,
      "Ġcreate": 733,
      "ower": 734,
      "Ġusing": 735,
      "Ġshould": 736,
      "ish": 737,
      "ange": 738,
      "ph": 739,
      "ative": 740,
      "ual": 741,
      "Ġco": 742,
      "00": 743,
      "Ġke": 744,
      "Ġeach": 745,
      "ily": 746,
      "Ġserv": 747,
      "ting": 748,
      "its": 749,
      "enc": 750,
      "ates": 751,
      "Ġwell": 752,
      "lect": 753,
      "Ġsk": 754,
      "ient": 755,
      "Ġam": 756,
      "Ġmay": 757,
      "ough": 758,
      "ft": 759,
      "Ġsign": 760,
      "Ġact": 761,
      "Ġproduct": 762,
      "oth": 763,
      "stem": 764,
      "In": 765,
      "Ġimpro": 766,
      "iness": 767,
      "Ġprogram": 768,
      "Ġhigh": 769,
      "ized": 770,
      "Ġgreat": 771,
      "Ġart": 772,
      "Ġbu": 773,
      "Can": 774,
      "ĠCh": 775,
      "ĠAd": 776,
      "ata": 777,
      "Ġpos": 778,
      "ĠK": 779,
      "Ġperson": 780,
      "ise": 781,
      "Ġwhat": 782,
      "ples": 783,
      "ĠThey": 784,
      "ential": 785,
      "Ġbl": 786,
      "ics": 787,
      "Ġredu": 788,
      "Ġwhen": 789,
      "Ġph": 790,
      "iet": 791,
      "Ġsocial": 792,
      "dition": 793,
      "Ġeffect": 794,
      "Ġmarket": 795,
      "Ġinst": 796,
      "Ġloc": 797,
      "Ġway": 798,
      "old": 799,
      "Ġprovid": 800,
      "ĠV": 801,
      "ural": 802,
      "ys": 803,
      "arch": 804,
      "Ġvar": 805,
      "Ġag": 806,
      "Ġdesign": 807,
      "Ġlear": 808,
      "ople": 809,
      "Ġworld": 810,
      "Ġimpact": 811,
      "Ġlife": 812,
      "hes": 813,
      "Ġsupport": 814,
      "hed": 815,
      "Ġatt": 816,
      "Ġbec": 817,
      "Ġpo": 818,
      "Ġfeel": 819,
      "Ġrem": 820,
      "Ġopt": 821,
      "eng": 822,
      "Ġmus": 823,
      "anc": 824,
      "ergy": 825,
      "wn": 826,
      "Ġbus": 827,
      "port": 828,
      "Ġunder": 829,
      "ĠHere": 830,
      "own": 831,
      "Ġvis": 832,
      "Ġeng": 833,
      "up": 834,
      "Ġtrans": 835,
      "Ġpeople": 836,
      "Ġincluding": 837,
      "Ġreg": 838,
      "Ġset": 839,
      "Ġsystem": 840,
      "omm": 841,
      "Ġlead": 842,
      "Ġ=": 843,
      "ĠShe": 844,
      "Ġpr": 845,
      "ality": 846,
      "Ġra": 847,
      "Ġfind": 848,
      "eth": 849,
      "Ġche": 850,
      "ren": 851,
      "Ġspecific": 852,
      "ts": 853,
      "Ġmin": 854,
      "rib": 855,
      "Ġexamples": 856,
      "pect": 857,
      "Ġve": 858,
      "ĠHe": 859,
      "Ġenergy": 860,
      "Ġback": 861,
      "Ġdata": 862,
      "ible": 863,
      "ature": 864,
      "Ġsur": 865,
      "ener": 866,
      "riend": 867,
      "Ġexpl": 868,
      "Ġdec": 869,
      "Ġprom": 870,
      "Ġevery": 871,
      "ĠĠĠĠĠĠĠ": 872,
      "ian": 873,
      "Ġbusiness": 874,
      "Ġpot": 875,
      "Ġwhile": 876,
      "Ġpract": 877,
      "Ġincre": 878,
      "ĠCan": 879,
      "Ġstart": 880,
      "Ġplay": 881,
      "Ġwhere": 882,
      "Ġjust": 883,
      "Ġins": 884,
      "fore": 885,
      "Ġwater": 886,
      "ruct": 887,
      "ues": 888,
      "Ġmany": 889,
      "Ġdetail": 890,
      "Ġchar": 891,
      "Ġthan": 892,
      "Ġmade": 893,
      "ten": 894,
      "ms": 895,
      "ology": 896,
      "ives": 897,
      "Ġca": 898,
      "ward": 899,
      "Ġchall": 900,
      "Ġval": 901,
      "hat": 902,
      "uc": 903,
      "Ġinf": 904,
      "Ġsignific": 905,
      "ink": 906,
      "led": 907,
      "iew": 908,
      "any": 909,
      "Ġgu": 910,
      "Ġav": 911,
      "ivid": 912,
      "Ġfam": 913,
      "Ġfun": 914,
      "Ġsee": 915,
      "Ġallow": 916,
      "Ġexperience": 917,
      "Ġsal": 918,
      "ertain": 919,
      "Ġget": 920,
      "ident": 921,
      "Ġpat": 922,
      "``": 923,
      "Ġadv": 924,
      "Ġmost": 925,
      "ense": 926,
      "ĠYou": 927,
      "Ġcult": 928,
      "put": 929,
      "Ġyear": 930,
      "Ġmedia": 931,
      "urn": 932,
      "iss": 933,
      "irst": 934,
      "Ġprocess": 935,
      "Ġbr": 936,
      "lement": 937,
      "ional": 938,
      "ollow": 939,
      "ever": 940,
      "ique": 941,
      "Ġcle": 942,
      "Ġdisc": 943,
      "Ġteam": 944,
      "Ġeven": 945,
      "Ġfew": 946,
      "ccess": 947,
      "Ġty": 948,
      "ars": 949,
      "eg": 950,
      "Ġmod": 951,
      "rand": 952,
      "Ġ4": 953,
      "Ġac": 954,
      "new": 955,
      "Ġsec": 956,
      "Ġlong": 957,
      "Ġinclude": 958,
      "ines": 959,
      "Ġimprove": 960,
      "Ġment": 961,
      "Ġens": 962,
      "ources": 963,
      "ĠHow": 964,
      "amp": 965,
      "Ġfin": 966,
      "Ġnum": 967,
      "line": 968,
      "ĠUse": 969,
      "Ġass": 970,
      "Ġpol": 971,
      "Ġpower": 972,
      "Ġno": 973,
      "ocus": 974,
      "Ġeas": 975,
      "olut": 976,
      "stand": 977,
      "itive": 978,
      "Ġduring": 979,
      "Ġreal": 980,
      "Ġwant": 981,
      "Ġ5": 982,
      "Ġhand": 983,
      "ages": 984,
      "Ġown": 985,
      "Ġ20": 986,
      "Ġfound": 987,
      "Ġsmall": 988,
      "ĠâĢ": 989,
      "iron": 990,
      "Ġaccess": 991,
      "arm": 992,
      "Ġrequ": 993,
      "Ġtw": 994,
      "Ġimport": 995,
      "Ġbefore": 996,
      "ix": 997,
      "Ġsignificant": 998,
      "ients": 999,
      "Ġexample": 1000,
      "Ġgrow": 1001,
      "ax": 1002,
      "ateg": 1003,
      "Ġret": 1004,
      "ered": 1005,
      "Ġfollow": 1006,
      "Ġcar": 1007,
      "Ġed": 1008,
      "con": 1009,
      "Ġtake": 1010,
      "Ġorgan": 1011,
      "Ġbuild": 1012,
      "Ġmem": 1013,
      "roup": 1014,
      "Ġexp": 1015,
      "ĠAs": 1016,
      "ĠWe": 1017,
      "Ġsuccess": 1018,
      "Ġbre": 1019,
      "Ġaut": 1020,
      "ify": 1021,
      "Ġaround": 1022,
      "ĠFor": 1023,
      "Ġsim": 1024,
      "iety": 1025,
      "Ġshow": 1026,
      "Ġplan": 1027,
      "Ġuser": 1028,
      "Ġform": 1029,
      "Ġcur": 1030,
      "ational": 1031,
      "Ġpersonal": 1032,
      "fter": 1033,
      "Ġfood": 1034,
      "Ġref": 1035,
      "use": 1036,
      "Ġread": 1037,
      "Ġent": 1038,
      "other": 1039,
      "Ġcomple": 1040,
      "viron": 1041,
      "Ġgl": 1042,
      "Ġben": 1043,
      "erest": 1044,
      "Ġindust": 1045,
      "ling": 1046,
      "ved": 1047,
      "Ġchalleng": 1048,
      "Ġfocus": 1049,
      "Sure": 1050,
      "Ġperform": 1051,
      "Ġtext": 1052,
      "ware": 1053,
      "wor": 1054,
      "ween": 1055,
      "Ġhim": 1056,
      "Ġfirst": 1057,
      "ggest": 1058,
      "ict": 1059,
      "ec": 1060,
      "til": 1061,
      "Ġday": 1062,
      "Ġoffer": 1063,
      "Ġproject": 1064,
      "hip": 1065,
      "self": 1066,
      "agement": 1067,
      "Ġbetween": 1068,
      "Ġpromot": 1069,
      "Ġlist": 1070,
      "ner": 1071,
      "Ġsuggest": 1072,
      "lease": 1073,
      "Ġgr": 1074,
      "por": 1075,
      "Ġdel": 1076,
      "Ġenviron": 1077,
      "Ġend": 1078,
      "Ġmaking": 1079,
      "ols": 1080,
      "Ġgroup": 1081,
      "Ġess": 1082,
      "ining": 1083,
      "Ġide": 1084,
      "Ġcontent": 1085,
      "Ġcare": 1086,
      "Ġunderstand": 1087,
      "Ġindivid": 1088,
      "akes": 1089,
      "Ġinterest": 1090,
      "Ġmain": 1091,
      "Ġuntil": 1092,
      "Ġwebs": 1093,
      "Ġconc": 1094,
      "ven": 1095,
      "Ġdown": 1096,
      "ath": 1097,
      "Ġpres": 1098,
      "Ġmusic": 1099,
      "els": 1100,
      "Ġaud": 1101,
      "ills": 1102,
      "ble": 1103,
      "Ġ`": 1104,
      "Ġresp": 1105,
      "ins": 1106,
      "Ġactiv": 1107,
      "Ġstory": 1108,
      "Ġhere": 1109,
      "Ġgra": 1110,
      "ider": 1111,
      "Ġunique": 1112,
      "Ġbenef": 1113,
      "Ġpartic": 1114,
      "ving": 1115,
      "Ġgener": 1116,
      "Ġpop": 1117,
      "As": 1118,
      "ploy": 1119,
      "Ġanal": 1120,
      "Ġrese": 1121,
      "ways": 1122,
      "nect": 1123,
      "ries": 1124,
      "hen": 1125,
      "Ġcount": 1126,
      "aterial": 1127,
      "Ġfeat": 1128,
      "Ġtry": 1129,
      "ited": 1130,
      "ves": 1131,
      "Ġprof": 1132,
      "Ġtechnology": 1133,
      "ization": 1134,
      "Ġsound": 1135,
      "ants": 1136,
      "ont": 1137,
      "erm": 1138,
      "cho": 1139,
      "Ġpass": 1140,
      "ier": 1141,
      "Ġlearn": 1142,
      "ivers": 1143,
      "Ġtips": 1144,
      "Ġbel": 1145,
      "Ġlove": 1146,
      "Ġtoget": 1147,
      "Ġtogether": 1148,
      "Ġeffective": 1149,
      "ables": 1150,
      "Ġconf": 1151,
      "Ġappro": 1152,
      "ability": 1153,
      "Ġonly": 1154,
      "ooking": 1155,
      "aging": 1156,
      "ĠThese": 1157,
      "avor": 1158,
      "Ġkeep": 1159,
      "ied": 1160,
      "Ġlight": 1161,
      "Ġenc": 1162,
      "Ġstrateg": 1163,
      "Ġpur": 1164,
      "Ġaff": 1165,
      "Ġenvironment": 1166,
      "ced": 1167,
      "az": 1168,
      "Ġensure": 1169,
      "mer": 1170,
      "vent": 1171,
      "Ġcharact": 1172,
      "ash": 1173,
      "tern": 1174,
      "Ġthen": 1175,
      "Ġfriend": 1176,
      "Ġmarketing": 1177,
      "ribut": 1178,
      "Ġdevelopment": 1179,
      "Ġgood": 1180,
      "ences": 1181,
      "ty": 1182,
      "aut": 1183,
      "Ġcontin": 1184,
      "air": 1185,
      "Ġmaterial": 1186,
      "iving": 1187,
      "Ġsub": 1188,
      "Ġdr": 1189,
      "Ġpotential": 1190,
      "Ġcr": 1191,
      "ĠEn": 1192,
      "Ġboth": 1193,
      "Ġtop": 1194,
      "Ġaddition": 1195,
      "Ġlar": 1196,
      "Ġbest": 1197,
      "Ġresult": 1198,
      "Ġreduce": 1199,
      "ommend": 1200,
      "Ġsure": 1201,
      "Ġmon": 1202,
      "Ġident": 1203,
      "ĠPro": 1204,
      "ĠHowever": 1205,
      "Ġext": 1206,
      "Ġbeing": 1207,
      "ted": 1208,
      "ss": 1209,
      "Ġtoo": 1210,
      "iven": 1211,
      "ript": 1212,
      "Ġlevel": 1213,
      "Ġoften": 1214,
      "lu": 1215,
      "atch": 1216,
      "ication": 1217,
      "__": 1218,
      "ather": 1219,
      "Ġstep": 1220,
      "Ġclass": 1221,
      "Ġob": 1222,
      "Ġwebsite": 1223,
      "Ġwrit": 1224,
      "nce": 1225,
      "Ġhist": 1226,
      ".\"": 1227,
      "Ġ$": 1228,
      "ock": 1229,
      "Ġhum": 1230,
      "Ġdist": 1231,
      "erc": 1232,
      "Ġrecommend": 1233,
      "Ġlet": 1234,
      "com": 1235,
      "der": 1236,
      "Ġemot": 1237,
      "Ġsom": 1238,
      "ertainly": 1239,
      "Ġtwo": 1240,
      "Ġ[": 1241,
      "bers": 1242,
      "Ġsense": 1243,
      "uals": 1244,
      "Ġcour": 1245,
      "Ġbrand": 1246,
      "Ġfamily": 1247,
      "Ġcustomer": 1248,
      "orpor": 1249,
      "Ġindustry": 1250,
      "ds": 1251,
      "Ġsty": 1252,
      "ĠAl": 1253,
      "Ġprot": 1254,
      "Ġthose": 1255,
      "ĠIf": 1256,
      "Ġgive": 1257,
      "io": 1258,
      "ode": 1259,
      "Ġcommunity": 1260,
      "Ġdetails": 1261,
      "ee": 1262,
      "reen": 1263,
      "ired": 1264,
      "Ġstudents": 1265,
      "ody": 1266,
      "ew": 1267,
      "ave": 1268,
      "angu": 1269,
      "Ġalways": 1270,
      "Ġusers": 1271,
      "Ġrest": 1272,
      "Ġcamp": 1273,
      "Ġear": 1274,
      "Ġlocal": 1275,
      "Ġconnect": 1276,
      "ah": 1277,
      "Ġmind": 1278,
      "Ġchild": 1279,
      "Ġresearch": 1280,
      "Ġfac": 1281,
      "ĠAn": 1282,
      "ĠĠĠĠĠĠĠĠ": 1283,
      "ency": 1284,
      "Ġcustomers": 1285,
      "ories": 1286,
      "Ġcost": 1287,
      "ustain": 1288,
      "Ġfeatures": 1289,
      "Ġpub": 1290,
      "Ġsever": 1291,
      "over": 1292,
      "Yes": 1293,
      "ists": 1294,
      "Ġplace": 1295,
      "oura": 1296,
      "Ġchallenges": 1297,
      "chie": 1298,
      "This": 1299,
      "uch": 1300,
      "Ġafter": 1301,
      "cept": 1302,
      "Ġinvol": 1303,
      "Ġcompany": 1304,
      "Ġexperi": 1305,
      "cing": 1306,
      "Ġtyp": 1307,
      "Ġproducts": 1308,
      "Ġhome": 1309,
      "ps": 1310,
      "Ġservices": 1311,
      "Ġ{": 1312,
      "und": 1313,
      "Ġminut": 1314,
      "atural": 1315,
      "atform": 1316,
      "Ġbetter": 1317,
      "Ġimplement": 1318,
      "Ġagain": 1319,
      "arget": 1320,
      "Certainly": 1321,
      "to": 1322,
      "Ġop": 1323,
      "pped": 1324,
      "abor": 1325,
      "elt": 1326,
      "Ġseveral": 1327,
      "Ġdon": 1328,
      "Ġcent": 1329,
      "Ġresources": 1330,
      "resh": 1331,
      "Ġshare": 1332,
      "br": 1333,
      "ets": 1334,
      "Ġfunction": 1335,
      "Ġlangu": 1336,
      "ason": 1337,
      "Ġvarious": 1338,
      "Ġkey": 1339,
      "light": 1340,
      "Ġchang": 1341,
      "tle": 1342,
      "Ġachie": 1343,
      "Ġsoft": 1344,
      "Ġinvest": 1345,
      "Ġbeh": 1346,
      "ined": 1347,
      "way": 1348,
      "ically": 1349,
      "Ġtradition": 1350,
      "Ġyears": 1351,
      "Ġthough": 1352,
      "Ġrelations": 1353,
      "ope": 1354,
      "read": 1355,
      "rite": 1356,
      "conom": 1357,
      "ital": 1358,
      "Ġeduc": 1359,
      "Ġmental": 1360,
      "verall": 1361,
      "Ġskills": 1362,
      "pportun": 1363,
      "Ġcup": 1364,
      "Ġdef": 1365,
      "Ġla": 1366,
      "be": 1367,
      "iel": 1368,
      "Ġplatform": 1369,
      "joy": 1370,
      "Ġemploy": 1371,
      "ead": 1372,
      "'m": 1373,
      "Ġdid": 1374,
      "Ġsustain": 1375,
      ");": 1376,
      "Ġaudience": 1377,
      "view": 1378,
      "ism": 1379,
      "ditionally": 1380,
      "ĠBy": 1381,
      "ream": 1382,
      "Ġopportun": 1383,
      "ething": 1384,
      "ĠBut": 1385,
      "Ġdem": 1386,
      "Ġnumber": 1387,
      "Ġimportant": 1388,
      "Ġrep": 1389,
      "Ġfil": 1390,
      "Ġser": 1391,
      "Ġoil": 1392,
      "Ġinflu": 1393,
      "Ġ201": 1394,
      "wards": 1395,
      "Ġmet": 1396,
      "Ġright": 1397,
      "lus": 1398,
      "Ġavail": 1399,
      "Ġcall": 1400,
      "Ġminutes": 1401,
      ").": 1402,
      "Ġself": 1403,
      "ex": 1404,
      "Ġveget": 1405,
      "Ġways": 1406,
      "Ġoptions": 1407,
      "less": 1408,
      "imes": 1409,
      "ery": 1410,
      "'re": 1411,
      "Ġlook": 1412,
      "pr": 1413,
      "ually": 1414,
      "Ġtarget": 1415,
      "ĠUn": 1416,
      "po": 1417,
      "tain": 1418,
      "day": 1419,
      "err": 1420,
      "Ġsomething": 1421,
      "han": 1422,
      "ross": 1423,
      "Ġclear": 1424,
      "Ġbenefits": 1425,
      "Ġstill": 1426,
      "Ġbo": 1427,
      "Ġbeaut": 1428,
      "Ġrange": 1429,
      "Ġtest": 1430,
      "Ġlearning": 1431,
      "Ġtre": 1432,
      "ĠEm": 1433,
      "ush": 1434,
      "cript": 1435,
      "pend": 1436,
      "Ġpain": 1437,
      "itions": 1438,
      "oh": 1439,
      "Ġiss": 1440,
      "Ġcontro": 1441,
      "Ġpast": 1442,
      "Ġcity": 1443,
      "ases": 1444,
      "Ġsum": 1445,
      "St": 1446,
      "Ġhapp": 1447,
      "Ġfact": 1448,
      "Ġsit": 1449,
      "Ġable": 1450,
      "Ġnatural": 1451,
      "work": 1452,
      "Ġphys": 1453,
      "Ġlanguage": 1454,
      "Ġtraditional": 1455,
      "Ġpositive": 1456,
      "ray": 1457,
      "Ġonline": 1458,
      "Ġposs": 1459,
      "Ġeconom": 1460,
      "Ġknew": 1461,
      "oid": 1462,
      "Ġcor": 1463,
      "ese": 1464,
      "Ġair": 1465,
      "rap": 1466,
      "aign": 1467,
      "Ġfelt": 1468,
      "Ġmuch": 1469,
      "Ġoffers": 1470,
      "Ġothers": 1471,
      "raph": 1472,
      "Ġbased": 1473,
      "Ġeasy": 1474,
      "Ġindividuals": 1475,
      "hips": 1476,
      "ording": 1477,
      "Ġnever": 1478,
      "uce": 1479,
      "redients": 1480,
      "thing": 1481,
      "Ġcal": 1482,
      "ĠAdditionally": 1483,
      "Ġful": 1484,
      "Ġincrease": 1485,
      "Ġreally": 1486,
      "ilities": 1487,
      "Ġchange": 1488,
      "Ġneeds": 1489,
      "```": 1490,
      "Ġmess": 1491,
      "ĠAdd": 1492,
      "Ġpopular": 1493,
      "Ġele": 1494,
      "Ġris": 1495,
      "Ġtell": 1496,
      "ately": 1497,
      "Ġprovides": 1498,
      "let": 1499,
      "ouse": 1500,
      "Ġtem": 1501,
      "iques": 1502,
      "Ġapplic": 1503,
      "Ġmom": 1504,
      "ination": 1505,
      "Ġconst": 1506,
      "ipe": 1507,
      "labor": 1508,
      "//": 1509,
      "irect": 1510,
      "Ġrole": 1511,
      "Ġheart": 1512,
      "ands": 1513,
      "Ġplease": 1514,
      "Ġjour": 1515,
      "uss": 1516,
      "Ġmove": 1517,
      "ems": 1518,
      "Ġworks": 1519,
      "Ġcho": 1520,
      "Ġdep": 1521,
      "Ġcampaign": 1522,
      "Ġdev": 1523,
      "Ġcreating": 1524,
      "ĠRe": 1525,
      "Ġbelie": 1526,
      "Ġcook": 1527,
      "orts": 1528,
      "Ġlit": 1529,
      "Ġcolor": 1530,
      "Ġwithout": 1531,
      "Ġcomb": 1532,
      "Ġreport": 1533,
      "ern": 1534,
      "Ġquest": 1535,
      "Ġpie": 1536,
      "Ġcome": 1537,
      "vers": 1538,
      "oose": 1539,
      "ale": 1540,
      "rent": 1541,
      "Ġevents": 1542,
      "ĠAnd": 1543,
      "back": 1544,
      "oss": 1545,
      "Ġgrowth": 1546,
      "ci": 1547,
      "Ġevent": 1548,
      "hor": 1549,
      "Ġactivities": 1550,
      "Ġproper": 1551,
      "Ġhelps": 1552,
      "Ġexplore": 1553,
      "Ġbusinesses": 1554,
      "Ġperformance": 1555,
      "ney": 1556,
      "Ġ6": 1557,
      "alk": 1558,
      "Ġincorpor": 1559,
      "Ġfree": 1560,
      "Ġinput": 1561,
      "Ġmot": 1562,
      "Ġareas": 1563,
      "Ġavailable": 1564,
      "pping": 1565,
      "Ġfriends": 1566,
      "Ġpoint": 1567,
      "Ġfore": 1568,
      "Ġpublic": 1569,
      "Ġopen": 1570,
      "Ġbecome": 1571,
      "Ġgoals": 1572,
      "Ġsearch": 1573,
      "uture": 1574,
      "Ġstay": 1575,
      "Ġtechniques": 1576,
      "illed": 1577,
      "ering": 1578,
      "Ġstudy": 1579,
      "It": 1580,
      "ivity": 1581,
      "ethod": 1582,
      "ape": 1583,
      "Ġtools": 1584,
      "aring": 1585,
      "pper": 1586,
      "Ġquality": 1587,
      "Ġhistory": 1588,
      "Ġstru": 1589,
      "Ġessential": 1590,
      "Ġpost": 1591,
      "Ġstrong": 1592,
      "chool": 1593,
      "Ġsym": 1594,
      "Ġmanagement": 1595,
      "Ġcontribut": 1596,
      "Ġnow": 1597,
      "Ġ19": 1598,
      "Ġrun": 1599,
      "fect": 1600,
      "Ġbody": 1601,
      "ior": 1602,
      "ato": 1603,
      "Ġfresh": 1604,
      "--": 1605,
      "Ġinteg": 1606,
      "Ġstore": 1607,
      "str": 1608,
      "Ġeffic": 1609,
      "Ġprofess": 1610,
      "cial": 1611,
      "Ġexerc": 1612,
      "oring": 1613,
      "Ġhope": 1614,
      "Ġvide": 1615,
      "Ġmeas": 1616,
      "Ġflavor": 1617,
      "Ġtraining": 1618,
      "care": 1619,
      "izing": 1620,
      "âĢĿ": 1621,
      "ĠEx": 1622,
      "oot": 1623,
      "Ġ'": 1624,
      "Ġfuture": 1625,
      "asing": 1626,
      "ried": 1627,
      "ogn": 1628,
      "ructure": 1629,
      "Ġenjoy": 1630,
      "Ġanaly": 1631,
      "ike": 1632,
      "Ġsuccessful": 1633,
      "Ġsol": 1634,
      "imate": 1635,
      "Ġencoura": 1636,
      "Ġequ": 1637,
      "Ġemail": 1638,
      "Ġnut": 1639,
      "ats": 1640,
      "vern": 1641,
      "Ġcontrol": 1642,
      "ĠBe": 1643,
      "Ġmethod": 1644,
      "Ġing": 1645,
      "Ġdiff": 1646,
      "Ġsaid": 1647,
      "Ġsystems": 1648,
      "Ġinteract": 1649,
      "ĠSh": 1650,
      "ooks": 1651,
      "Ġstand": 1652,
      "Ġmix": 1653,
      "Ġservice": 1654,
      "ret": 1655,
      "Ġlow": 1656,
      "Ġcharacter": 1657,
      "Ġproviding": 1658,
      "rodu": 1659,
      "ĠTo": 1660,
      "Ġprograms": 1661,
      "Ġoper": 1662,
      "Ġdeep": 1663,
      "ĠAr": 1664,
      "Ġfeed": 1665,
      "Ġknown": 1666,
      "by": 1667,
      "Ġthink": 1668,
      "Ġcourse": 1669,
      "Overall": 1670,
      "Ġlarge": 1671,
      "Ġvisit": 1672,
      "Ġadditional": 1673,
      "Ġpow": 1674,
      "ours": 1675,
      "word": 1676,
      "weet": 1677,
      "Ġmat": 1678,
      "Ġidentify": 1679,
      "Ġpractices": 1680,
      "Ġey": 1681,
      "Ġaffect": 1682,
      "Ġstrugg": 1683,
      "Ġest": 1684,
      "Ġlim": 1685,
      "Ġdra": 1686,
      "Ġelect": 1687,
      "Ġsaf": 1688,
      "Ġview": 1689,
      "ĠTh": 1690,
      "Ġpa": 1691,
      "olution": 1692,
      "Ġmust": 1693,
      "Ġsens": 1694,
      "Ġaddress": 1695,
      "ared": 1696,
      "Ġrecipe": 1697,
      "Ġhard": 1698,
      "Ġimm": 1699,
      "ger": 1700,
      "Ġgovern": 1701,
      "Ġgame": 1702,
      "Ġtransport": 1703,
      "Ġ#": 1704,
      "Ġbro": 1705,
      "Ġstyle": 1706,
      "ember": 1707,
      "Ġsauce": 1708,
      "Ġexc": 1709,
      "Ġmult": 1710,
      "Ġcommunication": 1711,
      "Ġanim": 1712,
      "ibility": 1713,
      "Ġless": 1714,
      "Ġmil": 1715,
      "ium": 1716,
      "fort": 1717,
      "ights": 1718,
      "Ġprotect": 1719,
      "),": 1720,
      "Ġwithin": 1721,
      "Ġquick": 1722,
      "Ġtypes": 1723,
      "Ġperfect": 1724,
      "Ġhead": 1725,
      "Ġstrategies": 1726,
      "Ġphysical": 1727,
      "ames": 1728,
      "ze": 1729,
      "Ġtru": 1730,
      "Ġel": 1731,
      "Ġpresent": 1732,
      "ularly": 1733,
      "Ġmaterials": 1734,
      "Ġworking": 1735,
      "Ġjob": 1736,
      "Ġoptim": 1737,
      "Ġcultural": 1738,
      "ĠPl": 1739,
      "Ġdoes": 1740,
      "Ġpromote": 1741,
      "Ġmov": 1742,
      "Ġrele": 1743,
      "ains": 1744,
      "omp": 1745,
      "ention": 1746,
      "Ġhealthy": 1747,
      "Ġ10": 1748,
      "ograph": 1749,
      "Ġrenew": 1750,
      "Ġmaintain": 1751,
      "Ġprevent": 1752,
      "Ġface": 1753,
      "Ġstress": 1754,
      "lex": 1755,
      "Ġclean": 1756,
      "urther": 1757,
      "Ġwind": 1758,
      "nces": 1759,
      "Ġneg": 1760,
      "ĠThere": 1761,
      "Ġspecial": 1762,
      ",\"": 1763,
      "gar": 1764,
      "Ġachieve": 1765,
      "ĠDo": 1766,
      "Ġideas": 1767,
      "Ġspace": 1768,
      "Ġmeet": 1769,
      "Ġwee": 1770,
      "ees": 1771,
      "come": 1772,
      "Ġexperiences": 1773,
      "Ġeducation": 1774,
      "Ġpar": 1775,
      "ugh": 1776,
      "Ġanother": 1777,
      "ision": 1778,
      "Ġcurrent": 1779,
      "lish": 1780,
      "Ġsmo": 1781,
      "urity": 1782,
      "Ġtowards": 1783,
      "Ġtravel": 1784,
      "Ġcompet": 1785,
      "Ġvalue": 1786,
      "Ġtas": 1787,
      "Ġ}": 1788,
      "Ġoverall": 1789,
      "ising": 1790,
      "Ġdig": 1791,
      "Ġrequire": 1792,
      "Ġdirect": 1793,
      "Ġstate": 1794,
      "ĠInd": 1795,
      "Ġsoftware": 1796,
      "Ġvers": 1797,
      "icult": 1798,
      "Ġmight": 1799,
      "Ġthings": 1800,
      "Ġarea": 1801,
      "meric": 1802,
      "based": 1803,
      "Ġsame": 1804,
      "Ġupd": 1805,
      "reng": 1806,
      "yc": 1807,
      "Ġcolle": 1808,
      "Ġhelped": 1809,
      "play": 1810,
      "Ġfollowing": 1811,
      "aves": 1812,
      "ĠWh": 1813,
      "Ġsat": 1814,
      "ĠâĢĵ": 1815,
      "land": 1816,
      "ield": 1817,
      "ners": 1818,
      "Ġsustainable": 1819,
      "Ġcomplex": 1820,
      "Ġtreat": 1821,
      "Ġrece": 1822,
      "Ġvariety": 1823,
      "anies": 1824,
      "lusion": 1825,
      "gin": 1826,
      "Ġchick": 1827,
      "Ġgar": 1828,
      "Ġculture": 1829,
      "Ġdeterm": 1830,
      "ource": 1831,
      "ression": 1832,
      "Ġincludes": 1833,
      "irt": 1834,
      "ause": 1835,
      "ished": 1836,
      "Ġhuman": 1837,
      "nov": 1838,
      "ration": 1839,
      "ĠâĢľ": 1840,
      "Ġpolic": 1841,
      "ron": 1842,
      "Ġinit": 1843,
      "fact": 1844,
      "Ġcap": 1845,
      "Ġingredients": 1846,
      "ince": 1847,
      "here": 1848,
      "Ġcrit": 1849,
      "Ġallows": 1850,
      "Ġcollabor": 1851,
      "Ġbuilding": 1852,
      "Ġinsp": 1853,
      "Ġopportunities": 1854,
      "oney": 1855,
      "Ġtrack": 1856,
      "Ġsun": 1857,
      "ote": 1858,
      "Ġbal": 1859,
      "ĠSc": 1860,
      "ides": 1861,
      "ĠCl": 1862,
      "Ġroom": 1863,
      "de": 1864,
      "Ġrespons": 1865,
      "Ġdifficult": 1866,
      "Ġwriting": 1867,
      "aling": 1868,
      "Ġes": 1869,
      "Ġconsum": 1870,
      "oad": 1871,
      "ances": 1872,
      "Ġlast": 1873,
      "Ġchildren": 1874,
      "Ġissues": 1875,
      "Ġnet": 1876,
      "Ġbreat": 1877,
      "me": 1878,
      "apt": 1879,
      "'ll": 1880,
      "aster": 1881,
      "Ġacross": 1882,
      "Ġstreng": 1883,
      "Ġhot": 1884,
      "Ġproble": 1885,
      "Ġjourney": 1886,
      "Ġconsider": 1887,
      "itation": 1888,
      "Ġbreak": 1889,
      "Ġelements": 1890,
      "rehe": 1891,
      "ĠInst": 1892,
      "Ġturn": 1893,
      "Ġthroughout": 1894,
      "ffic": 1895,
      "Ġside": 1896,
      "ises": 1897,
      "Ġ0": 1898,
      "just": 1899,
      "ton": 1900,
      "aj": 1901,
      "Ġmar": 1902,
      "Ġrout": 1903,
      "mon": 1904,
      "co": 1905,
      "iting": 1906,
      "Ġmembers": 1907,
      "ĠDe": 1908,
      "Ġheat": 1909,
      "Ġchanges": 1910,
      "Ġ<": 1911,
      "ots": 1912,
      "Ġtimes": 1913,
      "Ġbook": 1914,
      "ruction": 1915,
      "Ġlevels": 1916,
      "vert": 1917,
      "Ġcommon": 1918,
      "osp": 1919,
      "Ġobject": 1920,
      "Ġenh": 1921,
      "Ġfeedback": 1922,
      "Ġcheese": 1923,
      "Ġtast": 1924,
      "Ġreturn": 1925,
      "Ġsupp": 1926,
      "idd": 1927,
      "Ġrenewable": 1928,
      "Ġseason": 1929,
      "ming": 1930,
      "friend": 1931,
      "Ġagainst": 1932,
      "Ġter": 1933,
      "Ġpossible": 1934,
      "Ġprep": 1935,
      "Ġbegan": 1936,
      "ived": 1937,
      "ral": 1938,
      "Ġpractice": 1939,
      "Ġphot": 1940,
      "Ġability": 1941,
      "Ġfeature": 1942,
      "Ġreach": 1943,
      "Ġreducing": 1944,
      "rast": 1945,
      "ĠSome": 1946,
      "ditions": 1947,
      "Ġstarted": 1948,
      "Ġtype": 1949,
      "Write": 1950,
      "ĠInc": 1951,
      "bo": 1952,
      "Ġjo": 1953,
      "Ġapproach": 1954,
      "20": 1955,
      "ator": 1956,
      "These": 1957,
      "anced": 1958,
      "oci": 1959,
      "ann": 1960,
      "Ġgreen": 1961,
      "ĠCon": 1962,
      "Ġ7": 1963,
      "Ġcompanies": 1964,
      "ards": 1965,
      "ently": 1966,
      "ysis": 1967,
      "Ġbring": 1968,
      "ĠWith": 1969,
      "ructions": 1970,
      "Ġexpect": 1971,
      "Ġfit": 1972,
      "ancial": 1973,
      "ene": 1974,
      "Ġcase": 1975,
      "10": 1976,
      "ift": 1977,
      "Ġmag": 1978,
      "izations": 1979,
      "Ġprint": 1980,
      "Ġfund": 1981,
      "rior": 1982,
      "reate": 1983,
      "acks": 1984,
      "Ġsweet": 1985,
      "Ġpepper": 1986,
      "Ġfeeling": 1987,
      "Ġleft": 1988,
      "ones": 1989,
      "Ġdesigned": 1990,
      "ĠSp": 1991,
      "Ġbas": 1992,
      "Ġmoment": 1993,
      "Ġleading": 1994,
      "Ġrepres": 1995,
      "Ġparticip": 1996,
      "Ġalong": 1997,
      "Ġleg": 1998,
      "Ġnext": 1999,
      "000": 2000,
      "ug": 2001,
      "vant": 2002,
      "orth": 2003,
      "Ġcheck": 2004,
      "Ġtaking": 2005,
      "iment": 2006,
      "ilar": 2007,
      "itut": 2008,
      "ĠAmeric": 2009,
      "Ġcream": 2010,
      "Ġnight": 2011,
      "rain": 2012,
      "Ġpay": 2013,
      "Ġfre": 2014,
      "Ġprogress": 2015,
      "ury": 2016,
      "Ġmiss": 2017,
      "Ġaccording": 2018,
      "Ġdepend": 2019,
      "Ġinfluenc": 2020,
      "Ġbehav": 2021,
      "Ġfr": 2022,
      "Ġavoid": 2023,
      "ledge": 2024,
      "ng": 2025,
      "Ġcode": 2026,
      "Ġunderstanding": 2027,
      "Ġintern": 2028,
      "Ġnature": 2029,
      "Ġdescript": 2030,
      "Ġdark": 2031,
      "Ġsources": 2032,
      "ĠĠĠĠĠĠĠĠĠĠĠ": 2033,
      "Ġaway": 2034,
      "Ġneeded": 2035,
      "Ġbreath": 2036,
      "ank": 2037,
      "Ġsteps": 2038,
      "face": 2039,
      "ths": 2040,
      "Ġrelationships": 2041,
      "aces": 2042,
      "Ġclos": 2043,
      "ges": 2044,
      "aur": 2045,
      "Ġname": 2046,
      "Ġinnov": 2047,
      "nam": 2048,
      "icate": 2049,
      "ĠWhen": 2050,
      "Ġgovernment": 2051,
      "ele": 2052,
      "Ġbat": 2053,
      "Ġline": 2054,
      "af": 2055,
      "Ġsalt": 2056,
      "tt": 2057,
      "Ġwarm": 2058,
      "Than": 2059,
      "Ġschool": 2060,
      "Ġdish": 2061,
      "We": 2062,
      "Ġengaging": 2063,
      "Ġgoing": 2064,
      "ĠRes": 2065,
      "ohn": 2066,
      "rop": 2067,
      "Ġcomfort": 2068,
      "Ġvegetables": 2069,
      "Ġlay": 2070,
      "cessary": 2071,
      "ĠNew": 2072,
      "Ġshort": 2073,
      "ued": 2074,
      "Ġaccount": 2075,
      "side": 2076,
      "duct": 2077,
      "Ġhold": 2078,
      "ified": 2079,
      "Ġchicken": 2080,
      "ring": 2081,
      "Ġ8": 2082,
      "Ġsw": 2083,
      "()": 2084,
      "Ġred": 2085,
      "Ġpack": 2086,
      "Ġsl": 2087,
      "Ġhig": 2088,
      "Ġold": 2089,
      "Ġlooking": 2090,
      "the": 2091,
      "Ġdi": 2092,
      "friendly": 2093,
      "Ġeconomic": 2094,
      "Ġbecause": 2095,
      "ĠCol": 2096,
      "Ġvery": 2097,
      "Ġnon": 2098,
      "Ġpan": 2099,
      "ĠWhat": 2100,
      "pos": 2101,
      "Ġfile": 2102,
      "Ġvisual": 2103,
      "Ġdiscuss": 2104,
      "Ġfinancial": 2105,
      "That": 2106,
      "____": 2107,
      "Ġadjust": 2108,
      "Ġlik": 2109,
      "pro": 2110,
      "Ġsle": 2111,
      "cul": 2112,
      "arent": 2113,
      "hers": 2114,
      "Ġnav": 2115,
      "ival": 2116,
      "Ġeffects": 2117,
      "Ġland": 2118,
      "ening": 2119,
      "aw": 2120,
      "istic": 2121,
      "Ġsn": 2122,
      "oun": 2123,
      "Ġmodern": 2124,
      "Ġtur": 2125,
      "To": 2126,
      "Ġeverything": 2127,
      "Ġsounds": 2128,
      "Ġocc": 2129,
      "Ġemotional": 2130,
      "ĠOne": 2131,
      "ched": 2132,
      "Ġcra": 2133,
      "Ġcolors": 2134,
      "Ġwom": 2135,
      "ĠIm": 2136,
      "Ġpurch": 2137,
      "Ġtechnolog": 2138,
      "Ġtransportation": 2139,
      "room": 2140,
      "ĠQ": 2141,
      "ires": 2142,
      "Ġnegative": 2143,
      "unch": 2144,
      "ird": 2145,
      "ork": 2146,
      "Ġamong": 2147,
      "Ġsymb": 2148,
      "time": 2149,
      "gle": 2150,
      "oph": 2151,
      "Ġsales": 2152,
      "icious": 2153,
      "fulness": 2154,
      "ĠTe": 2155,
      "crib": 2156,
      "Ġmean": 2157,
      "hel": 2158,
      "Ġsou": 2159,
      "Ġautom": 2160,
      "Ġimportance": 2161,
      "place": 2162,
      "ches": 2163,
      "Ġgre": 2164,
      "oor": 2165,
      "Ġthree": 2166,
      "arr": 2167,
      "Ġble": 2168,
      "Ġanalysis": 2169,
      "ane": 2170,
      "Ġsimple": 2171,
      "Ġamount": 2172,
      "aged": 2173,
      "Ġcut": 2174,
      "Ġled": 2175,
      "iod": 2176,
      "ĠSe": 2177,
      "'ve": 2178,
      "ott": 2179,
      "Ġsecond": 2180,
      "Ġplatforms": 2181,
      "Ġkind": 2182,
      "Ġapplication": 2183,
      "Ġcapt": 2184,
      "for": 2185,
      "Ġorder": 2186,
      "Ġauthor": 2187,
      "Ġfurther": 2188,
      "owl": 2189,
      "igate": 2190,
      "idence": 2191,
      "sing": 2192,
      "Ġtool": 2193,
      "elves": 2194,
      "overed": 2195,
      "Ġeffectively": 2196,
      "Ġhours": 2197,
      "Ġstat": 2198,
      "Ġcharacters": 2199,
      "Ġflow": 2200,
      "aily": 2201,
      "izes": 2202,
      "Ġknowledge": 2203,
      "rown": 2204,
      "Ġnecessary": 2205,
      "pite": 2206,
      "ened": 2207,
      "How": 2208,
      "app": 2209,
      "Ġmotiv": 2210,
      "Ġste": 2211,
      "Ġuses": 2212,
      "Ġvol": 2213,
      "Ġseem": 2214,
      "Ġlives": 2215,
      "iful": 2216,
      "Ġground": 2217,
      "Ġemotions": 2218,
      "Ġmessage": 2219,
      "Ġanx": 2220,
      "ude": 2221,
      "Ġreview": 2222,
      "Ġidea": 2223,
      "arah": 2224,
      "obile": 2225,
      "Ġreflect": 2226,
      "Ġskin": 2227,
      "Ġ//": 2228,
      "Ġpaper": 2229,
      "Ġmo": 2230,
      "Ġsitu": 2231,
      "Ġrisk": 2232,
      "selves": 2233,
      "Ġemployees": 2234,
      "Ġbar": 2235,
      "Ġrecogn": 2236,
      "ferences": 2237,
      "Ġpress": 2238,
      "ĠCons": 2239,
      "Ġlive": 2240,
      "Ġsize": 2241,
      "One": 2242,
      "Ġcontinue": 2243,
      "ixt": 2244,
      "Ġfull": 2245,
      "Ġsecurity": 2246,
      "Ġhighlight": 2247,
      "Ġrecommendations": 2248,
      "Ġsumm": 2249,
      "Ġhelpful": 2250,
      "Ġclimate": 2251,
      "iple": 2252,
      "Ġz": 2253,
      "Ġproduction": 2254,
      "Ġgarlic": 2255,
      "alls": 2256,
      "rehens": 2257,
      "Ġfru": 2258,
      "Ġbutter": 2259,
      "Ġguid": 2260,
      "Ġbecame": 2261,
      "Ġquestions": 2262,
      "Ġchoose": 2263,
      "Ġhy": 2264,
      "Ġengagement": 2265,
      "But": 2266,
      "Ġcooking": 2267,
      "Ġattention": 2268,
      "ĠZ": 2269,
      "elling": 2270,
      "Ġtour": 2271,
      "Ġspir": 2272,
      "ump": 2273,
      "Ġsurv": 2274,
      "ids": 2275,
      "Ġorganizations": 2276,
      "orn": 2277,
      "Ġcommunities": 2278,
      "Ġquickly": 2279,
      "Ġcountry": 2280,
      "Ġprote": 2281,
      "Ġadapt": 2282,
      "Ġprior": 2283,
      "Ġcaus": 2284,
      "poon": 2285,
      "Ġvideo": 2286,
      "Ġbeauty": 2287,
      "Ġprofessional": 2288,
      "Ġeyes": 2289,
      "Ġrelevant": 2290,
      "ĠBl": 2291,
      "Ġdays": 2292,
      "Ġcountries": 2293,
      "Ġtherap": 2294,
      "Ġthought": 2295,
      "Ġyourself": 2296,
      "Ġrestaur": 2297,
      "Ġindividual": 2298,
      "Ġmakes": 2299,
      "ged": 2300,
      "Step": 2301,
      "onse": 2302,
      "Ġhealthcare": 2303,
      "val": 2304,
      "erve": 2305,
      "Ġblack": 2306,
      "Ġput": 2307,
      "ik": 2308,
      "Ġdetailed": 2309,
      "Ġdue": 2310,
      "Ġpowerful": 2311,
      "Ġbeautiful": 2312,
      "Ġplant": 2313,
      "Ġtemper": 2314,
      "ored": 2315,
      "Ġaction": 2316,
      "Ġenhance": 2317,
      "Ġbegin": 2318,
      "Ġdaily": 2319,
      "Ġincreased": 2320,
      "par": 2321,
      "Ġsatis": 2322,
      "Ġtri": 2323,
      "ground": 2324,
      "ĠYour": 2325,
      "Ġmanage": 2326,
      "Ġcreative": 2327,
      "ura": 2328,
      "ging": 2329,
      "ised": 2330,
      "ilt": 2331,
      "Ġarch": 2332,
      "Ġlog": 2333,
      "ili": 2334,
      "Ġefficient": 2335,
      "irtual": 2336,
      "Ġsurround": 2337,
      "ina": 2338,
      "Ġwaste": 2339,
      "Ġresults": 2340,
      "illing": 2341,
      "Ġcomprehens": 2342,
      "Ġassoci": 2343,
      "Ġprojects": 2344,
      "Ġdeli": 2345,
      "fer": 2346,
      "Ġrealized": 2347,
      "Ġfactors": 2348,
      "Ġglob": 2349,
      "Ġdigital": 2350,
      "Ġsuggestions": 2351,
      "sh": 2352,
      "atives": 2353,
      "ĠMar": 2354,
      "Ġhom": 2355,
      "Ġseen": 2356,
      "Ġport": 2357,
      "illion": 2358,
      "ĠRem": 2359,
      "Ġcool": 2360,
      "Ġcontain": 2361,
      "ley": 2362,
      "Ġbowl": 2363,
      "Ġestab": 2364,
      "Ġwin": 2365,
      "ĠIs": 2366,
      "Ġaware": 2367,
      "Ġguide": 2368,
      "Ġessay": 2369,
      "Ġliving": 2370,
      "Ġimages": 2371,
      "Ġcover": 2372,
      "Ġnear": 2373,
      "Ġtaste": 2374,
      "Ġwords": 2375,
      "Ġprovided": 2376,
      "Ġperiod": 2377,
      "Ġconvers": 2378,
      "aving": 2379,
      "atoes": 2380,
      "Ġmach": 2381,
      "Ġill": 2382,
      "reci": 2383,
      "Ġdest": 2384,
      "ters": 2385,
      "Ġabove": 2386,
      "Ġadding": 2387,
      "Ġlittle": 2388,
      "ĠMake": 2389,
      "(\"": 2390,
      "nds": 2391,
      "terns": 2392,
      "Ġenvironmental": 2393,
      "Ġattract": 2394,
      "Ġsing": 2395,
      "ixture": 2396,
      "Ġefforts": 2397,
      "Ġmaj": 2398,
      "Ġdishes": 2399,
      "bon": 2400,
      "ument": 2401,
      "Ġamaz": 2402,
      "Ġtou": 2403,
      "Ġconsist": 2404,
      "Ġcouldn": 2405,
      "Ġgiven": 2406,
      "ption": 2407,
      "Ġstring": 2408,
      "Ġever": 2409,
      "Ġexplain": 2410,
      "Ġexce": 2411,
      "inally": 2412,
      "book": 2413,
      "elebr": 2414,
      "Ġsmooth": 2415,
      "Ġrepresent": 2416,
      "Ġ&": 2417,
      "Ġfavor": 2418,
      "Ġbig": 2419,
      "head": 2420,
      "Ġselect": 2421,
      "Ġwond": 2422,
      "Ġlov": 2423,
      "uro": 2424,
      "Ġgain": 2425,
      "itude": 2426,
      "enge": 2427,
      "Ġbehavior": 2428,
      "ators": 2429,
      "Ġmultiple": 2430,
      "Ġappreci": 2431,
      "of": 2432,
      "olutions": 2433,
      "Ġencourage": 2434,
      "umb": 2435,
      "Ġdelicious": 2436,
      "Ġincreasing": 2437,
      "Ġthin": 2438,
      "inal": 2439,
      "Ġanxiety": 2440,
      "Ġherself": 2441,
      "iversity": 2442,
      "Ġremind": 2443,
      "astic": 2444,
      "Ġlocation": 2445,
      "vey": 2446,
      "Ġconclusion": 2447,
      "atic": 2448,
      "Ġalm": 2449,
      "Ġmixture": 2450,
      "..": 2451,
      "And": 2452,
      "Ġslow": 2453,
      "Ġaim": 2454,
      "Ġcomprehensive": 2455,
      "Ġpatterns": 2456,
      "Ġbud": 2457,
      "ĠMay": 2458,
      "emic": 2459,
      "Ġcreated": 2460,
      "na": 2461,
      "iveness": 2462,
      "):": 2463,
      "Ġcru": 2464,
      "Ġstrategy": 2465,
      "Ġbalance": 2466,
      "Ġimag": 2467,
      "Ġerr": 2468,
      "Ġfoot": 2469,
      "Ġremain": 2470,
      "Ġtom": 2471,
      "asc": 2472,
      "acy": 2473,
      "ey": 2474,
      "ĠJohn": 2475,
      "Ġlearned": 2476,
      "Ġarr": 2477,
      "ops": 2478,
      "Ġcell": 2479,
      "Ġshowc": 2480,
      "quality": 2481,
      "olutely": 2482,
      "Ġcosts": 2483,
      "Ġenough": 2484,
      "Ġheav": 2485,
      "Ġtakes": 2486,
      "ites": 2487,
      "Ġtook": 2488,
      "iverse": 2489,
      "Ġtrying": 2490,
      "Ġvalues": 2491,
      "iced": 2492,
      "Ġyoung": 2493,
      "Ġsleep": 2494,
      "Ġhigher": 2495,
      "gor": 2496,
      "Ġconditions": 2497,
      "Ġpric": 2498,
      "Ġversion": 2499,
      "Ġfield": 2500,
      "Ġiniti": 2501,
      "pecial": 2502,
      "Ġparticularly": 2503,
      "Ġsaw": 2504,
      "eds": 2505,
      "Ġbehind": 2506,
      "For": 2507,
      "itect": 2508,
      "Ġvari": 2509,
      "ĠEng": 2510,
      "outh": 2511,
      "Ġdise": 2512,
      "Ġtasks": 2513,
      "Ġemb": 2514,
      "Ġdisplay": 2515,
      "Ġcomput": 2516,
      "Ġ9": 2517,
      "Ġrelationship": 2518,
      "Ġpoem": 2519,
      "pose": 2520,
      "Ġpage": 2521,
      "Ġweb": 2522,
      "Ġpiece": 2523,
      "Ġresponse": 2524,
      "Ġdevices": 2525,
      "anger": 2526,
      "imately": 2527,
      "Ġemerg": 2528,
      "ma": 2529,
      "Ġsince": 2530,
      "ests": 2531,
      "Ġsomeone": 2532,
      "cking": 2533,
      "Ġinvolves": 2534,
      "ulation": 2535,
      "man": 2536,
      "Ġlower": 2537,
      "nding": 2538,
      "Ġsche": 2539,
      "cent": 2540,
      "Ġgen": 2541,
      "Ġearly": 2542,
      "Ġinteresting": 2543,
      "Ġoption": 2544,
      "Ġimage": 2545,
      "icle": 2546,
      "Ġmobile": 2547,
      "Ġant": 2548,
      "ĠDes": 2549,
      "erson": 2550,
      "gorith": 2551,
      "Ġmonit": 2552,
      "Ġcame": 2553,
      "Ġask": 2554,
      "Ġgard": 2555,
      "Ġtables": 2556,
      "ding": 2557,
      "Ġpersonalized": 2558,
      "Ġdidn": 2559,
      "aches": 2560,
      "ha": 2561,
      "Ġadded": 2562,
      "Ġprotein": 2563,
      "Ġappe": 2564,
      "Ġexperienc": 2565,
      "Ġsugar": 2566,
      "Ġonce": 2567,
      "ĠAm": 2568,
      "Ġju": 2569,
      "Ġlif": 2570,
      "aching": 2571,
      "Ġengine": 2572,
      "Ġlikely": 2573,
      "Ġcomes": 2574,
      "cape": 2575,
      "Ġminim": 2576,
      "istance": 2577,
      "ows": 2578,
      "Ġhouse": 2579,
      "ĠHer": 2580,
      "Ġleast": 2581,
      "Ġsource": 2582,
      "Ġthemselves": 2583,
      "An": 2584,
      "Ġegg": 2585,
      "ĠSu": 2586,
      "Ġcommit": 2587,
      "What": 2588,
      "urs": 2589,
      "Ġsong": 2590,
      "oice": 2591,
      "Ġexercises": 2592,
      "Ġsimilar": 2593,
      "Ġap": 2594,
      "Ġsymbol": 2595,
      "Ġwa": 2596,
      "Ġtechnologies": 2597,
      "Ġwar": 2598,
      "Ġtoday": 2599,
      "Ġactivity": 2600,
      "Ġsolutions": 2601,
      "Ġmajor": 2602,
      "cy": 2603,
      "Ġorganization": 2604,
      "Ġmen": 2605,
      "Ġhappy": 2606,
      "ength": 2607,
      "phas": 2608,
      "zz": 2609,
      "ĠTra": 2610,
      "Ġwalk": 2611,
      "Ġdeveloping": 2612,
      "Wow": 2613,
      "Ġ+": 2614,
      "Ġinstall": 2615,
      "Ġitems": 2616,
      "Ġol": 2617,
      "ĠChe": 2618,
      "ĠMed": 2619,
      "Ã©": 2620,
      "Ġdam": 2621,
      "ĠOr": 2622,
      "Ġalgorith": 2623,
      "wer": 2624,
      "Ġmodel": 2625,
      "hood": 2626,
      "ĠComm": 2627,
      "sp": 2628,
      "Ġattend": 2629,
      "Ġpolit": 2630,
      "Ġsqu": 2631,
      "ĠApp": 2632,
      "Ġpred": 2633,
      "Ġinvolved": 2634,
      "Ġtrust": 2635,
      "Ġarray": 2636,
      "ification": 2637,
      "Ġlost": 2638,
      "Ġarchitect": 2639,
      "Ġstrength": 2640,
      "Ġut": 2641,
      "Ġmeans": 2642,
      "Ġleaves": 2643,
      "Ġbur": 2644,
      "Ġcelebr": 2645,
      "Ġtransform": 2646,
      "ety": 2647,
      "Ġextra": 2648,
      "oogle": 2649,
      "Ġcontact": 2650,
      "Ġfaced": 2651,
      "Ġstructure": 2652,
      "Ġamazing": 2653,
      "ĠSarah": 2654,
      "Ġeasily": 2655,
      "ipment": 2656,
      "Ġtal": 2657,
      "ull": 2658,
      "Ġimproving": 2659,
      "Ġur": 2660,
      "Ġgoal": 2661,
      "Ġbudget": 2662,
      "Ch": 2663,
      "Ġgroups": 2664,
      "Ġwide": 2665,
      "Ġstories": 2666,
      "oud": 2667,
      "Ġcritical": 2668,
      "Ġwhy": 2669,
      "Ġexpress": 2670,
      "Ġbecom": 2671,
      "Ġcampaigns": 2672,
      "med": 2673,
      "ĠName": 2674,
      "Ġfarm": 2675,
      "Ġmeditation": 2676,
      "Ġmindfulness": 2677,
      "Ġparent": 2678,
      "ym": 2679,
      "uck": 2680,
      "Ġund": 2681,
      "Ġorig": 2682,
      "ĠĠĠĠĠ": 2683,
      "Ġbackground": 2684,
      "Ġslic": 2685,
      "rist": 2686,
      "Ġregular": 2687,
      "Ġdream": 2688,
      "Ġelse": 2689,
      "ffee": 2690,
      "ext": 2691,
      "ĠCar": 2692,
      "Ġoven": 2693,
      "Ġinstead": 2694,
      "life": 2695,
      "Ġchopped": 2696,
      "cer": 2697,
      "Ġwood": 2698,
      "irc": 2699,
      "Ġlot": 2700,
      "Ġtrue": 2701,
      "Ġsalad": 2702,
      "Ġinterested": 2703,
      "Ġterms": 2704,
      "Ġrelated": 2705,
      "Ġinsights": 2706,
      "Ġmention": 2707,
      "Ġones": 2708,
      "Ġexist": 2709,
      "issions": 2710,
      "ĠLe": 2711,
      "Ġaspect": 2712,
      "Ġyog": 2713,
      "Ġvirtual": 2714,
      "Ġcalled": 2715,
      "Ġpath": 2716,
      "cient": 2717,
      "Ġchallenge": 2718,
      "Ġelectric": 2719,
      "Ġemphas": 2720,
      "Ġrelax": 2721,
      "Ġfavorite": 2722,
      "ians": 2723,
      "ĠAll": 2724,
      "Ġregion": 2725,
      "Ġexercise": 2726,
      "Ġmethods": 2727,
      "Ġwal": 2728,
      "Ġinstructions": 2729,
      "Ġrates": 2730,
      "Ġintegr": 2731,
      "Ġdoc": 2732,
      "Ġrev": 2733,
      "rics": 2734,
      "Ġpoints": 2735,
      "Ġgenerate": 2736,
      "ocial": 2737,
      "uff": 2738,
      "ster": 2739,
      "Ġglobal": 2740,
      "Ġdemon": 2741,
      "Ġcause": 2742,
      "ER": 2743,
      "Ġcrucial": 2744,
      "ĠTr": 2745,
      "Ġconflic": 2746,
      "Ġeveryone": 2747,
      "Ġdress": 2748,
      "IN": 2749,
      "Ġanimals": 2750,
      "Ġsociety": 2751,
      "dule": 2752,
      "Ġpeace": 2753,
      "ĠFr": 2754,
      "Ġplants": 2755,
      "iency": 2756,
      "aly": 2757,
      "era": 2758,
      "Ġsetting": 2759,
      "Ġclients": 2760,
      "ĠComp": 2761,
      "Ġallowing": 2762,
      "ĠPh": 2763,
      "Ġdone": 2764,
      "Ġfear": 2765,
      "aken": 2766,
      "Ġengage": 2767,
      "Ġsay": 2768,
      "Ġbit": 2769,
      "Ġsho": 2770,
      "Ġmilk": 2771,
      "ĠAmerican": 2772,
      "Ġpreferences": 2773,
      "iction": 2774,
      "Ġweek": 2775,
      "Ġsave": 2776,
      "Ġpartners": 2777,
      "Ġtexture": 2778,
      "Ġaltern": 2779,
      "Ġstudies": 2780,
      "bsolutely": 2781,
      "Ġexcell": 2782,
      "istics": 2783,
      "Ġassociated": 2784,
      "ĠCould": 2785,
      "Ġpolicies": 2786,
      "Ġrich": 2787,
      "Ġloss": 2788,
      "tics": 2789,
      "ystem": 2790,
      "vious": 2791,
      "min": 2792,
      "Ġtown": 2793,
      "Ġ30": 2794,
      "Of": 2795,
      "yle": 2796,
      "Ġnetwork": 2797,
      "Ġpromoting": 2798,
      "ĠAlso": 2799,
      "rastructure": 2800,
      "pecially": 2801,
      "Ġgetting": 2802,
      "Ġmeasure": 2803,
      "Ġposition": 2804,
      "50": 2805,
      "Ġfar": 2806,
      "Ġcareer": 2807,
      "Ġhaving": 2808,
      "Ġbread": 2809,
      "uable": 2810,
      "Ġcertain": 2811,
      "den": 2812,
      "Ġfocused": 2813,
      "urt": 2814,
      "Ġopportunity": 2815,
      "go": 2816,
      "sc": 2817,
      "igation": 2818,
      "Ġolive": 2819,
      "Ġroutine": 2820,
      "Ġartists": 2821,
      "Ġcenter": 2822,
      "being": 2823,
      "Ġsuper": 2824,
      "ĠCreate": 2825,
      "earch": 2826,
      "Ġdetect": 2827,
      "set": 2828,
      "gest": 2829,
      "Ġfilm": 2830,
      "Ġadvert": 2831,
      "Ġbaking": 2832,
      "olate": 2833,
      "Ġcollect": 2834,
      "Ġrecord": 2835,
      "oyal": 2836,
      "cks": 2837,
      "Ġtouch": 2838,
      "Ġfrequ": 2839,
      "Ġpowder": 2840,
      "Ġcou": 2841,
      "Ġshap": 2842,
      "Ġann": 2843,
      "Ġtable": 2844,
      "ension": 2845,
      "Ġchallenging": 2846,
      "ials": 2847,
      "aps": 2848,
      "inary": 2849,
      "Ġsent": 2850,
      "isp": 2851,
      "Ġhab": 2852,
      "ĠSal": 2853,
      "Ġequipment": 2854,
      "Ġmeal": 2855,
      "ivate": 2856,
      "aks": 2857,
      "ils": 2858,
      "Ġtemperature": 2859,
      "ai": 2860,
      "Ġespecially": 2861,
      "Ġemp": 2862,
      "Ġafford": 2863,
      "Ġ|": 2864,
      "Ġplayed": 2865,
      "ensive": 2866,
      "Ġintrodu": 2867,
      "Absolutely": 2868,
      "Ġwhite": 2869,
      "Ġmoney": 2870,
      "Ġhistor": 2871,
      "Ġdry": 2872,
      "Ġincorporate": 2873,
      "ĠSo": 2874,
      "Ġsav": 2875,
      "Ġstre": 2876,
      "Ġmeaning": 2877,
      "Ġadop": 2878,
      "Ġrequired": 2879,
      "Ġforest": 2880,
      "ĠSm": 2881,
      "ĠConsider": 2882,
      "ancing": 2883,
      "Ġrice": 2884,
      "Ġsecure": 2885,
      "yth": 2886,
      "Ġcarbon": 2887,
      "Ġfig": 2888,
      "Ġsect": 2889,
      "Ġrecip": 2890,
      "Ġdescrib": 2891,
      "Ġtherapy": 2892,
      "Ġthoughts": 2893,
      "cast": 2894,
      "Ġscient": 2895,
      "lished": 2896,
      "Ġtraffic": 2897,
      "Ġcomplete": 2898,
      "ĠMan": 2899,
      "Ġconduct": 2900,
      "Ġwatch": 2901,
      "Ġhandle": 2902,
      "icles": 2903,
      "Ġfire": 2904,
      "Ġwild": 2905,
      "Ġwent": 2906,
      "Ġdiet": 2907,
      "Ġinfrastructure": 2908,
      "Ġworked": 2909,
      "print": 2910,
      "ĠOnce": 2911,
      "ĠOn": 2912,
      "Ġcoffee": 2913,
      "Ġovercome": 2914,
      "Ġexperiment": 2915,
      "sy": 2916,
      "Ġproblem": 2917,
      "Ġanything": 2918,
      "Ġrate": 2919,
      "Ġflav": 2920,
      "'d": 2921,
      "Ġhands": 2922,
      "orage": 2923,
      "Ġtim": 2924,
      "AR": 2925,
      "ĠCont": 2926,
      "Ġmatter": 2927,
      "augh": 2928,
      "free": 2929,
      "Ġsil": 2930,
      "ĠMarket": 2931,
      "Ġstir": 2932,
      "Ġdeveloped": 2933,
      "Ġstream": 2934,
      "Ġspirit": 2935,
      "Ġhighly": 2936,
      "ological": 2937,
      "Ġliter": 2938,
      "Ġpowers": 2939,
      "Ġmedium": 2940,
      "Ġdy": 2941,
      "Ġappear": 2942,
      "ĠGoogle": 2943,
      "Ġsess": 2944,
      "uild": 2945,
      "hold": 2946,
      "ashion": 2947,
      "Ġimplemented": 2948,
      "Ġleaders": 2949,
      "By": 2950,
      "ufact": 2951,
      "Ġapplications": 2952,
      "rame": 2953,
      "ĠWor": 2954,
      "Ġeasier": 2955,
      "ĠRed": 2956,
      "ned": 2957,
      "Ġweather": 2958,
      "Ġawareness": 2959,
      "Ġfish": 2960,
      "Ġdecision": 2961,
      "Ġwhether": 2962,
      "Ġweight": 2963,
      "asted": 2964,
      "Ġforward": 2965,
      "Ġoutside": 2966,
      "itle": 2967,
      "Ġbelieve": 2968,
      "Ġfall": 2969,
      "Ġclose": 2970,
      "Ġdraw": 2971,
      "Ġmax": 2972,
      "pective": 2973,
      "ĠUniversity": 2974,
      "ĠUnited": 2975,
      "Ġpair": 2976,
      "alf": 2977,
      "ĠOur": 2978,
      "Ġrecent": 2979,
      "Ġsafety": 2980,
      "ties": 2981,
      "term": 2982,
      "Ġmel": 2983,
      "Ġnews": 2984,
      "Ġadvanced": 2985,
      "Ġchann": 2986,
      "Ġelement": 2987,
      "Ġmedical": 2988,
      "pri": 2989,
      "apan": 2990,
      "Ġlat": 2991,
      "Ġmeasures": 2992,
      "Ġfight": 2993,
      "unte": 2994,
      ".,": 2995,
      "Ġvaluable": 2996,
      "Ġplayers": 2997,
      "Ġdance": 2998,
      "Ġdoing": 2999,
      "Ġthemes": 3000,
      "step": 3001,
      "Ġfour": 3002,
      "Ġchoice": 3003,
      "tings": 3004,
      "Ġcard": 3005,
      "Ġthr": 3006,
      "ĠWhile": 3007,
      "agram": 3008,
      "Ġmachine": 3009,
      "aff": 3010,
      "hent": 3011,
      "----": 3012,
      "Ġpieces": 3013,
      "iddle": 3014,
      "Ġdemonstr": 3015,
      "ĠSet": 3016,
      "ags": 3017,
      "Ġfinal": 3018,
      "Ġgames": 3019,
      "Ġunc": 3020,
      "Ġlonger": 3021,
      "Ġseemed": 3022,
      "aries": 3023,
      "ok": 3024,
      "Ġblog": 3025,
      "Ġbrown": 3026,
      "Ġult": 3027,
      "Ġwhole": 3028,
      "Ġquestion": 3029,
      "Ġvoice": 3030,
      "ference": 3031,
      "ĠLet": 3032,
      "isions": 3033,
      "Ġseries": 3034,
      "init": 3035,
      "icro": 3036,
      "Ġhear": 3037,
      "Ġdecor": 3038,
      "idge": 3039,
      "Ġlands": 3040,
      "Ġexcellent": 3041,
      "Ġlaw": 3042,
      "Ġloved": 3043,
      "ĠSam": 3044,
      "Ġcontinued": 3045,
      "oll": 3046,
      "itch": 3047,
      "ĠCent": 3048,
      "Ġserve": 3049,
      "Ġacad": 3050,
      "ography": 3051,
      "Ġ200": 3052,
      "ony": 3053,
      "Ġancient": 3054,
      "Ġcred": 3055,
      "ĠAf": 3056,
      "\",": 3057,
      "Ġhair": 3058,
      "ĠMe": 3059,
      "une": 3060,
      "lection": 3061,
      "Could": 3062,
      "Ġteas": 3063,
      "Ġfest": 3064,
      "ĠAv": 3065,
      "Ġproductivity": 3066,
      "ĠKe": 3067,
      "ocolate": 3068,
      "ustr": 3069,
      "Ġarg": 3070,
      "Ġgold": 3071,
      "Ġcirc": 3072,
      "mit": 3073,
      "ecut": 3074,
      "Ġdanger": 3075,
      "ached": 3076,
      "lying": 3077,
      "Ġlocated": 3078,
      "ole": 3079,
      "ĠX": 3080,
      "Ġdat": 3081,
      "hing": 3082,
      "Ġexpert": 3083,
      "irm": 3084,
      "Ġfitness": 3085,
      "Ġreven": 3086,
      "Ġvideos": 3087,
      "board": 3088,
      "Ġfilled": 3089,
      "Ġpractical": 3090,
      "Ġge": 3091,
      "Ġpurchase": 3092,
      "Ġmonths": 3093,
      "Ġupdated": 3094,
      "Ġsubst": 3095,
      "Ġentire": 3096,
      "Ġfail": 3097,
      "ying": 3098,
      "Ġobs": 3099,
      "Ġbir": 3100,
      "Ġsafe": 3101,
      "Ġflex": 3102,
      "mosp": 3103,
      "Ġobst": 3104,
      "Ġtaken": 3105,
      "ĠJapan": 3106,
      "ready": 3107,
      "Ġproblems": 3108,
      "Ġtried": 3109,
      "Ġsus": 3110,
      "Ġappropri": 3111,
      "Ġgraph": 3112,
      "Ġplans": 3113,
      "Ġcalcul": 3114,
      "ON": 3115,
      "Ġreceive": 3116,
      "=\"": 3117,
      "li": 3118,
      "Ġphone": 3119,
      "Ġlimited": 3120,
      "Ġbright": 3121,
      "Ġconcept": 3122,
      "ĠEuro": 3123,
      "comes": 3124,
      "Ġprevious": 3125,
      "Ġmanufact": 3126,
      "Ġet": 3127,
      "Ġthing": 3128,
      "Ġshared": 3129,
      "Ġmount": 3130,
      "hib": 3131,
      "Ġabs": 3132,
      "Ġadvent": 3133,
      "Ġscen": 3134,
      "Ġactive": 3135,
      "ĠProv": 3136,
      "yond": 3137,
      "Ġbase": 3138,
      "Ġefficiency": 3139,
      "iring": 3140,
      "Ġgas": 3141,
      "Ġsolar": 3142,
      "Ġspread": 3143,
      "Ġspeak": 3144,
      "Ġhost": 3145,
      "fully": 3146,
      "Ġincorporating": 3147,
      "Ġadvance": 3148,
      "Ġtreatment": 3149,
      "Ġatmosp": 3150,
      "Ġnumbers": 3151,
      "Ġgot": 3152,
      "Ġpriorit": 3153,
      "oop": 3154,
      "Ġtrees": 3155,
      "Ġded": 3156,
      "agon": 3157,
      "Des": 3158,
      "Ġstra": 3159,
      "Ġstorage": 3160,
      "plic": 3161,
      "Ġthick": 3162,
      "ades": 3163,
      "Ġconstant": 3164,
      "Ġmentioned": 3165,
      "initely": 3166,
      "ios": 3167,
      "Ġestablish": 3168,
      "Ġreli": 3169,
      "izz": 3170,
      "chan": 3171,
      "Ġflour": 3172,
      "Ġprim": 3173,
      "Ġdemand": 3174,
      "Ġplanning": 3175,
      "amed": 3176,
      "ino": 3177,
      "You": 3178,
      "Thanks": 3179,
      "Ġbooks": 3180,
      "Ġbuilt": 3181,
      "Ġjuice": 3182,
      "artment": 3183,
      "Ġcam": 3184,
      "Ad": 3185,
      "ses": 3186,
      "Ġcreatures": 3187,
      "ĠAt": 3188,
      "There": 3189,
      "Ġeconomy": 3190,
      "Ġconnection": 3191,
      "Ġvegan": 3192,
      "ky": 3193,
      "ĠCo": 3194,
      "ww": 3195,
      "Ġ18": 3196,
      "Ġdesigns": 3197,
      "Ġalready": 3198,
      "Ġblue": 3199,
      "Ġcommunicate": 3200,
      "Ġmillion": 3201,
      "ison": 3202,
      "irl": 3203,
      "Ġmeat": 3204,
      "alu": 3205,
      "Ġ12": 3206,
      "Ġgreater": 3207,
      "ĠUS": 3208,
      "Ġlooks": 3209,
      "Ġpurpose": 3210,
      "ields": 3211,
      "eter": 3212,
      "ĠAI": 3213,
      "Ġinteractive": 3214,
      "ĠThat": 3215,
      "Ġemissions": 3216,
      "uis": 3217,
      "Ġshows": 3218,
      "ricult": 3219,
      "Ġobstac": 3220,
      "Ġnavigate": 3221,
      "19": 3222,
      "ĠChrist": 3223,
      "Ġsurface": 3224,
      "atitude": 3225,
      "Ġcontribute": 3226,
      "Ġimproved": 3227,
      "ĠJack": 3228,
      "ĠMy": 3229,
      "Ġwrite": 3230,
      "Ġabilities": 3231,
      "Ġtesting": 3232,
      "Ġhelping": 3233,
      "ĠSocial": 3234,
      "fs": 3235,
      "Ġsite": 3236,
      "Ġmovement": 3237,
      "Ġpolitical": 3238,
      "],": 3239,
      "ror": 3240,
      "Ġscience": 3241,
      "iling": 3242,
      "Ġdistribut": 3243,
      "Ġoffering": 3244,
      "ana": 3245,
      "oms": 3246,
      "ĠDon": 3247,
      "Ġstyles": 3248,
      "ler": 3249,
      "Ġparents": 3250,
      "ilies": 3251,
      "nal": 3252,
      "ĠEmily": 3253,
      "rict": 3254,
      "Ġbeyond": 3255,
      "Ġutil": 3256,
      "verage": 3257,
      "ĠEurope": 3258,
      "ission": 3259,
      "Ġrunning": 3260,
      "sequ": 3261,
      "Ġserving": 3262,
      "Ġsmart": 3263,
      "Ġword": 3264,
      "ulate": 3265,
      "not": 3266,
      "ado": 3267,
      "inating": 3268,
      "Ġsort": 3269,
      "Inst": 3270,
      "Ġproduce": 3271,
      "Ġexperienced": 3272,
      "ĠPr": 3273,
      "att": 3274,
      "Ġfamous": 3275,
      "Ġmor": 3276,
      "Ġsoon": 3277,
      "Ġlab": 3278,
      "Ġcorre": 3279,
      "sych": 3280,
      "Ex": 3281,
      "inks": 3282,
      "Ġvivid": 3283,
      "rought": 3284,
      "Ġmatch": 3285,
      "Ġwasn": 3286,
      "su": 3287,
      "ĠRo": 3288,
      "ena": 3289,
      "Ġoffic": 3290,
      "With": 3291,
      "Ġidentity": 3292,
      "Ġroll": 3293,
      "Ġevalu": 3294,
      "chools": 3295,
      "Ġinterests": 3296,
      "En": 3297,
      "Ġdepending": 3298,
      "Ġforms": 3299,
      "iles": 3300,
      "ervation": 3301,
      "Ġrelig": 3302,
      "Ġfashion": 3303,
      "Ġflavors": 3304,
      "Ġsingle": 3305,
      "ĠAfric": 3306,
      "rition": 3307,
      "atory": 3308,
      "ĠTw": 3309,
      "Ġbra": 3310,
      "Ġfu": 3311,
      "ĠAg": 3312,
      "Ġdead": 3313,
      "Ġloyal": 3314,
      "Ġ15": 3315,
      "ronic": 3316,
      "Ġallowed": 3317,
      "Ġwoman": 3318,
      "othing": 3319,
      "rad": 3320,
      "Ġrestaurant": 3321,
      "Ġreality": 3322,
      "Ġinfluence": 3323,
      "lude": 3324,
      "Ġimpacts": 3325,
      "Ġauthent": 3326,
      "Ġvisitors": 3327,
      "Ġfeelings": 3328,
      "Ġremove": 3329,
      "Ġrequires": 3330,
      "Ġoutcomes": 3331,
      "Ġincred": 3332,
      "Ġcollection": 3333,
      "Ġsection": 3334,
      "Ġroad": 3335,
      "Ġhor": 3336,
      "pre": 3337,
      "',": 3338,
      "oon": 3339,
      "Ġimplementing": 3340,
      "Ġwon": 3341,
      "ibr": 3342,
      "Ġexpand": 3343,
      "ĠAlex": 3344,
      "Ġshape": 3345,
      "Ġoptimize": 3346,
      "ĠOverall": 3347,
      "Ġanalyze": 3348,
      "Ġsuit": 3349,
      "Ġrequirements": 3350,
      "Ġindustries": 3351,
      "Ġinitiatives": 3352,
      "ban": 3353,
      "Ġsoup": 3354,
      "eper": 3355,
      "Ġcollaboration": 3356,
      "Ġresil": 3357,
      "Ġchat": 3358,
      "imp": 3359,
      "rig": 3360,
      "Ġinnovative": 3361,
      "cl": 3362,
      "Ġfasc": 3363,
      "my": 3364,
      "ĠTake": 3365,
      "ĠInt": 3366,
      "bor": 3367,
      "Ġrad": 3368,
      "Ġpatient": 3369,
      "Ġscreen": 3370,
      "Ġmass": 3371,
      "Ġsubject": 3372,
      "Ġadvertising": 3373,
      "Ġmemory": 3374,
      "Ġrecipes": 3375,
      "Ġsharing": 3376,
      "Ġsand": 3377,
      "Ġcomfortable": 3378,
      "ux": 3379,
      "Ġfast": 3380,
      "house": 3381,
      "Ġban": 3382,
      "Ġlimit": 3383,
      "arc": 3384,
      "Ġage": 3385,
      "Ġtrends": 3386,
      "Ġpropos": 3387,
      "Ġprec": 3388,
      "lut": 3389,
      "Ġtail": 3390,
      "Ġteac": 3391,
      "Ġsky": 3392,
      "Ġthreat": 3393,
      "Ġcompon": 3394,
      "Ġformat": 3395,
      "Ġwonder": 3396,
      "Ġbi": 3397,
      "ĠFace": 3398,
      "Ġans": 3399,
      "Ġinvestment": 3400,
      "Ġassess": 3401,
      "Ġgarden": 3402,
      "12": 3403,
      "Ġalone": 3404,
      "Ġlink": 3405,
      "Ġstudent": 3406,
      "Ġshown": 3407,
      "Ġworkout": 3408,
      "Ġadvant": 3409,
      "Ġacademic": 3410,
      "umber": 3411,
      "Ġfra": 3412,
      "coming": 3413,
      "Ġpressure": 3414,
      "ĠStud": 3415,
      "ided": 3416,
      "arian": 3417,
      "Ġspeed": 3418,
      "Ġcooked": 3419,
      "Ġmusc": 3420,
      "Ġaffordable": 3421,
      "Ġi": 3422,
      "Ġready": 3423,
      "ĠMany": 3424,
      "Ġ*": 3425,
      "Ġatmosphere": 3426,
      "PI": 3427,
      "etic": 3428,
      "Ġonto": 3429,
      "Ġclassic": 3430,
      "Ġpassage": 3431,
      "ĠPart": 3432,
      "Ġdiscovered": 3433,
      "ĠDis": 3434,
      "Ġarchitecture": 3435,
      "Ġfinding": 3436,
      "Ġpatients": 3437,
      "Ġleave": 3438,
      "Ġstarting": 3439,
      "Ġsports": 3440,
      "roll": 3441,
      "ĠHis": 3442,
      "Ġrob": 3443,
      "Ġprofession": 3444,
      "Ġoutd": 3445,
      "Ġgradu": 3446,
      "Ġinside": 3447,
      "Ġpict": 3448,
      "ccording": 3449,
      "erns": 3450,
      "Ġsepar": 3451,
      "Ġcomplet": 3452,
      "Ġwritten": 3453,
      "Ġmechan": 3454,
      "oke": 3455,
      "icy": 3456,
      "etry": 3457,
      "Ġupon": 3458,
      "che": 3459,
      "Ġcoc": 3460,
      "Ġlibr": 3461,
      "ĠDevelop": 3462,
      "Ġfinally": 3463,
      "Ġappropriate": 3464,
      "Ġdrive": 3465,
      "Ġenter": 3466,
      "Thank": 3467,
      "mar": 3468,
      "Ġbott": 3469,
      "Ġlarger": 3470,
      "ager": 3471,
      "Con": 3472,
      "Ġblend": 3473,
      "Ġlemon": 3474,
      "Ġscene": 3475,
      "Ġfruit": 3476,
      "dr": 3477,
      "Wh": 3478,
      "ĠStates": 3479,
      "Ġfront": 3480,
      "Ġdeath": 3481,
      "Ġscript": 3482,
      "Ġsoil": 3483,
      "Ġtask": 3484,
      "Ġoutput": 3485,
      "Ġinternational": 3486,
      "icing": 3487,
      "ĠCal": 3488,
      "Ġcop": 3489,
      "ĠNational": 3490,
      "Ġexpected": 3491,
      "Ġparticular": 3492,
      "Ġdesired": 3493,
      "ĠChoose": 3494,
      "Ġlength": 3495,
      "Ġissue": 3496,
      "Ġpush": 3497,
      "overy": 3498,
      "words": 3499,
      "Ġsustainability": 3500,
      "Ġtruly": 3501,
      "Ġconstruction": 3502,
      "lam": 3503,
      "Ġblood": 3504,
      "Ġtone": 3505,
      "AS": 3506,
      "Ġmoments": 3507,
      "ung": 3508,
      "ĠPe": 3509,
      "Ġpassion": 3510,
      "Ġimpress": 3511,
      "Ġreaders": 3512,
      "Ġinstance": 3513,
      "Ġtree": 3514,
      "Ġmyself": 3515,
      "ounter": 3516,
      "faction": 3517,
      "Ġheld": 3518,
      "Ġdocument": 3519,
      "Ġincluded": 3520,
      "Ġexploring": 3521,
      "Ġvolunte": 3522,
      "Ġhol": 3523,
      "oost": 3524,
      "aced": 3525,
      "Ġwanted": 3526,
      "ifications": 3527,
      "Ġplaying": 3528,
      "Ġeffectiveness": 3529,
      "Ġsubs": 3530,
      "Ġyet": 3531,
      "Ġensuring": 3532,
      "Ġteaspoon": 3533,
      "Ġveh": 3534,
      "Ġcuis": 3535,
      "ĠDr": 3536,
      "Ġinj": 3537,
      "abilities": 3538,
      "ĠHealth": 3539,
      "Ġconvey": 3540,
      "Ġrevenue": 3541,
      "Ġarticle": 3542,
      "load": 3543,
      "Ġsummary": 3544,
      "Ġdeeper": 3545,
      "Ġdevice": 3546,
      "Ġfully": 3547,
      "Ġlooked": 3548,
      "ded": 3549,
      "30": 3550,
      "Ġdifference": 3551,
      "Ġtechnique": 3552,
      "Ġeye": 3553,
      "Ġsolution": 3554,
      "Ġworth": 3555,
      "Ġsignificance": 3556,
      "Ġfamilies": 3557,
      "Ġonion": 3558,
      "ourage": 3559,
      "Ġactions": 3560,
      "Ġmaxim": 3561,
      "illa": 3562,
      "ĠGr": 3563,
      "ĠUs": 3564,
      "Ġeffort": 3565,
      "ĠGree": 3566,
      "Ġparts": 3567,
      "Ġgrowing": 3568,
      "rew": 3569,
      "Ġspent": 3570,
      "Ġfeet": 3571,
      "Ġcyc": 3572,
      "Ġbed": 3573,
      "Ġrain": 3574,
      "Ġagricult": 3575,
      "Ġaffected": 3576,
      "Ġthird": 3577,
      "Ġstri": 3578,
      "Ġerror": 3579,
      "ĠFacebook": 3580,
      "Ġappreciate": 3581,
      "Ġconsid": 3582,
      "Ġdate": 3583,
      "('": 3584,
      "Ġpresence": 3585,
      "ellig": 3586,
      "ppers": 3587,
      "Ġvisually": 3588,
      "Ġdeg": 3589,
      "Ġcombination": 3590,
      "AT": 3591,
      "Ġimmers": 3592,
      "Ġlatest": 3593,
      "idents": 3594,
      "ara": 3595,
      "Ġpark": 3596,
      "Ġheard": 3597,
      "key": 3598,
      "cean": 3599,
      "Ġdamage": 3600,
      "Ġwid": 3601,
      "Ġrock": 3602,
      "Ġregularly": 3603,
      "Ġdecisions": 3604,
      "Ġtypically": 3605,
      "ample": 3606,
      "Ġchocolate": 3607,
      "ĠArt": 3608,
      "rief": 3609,
      "ume": 3610,
      "ĠAfter": 3611,
      "Ġrespond": 3612,
      "oint": 3613,
      "Ġsituation": 3614,
      "Ġcand": 3615,
      "Ġwine": 3616,
      "ured": 3617,
      "When": 3618,
      "Ġinfluenced": 3619,
      "Ġconcerns": 3620,
      "unning": 3621,
      "Ġgratitude": 3622,
      "15": 3623,
      "Ġalign": 3624,
      "overs": 3625,
      "ES": 3626,
      "Ġdefinitely": 3627,
      "Ġtax": 3628,
      "edi": 3629,
      "ĠRec": 3630,
      "Ġdisord": 3631,
      "gredients": 3632,
      "Ġglass": 3633,
      "Ġseeds": 3634,
      "Ġevidence": 3635,
      "ctions": 3636,
      "Ġcreativity": 3637,
      "ĠAss": 3638,
      "Ġbenefit": 3639,
      "aim": 3640,
      "Ġeco": 3641,
      "Ġprice": 3642,
      "Ġdou": 3643,
      "Ġwomen": 3644,
      "Here": 3645,
      "etimes": 3646,
      "ĠQu": 3647,
      "Ġthinking": 3648,
      "Ġdeal": 3649,
      "Ġturned": 3650,
      "Ġaccur": 3651,
      "Ġjoy": 3652,
      "Ġschools": 3653,
      "Ġtalk": 3654,
      "agonist": 3655,
      "Ġdiv": 3656,
      "pected": 3657,
      "ĠWorld": 3658,
      "Ġretail": 3659,
      "Ġdisease": 3660,
      "Ġsea": 3661,
      "Ġblock": 3662,
      "Ġshowcase": 3663,
      "Ġspecies": 3664,
      "Ġregard": 3665,
      "Th": 3666,
      "Ġoperations": 3667,
      "Ġhalf": 3668,
      "Â°": 3669,
      "Ġexecut": 3670,
      "Ġreve": 3671,
      "Ġherbs": 3672,
      "Ġice": 3673,
      "ums": 3674,
      "Ġtopics": 3675,
      "Ġinstru": 3676,
      "Ġdetermine": 3677,
      "Int": 3678,
      "Ġtracking": 3679,
      "enn": 3680,
      "Ġfa": 3681,
      "Ġbuildings": 3682,
      "Ġlater": 3683,
      "Ġdeliver": 3684,
      "Ġearth": 3685,
      "Ġemployee": 3686,
      "inc": 3687,
      "Ġsmaller": 3688,
      "Ġproperties": 3689,
      "Ġaccept": 3690,
      "Ġreading": 3691,
      "ffect": 3692,
      "Ġschedule": 3693,
      "Ġsupply": 3694,
      "Ġslight": 3695,
      "rench": 3696,
      "Another": 3697,
      "amb": 3698,
      "Ġprocesses": 3699,
      "idden": 3700,
      "Ġmission": 3701,
      "Ġmodels": 3702,
      "Ġbatter": 3703,
      "Ġsatisfaction": 3704,
      "Ġrisks": 3705,
      "Ġfive": 3706,
      "ĠKeep": 3707,
      "Ġcast": 3708,
      "Ġlack": 3709,
      "Ġprotagonist": 3710,
      "Ġteams": 3711,
      "Your": 3712,
      "Ġboard": 3713,
      "Ġhoney": 3714,
      "Ġdiverse": 3715,
      "Ġcold": 3716,
      "lies": 3717,
      "Ġaccessible": 3718,
      "Ġtot": 3719,
      "Ġalternative": 3720,
      "Ġstret": 3721,
      "Ġmonth": 3722,
      "onut": 3723,
      "Ġframe": 3724,
      "Ġhimself": 3725,
      "Ġcompos": 3726,
      "gment": 3727,
      "Ġbrain": 3728,
      "Ġhon": 3729,
      "Ġvalid": 3730,
      "Ġinvolve": 3731,
      "Ġpolicy": 3732,
      "ĠRemember": 3733,
      "ĠGu": 3734,
      "Ġri": 3735,
      "Ġanyone": 3736,
      "Ġhop": 3737,
      "ĠMon": 3738,
      "Ġvict": 3739,
      "Ġmit": 3740,
      "Ġdatab": 3741,
      "inated": 3742,
      "Ġrather": 3743,
      "Ġremember": 3744,
      "Ġcourses": 3745,
      "gr": 3746,
      "ĠInstagram": 3747,
      "________": 3748,
      "Ġconsidered": 3749,
      "Ġnumer": 3750,
      "rel": 3751,
      "itter": 3752,
      "Ġreceived": 3753,
      "het": 3754,
      "Ġlines": 3755,
      "Ġstaff": 3756,
      "://": 3757,
      "AN": 3758,
      "works": 3759,
      "Ġchannels": 3760,
      "lines": 3761,
      "Ġtrade": 3762,
      "itary": 3763,
      "tenance": 3764,
      "Ġsignificantly": 3765,
      "ĠCom": 3766,
      "Ġtrip": 3767,
      "ister": 3768,
      "inger": 3769,
      "Ġmuse": 3770,
      "ka": 3771,
      "Ġcuisine": 3772,
      "Ġtea": 3773,
      "Ġprompt": 3774,
      "Ġfab": 3775,
      "Ġsliced": 3776,
      "Ġadvice": 3777,
      "ules": 3778,
      "ĠTechn": 3779,
      "Ġspices": 3780,
      "itute": 3781,
      "ought": 3782,
      "more": 3783,
      "Ġexhib": 3784,
      "Ġregions": 3785,
      "Ġletter": 3786,
      "Ġpal": 3787,
      "iber": 3788,
      "icated": 3789,
      "Ġdough": 3790,
      "Ġgrew": 3791,
      "Ingredients": 3792,
      "Ġkn": 3793,
      "ĠEl": 3794,
      "Ġremote": 3795,
      "Ġneigh": 3796,
      "rupt": 3797,
      "Ġweeks": 3798,
      "ognitive": 3799,
      "Ġdiscover": 3800,
      "Ġreader": 3801,
      "Ġstruggles": 3802,
      "Ġanalytics": 3803,
      "ĠPar": 3804,
      "ended": 3805,
      "Ġpartner": 3806,
      "ĠStart": 3807,
      "ĠReg": 3808,
      "ifically": 3809,
      "ĠĠĠĠĠĠĠĠĠĠĠĠĠĠĠĠ": 3810,
      "Ġgiving": 3811,
      "Ġgeneral": 3812,
      "Ġobjects": 3813,
      "Ġkit": 3814,
      "Ġtow": 3815,
      "Ġprefer": 3816,
      "Ġshel": 3817,
      "ither": 3818,
      "Ġpainting": 3819,
      "Ġobstacles": 3820,
      "Ġdepression": 3821,
      "ball": 3822,
      "list": 3823,
      "Ġevol": 3824,
      "Ġinitial": 3825,
      "Ġbrought": 3826,
      "iam": 3827,
      "Ġharm": 3828,
      "Ġleads": 3829,
      "Ġrelease": 3830,
      "Ġoccur": 3831,
      "Ġheavy": 3832,
      "ĠFl": 3833,
      "uries": 3834,
      "ĠFinally": 3835,
      "Ġspr": 3836,
      "ĠResearch": 3837,
      "Ġclasses": 3838,
      "Ġdynam": 3839,
      "ĠHigh": 3840,
      "like": 3841,
      "Ġworkers": 3842,
      "Ġstop": 3843,
      "Ġplastic": 3844,
      "Ġdeb": 3845,
      "Ġsatisf": 3846,
      "ĠRep": 3847,
      "ivil": 3848,
      "Ġalmond": 3849,
      "Ġtomatoes": 3850,
      "Ġdistance": 3851,
      "Ġcups": 3852,
      "Ġphotos": 3853,
      "Ġhosp": 3854,
      "porary": 3855,
      "Ġreduced": 3856,
      "Ġserved": 3857,
      "Ġbox": 3858,
      "Ġ/": 3859,
      "Ġoffice": 3860,
      "Ġflowers": 3861,
      "Ġpsych": 3862,
      "Ġdepth": 3863,
      "fit": 3864,
      "ĠBr": 3865,
      "Ġpercent": 3866,
      "ken": 3867,
      "ini": 3868,
      "Ġrecyc": 3869,
      "used": 3870,
      "Ġcells": 3871,
      "Ġprofessionals": 3872,
      "ĠBar": 3873,
      "vest": 3874,
      "iration": 3875,
      "Ġfunding": 3876,
      "Ġcities": 3877,
      "Ġcultures": 3878,
      "ĠPer": 3879,
      "Em": 3880,
      "Ġ.": 3881,
      "Ġbeef": 3882,
      "ipped": 3883,
      "Ġexpos": 3884,
      "ĠCommun": 3885,
      "Ġfro": 3886,
      "ĠOff": 3887,
      "Ġsituations": 3888,
      "Ġcancer": 3889,
      "Ġplanet": 3890,
      "Ġadopt": 3891,
      "Ġconsequ": 3892,
      "Ġdom": 3893,
      "Ġboost": 3894,
      "enses": 3895,
      "Ġimplementation": 3896,
      "Ġdelivery": 3897,
      "Ġcorrect": 3898,
      "Ġtheme": 3899,
      "EN": 3900,
      "Ġmother": 3901,
      "Ġplayer": 3902,
      "iding": 3903,
      "force": 3904,
      "Ġcoming": 3905,
      "Ġchanging": 3906,
      "Ġintric": 3907,
      "AC": 3908,
      "Ġcompared": 3909,
      "EO": 3910,
      "Ġproperly": 3911,
      "ĠSouth": 3912,
      "que": 3913,
      "Ġplaces": 3914,
      "Ġorganic": 3915,
      "He": 3916,
      "Ġvi": 3917,
      "Ġhistorical": 3918,
      "Ġbelieved": 3919,
      "ief": 3920,
      "dom": 3921,
      "rs": 3922,
      "Ġmaintaining": 3923,
      "Ġahead": 3924,
      "Ġmist": 3925,
      "ĠPre": 3926,
      "Ġcro": 3927,
      "rug": 3928,
      "Ġcomputer": 3929,
      "Ġclient": 3930,
      "Ġcatch": 3931,
      "Ġapply": 3932,
      "Ġvegetable": 3933,
      "Ġcrisp": 3934,
      "ĠIntern": 3935,
      "Ġincent": 3936,
      "Ġapps": 3937,
      "Ġleaving": 3938,
      "otes": 3939,
      "ĠFe": 3940,
      "Pro": 3941,
      "ateful": 3942,
      "Ġcollege": 3943,
      "Ġdirectly": 3944,
      "Ġresilience": 3945,
      "Ġchance": 3946,
      "Ġrise": 3947,
      "chen": 3948,
      "Ġtechnical": 3949,
      "Ġmood": 3950,
      "Ġsets": 3951,
      "ĠMarketing": 3952,
      "Ġic": 3953,
      "ĠTheir": 3954,
      "Ġalgorithm": 3955,
      "ellow": 3956,
      "Ġnarr": 3957,
      "Ġanalyz": 3958,
      "ava": 3959,
      "Ġultimately": 3960,
      "Ġparty": 3961,
      "Ġbelow": 3962,
      "Ġnovel": 3963,
      "ĠCheck": 3964,
      "Ġhous": 3965,
      "Ġfields": 3966,
      "race": 3967,
      "yl": 3968,
      "Ġcross": 3969,
      "Ġcontext": 3970,
      "Ġmeals": 3971,
      "Ġgrand": 3972,
      "Ġintellig": 3973,
      "Ġ100": 3974,
      "Ġprivate": 3975,
      "Ġcompetition": 3976,
      "Ġaspects": 3977,
      "Ġmemories": 3978,
      "ares": 3979,
      "fered": 3980,
      "ĠEns": 3981,
      "Ġalmost": 3982,
      "Ġslightly": 3983,
      "Ġec": 3984,
      "Ġexcept": 3985,
      "duc": 3986,
      "Ġcraft": 3987,
      "Ġpages": 3988,
      "ĠCook": 3989,
      "apter": 3990,
      "Ġcat": 3991,
      "Ġprioritize": 3992,
      "Ġdiscount": 3993,
      "Ġstruct": 3994,
      "Ġcentury": 3995,
      "Ġresponsible": 3996,
      "encies": 3997,
      "onic": 3998,
      "ental": 3999,
      "Ġnutrition": 4000,
      "Ġinde": 4001,
      "Ġoffered": 4002,
      "water": 4003,
      "Ġhidden": 4004,
      "Ġcreates": 4005,
      "lear": 4006,
      "Ġimmedi": 4007,
      "au": 4008,
      "Ġbecoming": 4009,
      "ulner": 4010,
      "Ġnothing": 4011,
      "))": 4012,
      "Ġpick": 4013,
      "Ġsummer": 4014,
      "Ġfoods": 4015,
      "Ġstronger": 4016,
      "Instructions": 4017,
      "akers": 4018,
      "ĠAust": 4019,
      "urance": 4020,
      "Ġappealing": 4021,
      "ĠCity": 4022,
      "ĠPract": 4023,
      "Ġproperty": 4024,
      "Ġsensory": 4025,
      "Ġuseful": 4026,
      "Ġgather": 4027,
      "ply": 4028,
      "Ġbeans": 4029,
      "itors": 4030,
      "Ġtwist": 4031,
      "Ġchanged": 4032,
      "Create": 4033,
      "Ġcompletely": 4034,
      "Ġshad": 4035,
      "Ġincome": 4036,
      "Ġcontrast": 4037,
      "Ġpotatoes": 4038,
      "Ġcry": 4039,
      "gram": 4040,
      "ĠSim": 4041,
      "Ġopp": 4042,
      "Ġeggs": 4043,
      "Ġpet": 4044,
      "Ġconsistent": 4045,
      "ox": 4046,
      "Ġcaused": 4047,
      "].": 4048,
      "Ġwalking": 4049,
      "Ġsessions": 4050,
      "lusive": 4051,
      "uments": 4052,
      "ĠVis": 4053,
      "Ġdriving": 4054,
      "ĠWar": 4055,
      "ublic": 4056,
      "ĠNo": 4057,
      "ups": 4058,
      "urch": 4059,
      "Ġhit": 4060,
      "Ġoutdoor": 4061,
      "Ġinterface": 4062,
      "Ġtotal": 4063,
      "Ġqual": 4064,
      "</": 4065,
      "Ġmonitor": 4066,
      "Ġguidance": 4067,
      "Ġcases": 4068,
      "ably": 4069,
      "Ġmember": 4070,
      "eries": 4071,
      "Ġprepare": 4072,
      "Ġhun": 4073,
      "Ġbuy": 4074,
      "Ġbasic": 4075,
      "Ġinnovation": 4076,
      "Ġyoga": 4077,
      "Ġmaintenance": 4078,
      "Our": 4079,
      "Ġpap": 4080,
      "anging": 4081,
      "Ġvulner": 4082,
      "Ġexpertise": 4083,
      "ĠEach": 4084,
      "Ġretur": 4085,
      "Ġsuccessfully": 4086,
      "Ġoriginal": 4087,
      "Ġconsequences": 4088,
      "Ġdoesn": 4089,
      "If": 4090,
      "iver": 4091,
      "uth": 4092,
      "ĠEar": 4093,
      "Ġband": 4094,
      "Ġrecommended": 4095
    },
    "merges": [
      [
        "Ġ",
        "t"
      ],
      [
        "Ġ",
        "a"
      ],
      [
        "i",
        "n"
      ],
      [
        "h",
        "e"
      ],
      [
        "r",
        "e"
      ],
      [
        "Ġ",
        "s"
      ],
      [
        "o",
        "n"
      ],
      [
        "Ġt",
        "he"
      ],
      [
        "e",
        "r"
      ],
      [
        "n",
        "d"
      ],
      [
        "a",
        "t"
      ],
      [
        "Ġ",
        "c"
      ],
      [
        "o",
        "r"
      ],
      [
        "e",
        "s"
      ],
      [
        "e",
        "n"
      ],
      [
        "Ġ",
        "w"
      ],
      [
        "o",
        "u"
      ],
      [
        "in",
        "g"
      ],
      [
        "i",
        "t"
      ],
      [
        "Ġ",
        "p"
      ],
      [
        "Ġa",
        "nd"
      ],
      [
        "a",
        "n"
      ],
      [
        "Ġ",
        "f"
      ],
      [
        "Ġ",
        "o"
      ],
      [
        "a",
        "l"
      ],
      [
        "i",
        "s"
      ],
      [
        "Ġ",
        "m"
      ],
      [
        "Ġt",
        "o"
      ],
      [
        "Ġ",
        "b"
      ],
      [
        "e",
        "d"
      ],
      [
        "Ġ",
        "in"
      ],
      [
        "a",
        "r"
      ],
      [
        "i",
        "on"
      ],
      [
        "Ġo",
        "f"
      ],
      [
        "i",
        "c"
      ],
      [
        "Ġ",
        "d"
      ],
      [
        "a",
        "s"
      ],
      [
        "l",
        "e"
      ],
      [
        "r",
        "o"
      ],
      [
        "Ġ",
        "h"
      ],
      [
        "u",
        "s"
      ],
      [
        "Ġ",
        "e"
      ],
      [
        "en",
        "t"
      ],
      [
        "Ġt",
        "h"
      ],
      [
        "o",
        "m"
      ],
      [
        "v",
        "e"
      ],
      [
        "Ġ",
        "re"
      ],
      [
        "c",
        "t"
      ],
      [
        "i",
        "l"
      ],
      [
        "Ġ",
        "l"
      ],
      [
        "Ġ",
        "y"
      ],
      [
        "e",
        "t"
      ],
      [
        "Ġ",
        "g"
      ],
      [
        "Ġy",
        "ou"
      ],
      [
        "i",
        "m"
      ],
      [
        "r",
        "a"
      ],
      [
        "Ġ",
        "T"
      ],
      [
        "i",
        "d"
      ],
      [
        "o",
        "w"
      ],
      [
        "Ġ",
        "n"
      ],
      [
        "c",
        "e"
      ],
      [
        "c",
        "h"
      ],
      [
        "Ġf",
        "or"
      ],
      [
        "at",
        "ion"
      ],
      [
        "e",
        "l"
      ],
      [
        "Ġ",
        "Ġ"
      ],
      [
        "Ġs",
        "t"
      ],
      [
        "Ġ",
        "he"
      ],
      [
        "o",
        "l"
      ],
      [
        "Ġth",
        "at"
      ],
      [
        "s",
        "t"
      ],
      [
        "i",
        "g"
      ],
      [
        "Ġ",
        "on"
      ],
      [
        "it",
        "h"
      ],
      [
        "Ġp",
        "ro"
      ],
      [
        "er",
        "s"
      ],
      [
        "l",
        "y"
      ],
      [
        "i",
        "r"
      ],
      [
        "Ġb",
        "e"
      ],
      [
        "u",
        "t"
      ],
      [
        "o",
        "t"
      ],
      [
        "Ġ",
        "I"
      ],
      [
        "Ġw",
        "ith"
      ],
      [
        "a",
        "m"
      ],
      [
        "Ġ",
        "is"
      ],
      [
        "a",
        "d"
      ],
      [
        "u",
        "r"
      ],
      [
        "i",
        "f"
      ],
      [
        "a",
        "y"
      ],
      [
        "is",
        "t"
      ],
      [
        "u",
        "l"
      ],
      [
        "an",
        "t"
      ],
      [
        "|",
        ">"
      ],
      [
        "<",
        "|"
      ],
      [
        "Ġ",
        "S"
      ],
      [
        "es",
        "s"
      ],
      [
        "v",
        "er"
      ],
      [
        "s",
        "e"
      ],
      [
        "u",
        "n"
      ],
      [
        "Ġ",
        "or"
      ],
      [
        "Ġ",
        "A"
      ],
      [
        "Ġc",
        "an"
      ],
      [
        "Ġe",
        "x"
      ],
      [
        "u",
        "re"
      ],
      [
        "Ġc",
        "on"
      ],
      [
        "at",
        "e"
      ],
      [
        "Ġ",
        "C"
      ],
      [
        "Ġ",
        "it"
      ],
      [
        "Ġa",
        "s"
      ],
      [
        "a",
        "g"
      ],
      [
        "Ġa",
        "l"
      ],
      [
        "Ġa",
        "n"
      ],
      [
        "m",
        "ent"
      ],
      [
        "o",
        "re"
      ],
      [
        "k",
        "e"
      ],
      [
        "ĠT",
        "he"
      ],
      [
        "p",
        "p"
      ],
      [
        "a",
        "b"
      ],
      [
        "Ġa",
        "re"
      ],
      [
        "Ġs",
        "u"
      ],
      [
        "Ġc",
        "om"
      ],
      [
        "ou",
        "t"
      ],
      [
        "i",
        "ve"
      ],
      [
        "Ġ",
        "us"
      ],
      [
        "Ġw",
        "h"
      ],
      [
        "i",
        "es"
      ],
      [
        "e",
        "re"
      ],
      [
        "l",
        "d"
      ],
      [
        "Ġ",
        "v"
      ],
      [
        "o",
        "o"
      ],
      [
        "it",
        "y"
      ],
      [
        "he",
        "r"
      ],
      [
        "i",
        "v"
      ],
      [
        "p",
        "e"
      ],
      [
        "'",
        "s"
      ],
      [
        "Ġyou",
        "r"
      ],
      [
        "as",
        "s"
      ],
      [
        "t",
        "er"
      ],
      [
        "Ġd",
        "e"
      ],
      [
        "Ġc",
        "h"
      ],
      [
        "a",
        "c"
      ],
      [
        "q",
        "u"
      ],
      [
        "il",
        "l"
      ],
      [
        "o",
        "c"
      ],
      [
        "or",
        "t"
      ],
      [
        "Ġh",
        "a"
      ],
      [
        "es",
        "t"
      ],
      [
        "u",
        "d"
      ],
      [
        "Ġ",
        "en"
      ],
      [
        "Ġthe",
        "ir"
      ],
      [
        "a",
        "in"
      ],
      [
        "ig",
        "h"
      ],
      [
        "ou",
        "r"
      ],
      [
        "us",
        "t"
      ],
      [
        "e",
        "m"
      ],
      [
        "Ġn",
        "e"
      ],
      [
        "Ġs",
        "e"
      ],
      [
        "Ġ",
        "M"
      ],
      [
        "Ġ",
        "H"
      ],
      [
        "Ġw",
        "as"
      ],
      [
        "i",
        "al"
      ],
      [
        "om",
        "e"
      ],
      [
        "t",
        "h"
      ],
      [
        "o",
        "p"
      ],
      [
        "Ġa",
        "d"
      ],
      [
        "Ġs",
        "h"
      ],
      [
        "Ġ",
        "im"
      ],
      [
        "Ġ",
        "le"
      ],
      [
        "e",
        "ct"
      ],
      [
        "r",
        "i"
      ],
      [
        "Ġ",
        "P"
      ],
      [
        "Ġ",
        "B"
      ],
      [
        "ou",
        "ld"
      ],
      [
        "id",
        "e"
      ],
      [
        "i",
        "z"
      ],
      [
        "ion",
        "s"
      ],
      [
        "al",
        "l"
      ],
      [
        "re",
        "s"
      ],
      [
        "u",
        "m"
      ],
      [
        "r",
        "ou"
      ],
      [
        "p",
        "l"
      ],
      [
        "n",
        "t"
      ],
      [
        "Ġm",
        "ore"
      ],
      [
        "Ġ",
        "r"
      ],
      [
        "ar",
        "t"
      ],
      [
        "Ġw",
        "or"
      ],
      [
        "Ġa",
        "b"
      ],
      [
        "o",
        "s"
      ],
      [
        "Ġin",
        "c"
      ],
      [
        "ist",
        "ant"
      ],
      [
        "ĠĠ",
        "ĠĠ"
      ],
      [
        "ro",
        "m"
      ],
      [
        "p",
        "t"
      ],
      [
        "Ġp",
        "l"
      ],
      [
        "Ġt",
        "e"
      ],
      [
        "d",
        "u"
      ],
      [
        "ag",
        "e"
      ],
      [
        "us",
        "er"
      ],
      [
        "p",
        "er"
      ],
      [
        "ass",
        "istant"
      ],
      [
        "Ġha",
        "ve"
      ],
      [
        "igh",
        "t"
      ],
      [
        "k",
        "ing"
      ],
      [
        "Ġim",
        "p"
      ],
      [
        "f",
        "f"
      ],
      [
        "Ġin",
        "t"
      ],
      [
        "a",
        "nd"
      ],
      [
        "a",
        "ct"
      ],
      [
        "Ġb",
        "y"
      ],
      [
        "Ġa",
        "t"
      ],
      [
        "Ġ",
        "W"
      ],
      [
        "Ġw",
        "e"
      ],
      [
        "Ġhe",
        "r"
      ],
      [
        "Ġ",
        "u"
      ],
      [
        "Ġf",
        "e"
      ],
      [
        "a",
        "re"
      ],
      [
        "e",
        "nd"
      ],
      [
        "o",
        "d"
      ],
      [
        "i",
        "p"
      ],
      [
        "g",
        "h"
      ],
      [
        "Ġf",
        "rom"
      ],
      [
        "Ġ",
        "F"
      ],
      [
        "or",
        "m"
      ],
      [
        "Ġ",
        "D"
      ],
      [
        "Ġ",
        "E"
      ],
      [
        "Ġm",
        "e"
      ],
      [
        "a",
        "ke"
      ],
      [
        "g",
        "e"
      ],
      [
        "ab",
        "le"
      ],
      [
        "Ġ",
        "R"
      ],
      [
        "re",
        "at"
      ],
      [
        "in",
        "e"
      ],
      [
        "as",
        "t"
      ],
      [
        "o",
        "g"
      ],
      [
        "Ġhe",
        "l"
      ],
      [
        "ig",
        "n"
      ],
      [
        "i",
        "e"
      ],
      [
        "Ġcom",
        "p"
      ],
      [
        "Ġhel",
        "p"
      ],
      [
        "t",
        "her"
      ],
      [
        "c",
        "c"
      ],
      [
        "Ġthe",
        "y"
      ],
      [
        "Ġs",
        "ome"
      ],
      [
        "ation",
        "s"
      ],
      [
        "â",
        "Ģ"
      ],
      [
        "f",
        "orm"
      ],
      [
        "an",
        "ce"
      ],
      [
        "in",
        "d"
      ],
      [
        "el",
        "l"
      ],
      [
        "r",
        "u"
      ],
      [
        "Ġ",
        "1"
      ],
      [
        "Ġcon",
        "t"
      ],
      [
        "k",
        "s"
      ],
      [
        "ar",
        "d"
      ],
      [
        "Ġpro",
        "v"
      ],
      [
        "s",
        "o"
      ],
      [
        "r",
        "y"
      ],
      [
        "Ġ",
        "j"
      ],
      [
        "a",
        "ch"
      ],
      [
        "h",
        "is"
      ],
      [
        "Ġ",
        "L"
      ],
      [
        "Ġ",
        "un"
      ],
      [
        "en",
        "ce"
      ],
      [
        "ic",
        "al"
      ],
      [
        "ul",
        "t"
      ],
      [
        "o",
        "st"
      ],
      [
        "a",
        "il"
      ],
      [
        "Ġh",
        "as"
      ],
      [
        "Ġ",
        "k"
      ],
      [
        "Ġad",
        "d"
      ],
      [
        "ve",
        "l"
      ],
      [
        "Ġh",
        "ow"
      ],
      [
        "a",
        "v"
      ],
      [
        "Ġre",
        "s"
      ],
      [
        "e",
        "p"
      ],
      [
        "ou",
        "s"
      ],
      [
        "Ġab",
        "out"
      ],
      [
        "ac",
        "k"
      ],
      [
        "Ġc",
        "l"
      ],
      [
        "T",
        "he"
      ],
      [
        "ic",
        "e"
      ],
      [
        "Ġthe",
        "m"
      ],
      [
        "Ġal",
        "so"
      ],
      [
        "Ġ",
        "G"
      ],
      [
        "Ġh",
        "ad"
      ],
      [
        "it",
        "ion"
      ],
      [
        "Ġal",
        "l"
      ],
      [
        "Ġt",
        "ra"
      ],
      [
        "ic",
        "h"
      ],
      [
        "Ġa",
        "pp"
      ],
      [
        "Ġo",
        "ther"
      ],
      [
        "as",
        "e"
      ],
      [
        "Ġ",
        "("
      ],
      [
        "Ġd",
        "is"
      ],
      [
        "c",
        "es"
      ],
      [
        "oo",
        "d"
      ],
      [
        "Ġw",
        "ill"
      ],
      [
        "ent",
        "s"
      ],
      [
        "Ġe",
        "m"
      ],
      [
        "if",
        "ic"
      ],
      [
        "Ġth",
        "is"
      ],
      [
        "l",
        "ud"
      ],
      [
        "at",
        "ed"
      ],
      [
        "im",
        "e"
      ],
      [
        "Ġ",
        "\""
      ],
      [
        "Ġ",
        "2"
      ],
      [
        "an",
        "s"
      ],
      [
        "Ġb",
        "ut"
      ],
      [
        "Ġ",
        "out"
      ],
      [
        "res",
        "s"
      ],
      [
        "a",
        "ce"
      ],
      [
        "Ġl",
        "i"
      ],
      [
        "on",
        "g"
      ],
      [
        "Ġs",
        "p"
      ],
      [
        "Ġs",
        "he"
      ],
      [
        "ĠT",
        "his"
      ],
      [
        "it",
        "e"
      ],
      [
        "Ġn",
        "ot"
      ],
      [
        "Ġ",
        "O"
      ],
      [
        "Ġm",
        "an"
      ],
      [
        "Ġu",
        "p"
      ],
      [
        "i",
        "re"
      ],
      [
        "Ġw",
        "he"
      ],
      [
        "Ġ",
        "N"
      ],
      [
        "Ġa",
        "r"
      ],
      [
        "Ġinc",
        "lud"
      ],
      [
        "al",
        "ly"
      ],
      [
        "Ġs",
        "pe"
      ],
      [
        "ct",
        "ion"
      ],
      [
        "Ġsu",
        "ch"
      ],
      [
        "n",
        "e"
      ],
      [
        "i",
        "le"
      ],
      [
        "Ġ",
        "U"
      ],
      [
        "ar",
        "k"
      ],
      [
        "or",
        "s"
      ],
      [
        "Ġe",
        "v"
      ],
      [
        "Ġs",
        "c"
      ],
      [
        "Ġre",
        "c"
      ],
      [
        "f",
        "ul"
      ],
      [
        "i",
        "b"
      ],
      [
        "Ġwh",
        "ich"
      ],
      [
        "Ġus",
        "e"
      ],
      [
        "ĠI",
        "n"
      ],
      [
        "a",
        "k"
      ],
      [
        "g",
        "et"
      ],
      [
        "Ġcom",
        "m"
      ],
      [
        "i",
        "a"
      ],
      [
        "Ġo",
        "ver"
      ],
      [
        "f",
        "ere"
      ],
      [
        "Ġd",
        "es"
      ],
      [
        "Ġ",
        "-"
      ],
      [
        "Ġan",
        "y"
      ],
      [
        "a",
        "p"
      ],
      [
        "on",
        "e"
      ],
      [
        "at",
        "er"
      ],
      [
        "Ġs",
        "o"
      ],
      [
        "ĠĠ",
        "Ġ"
      ],
      [
        "rou",
        "gh"
      ],
      [
        "Ġ",
        "ro"
      ],
      [
        "Ġm",
        "y"
      ],
      [
        "al",
        "s"
      ],
      [
        "Ġ",
        "qu"
      ],
      [
        "Ġ",
        "J"
      ],
      [
        "Ġh",
        "is"
      ],
      [
        "an",
        "g"
      ],
      [
        "u",
        "e"
      ],
      [
        "Ġwh",
        "o"
      ],
      [
        "l",
        "es"
      ],
      [
        "or",
        "y"
      ],
      [
        "it",
        "ies"
      ],
      [
        "Ġp",
        "e"
      ],
      [
        "Ġne",
        "w"
      ],
      [
        "ou",
        "nd"
      ],
      [
        "am",
        "e"
      ],
      [
        "o",
        "ve"
      ],
      [
        "Ġa",
        "cc"
      ],
      [
        "Ġc",
        "re"
      ],
      [
        "ra",
        "m"
      ],
      [
        "ing",
        "s"
      ],
      [
        "Ġd",
        "if"
      ],
      [
        "ĠI",
        "t"
      ],
      [
        "Ġof",
        "f"
      ],
      [
        "Ġli",
        "ke"
      ],
      [
        "Ġp",
        "er"
      ],
      [
        "Ġwor",
        "k"
      ],
      [
        "Ġt",
        "ime"
      ],
      [
        "Ġe",
        "ff"
      ],
      [
        "er",
        "v"
      ],
      [
        "Ġc",
        "ol"
      ],
      [
        "Ġprov",
        "ide"
      ],
      [
        "Ġin",
        "d"
      ],
      [
        "Ġex",
        "am"
      ],
      [
        "Ġp",
        "re"
      ],
      [
        "i",
        "ence"
      ],
      [
        "Ġex",
        "per"
      ],
      [
        "Ġint",
        "o"
      ],
      [
        "il",
        "d"
      ],
      [
        "Ġf",
        "l"
      ],
      [
        "or",
        "d"
      ],
      [
        "ment",
        "s"
      ],
      [
        "ar",
        "y"
      ],
      [
        "Ġm",
        "ake"
      ],
      [
        "ou",
        "nt"
      ],
      [
        "âĢ",
        "Ļ"
      ],
      [
        "oo",
        "k"
      ],
      [
        "Ġit",
        "s"
      ],
      [
        "Ġpro",
        "du"
      ],
      [
        "al",
        "th"
      ],
      [
        "ay",
        "s"
      ],
      [
        "Ġc",
        "ould"
      ],
      [
        "Ġw",
        "ere"
      ],
      [
        "l",
        "ic"
      ],
      [
        "b",
        "s"
      ],
      [
        "Ġg",
        "o"
      ],
      [
        "ch",
        "n"
      ],
      [
        "e",
        "ar"
      ],
      [
        "pp",
        "ort"
      ],
      [
        "Ġp",
        "art"
      ],
      [
        "n",
        "ow"
      ],
      [
        "Ġth",
        "rough"
      ],
      [
        "o",
        "y"
      ],
      [
        "r",
        "ic"
      ],
      [
        "ure",
        "s"
      ],
      [
        "ver",
        "y"
      ],
      [
        "b",
        "er"
      ],
      [
        "Ġspe",
        "c"
      ],
      [
        "Ġd",
        "o"
      ],
      [
        "ra",
        "ct"
      ],
      [
        "Ġs",
        "a"
      ],
      [
        "vel",
        "op"
      ],
      [
        "rou",
        "nd"
      ],
      [
        "i",
        "ous"
      ],
      [
        "Ġm",
        "ed"
      ],
      [
        "Ġs",
        "y"
      ],
      [
        "x",
        "t"
      ],
      [
        "Ġt",
        "r"
      ],
      [
        "en",
        "s"
      ],
      [
        "g",
        "g"
      ],
      [
        "Ġthe",
        "se"
      ],
      [
        "a",
        "king"
      ],
      [
        "ust",
        "om"
      ],
      [
        "er",
        "t"
      ],
      [
        "Ġin",
        "form"
      ],
      [
        "Ġte",
        "chn"
      ],
      [
        "Ġdif",
        "fere"
      ],
      [
        "Ġ",
        "our"
      ],
      [
        "ro",
        "w"
      ],
      [
        "Ġ",
        "Y"
      ],
      [
        "Ġne",
        "ed"
      ],
      [
        "il",
        "ity"
      ],
      [
        "er",
        "g"
      ],
      [
        "in",
        "t"
      ],
      [
        "ic",
        "k"
      ],
      [
        "Ġ",
        "Ċ"
      ],
      [
        "re",
        "e"
      ],
      [
        "Ġst",
        "r"
      ],
      [
        "Ġpro",
        "g"
      ],
      [
        "Ġhe",
        "alth"
      ],
      [
        "n",
        "ess"
      ],
      [
        "at",
        "ing"
      ],
      [
        "c",
        "k"
      ],
      [
        "Ġd",
        "et"
      ],
      [
        "Ġw",
        "ould"
      ],
      [
        "el",
        "y"
      ],
      [
        "Ġs",
        "m"
      ],
      [
        "Ġre",
        "l"
      ],
      [
        "n",
        "ing"
      ],
      [
        "iz",
        "e"
      ],
      [
        "Ġon",
        "e"
      ],
      [
        "ic",
        "es"
      ],
      [
        "p",
        "le"
      ],
      [
        "Ġp",
        "ers"
      ],
      [
        "Ġbe",
        "en"
      ],
      [
        "l",
        "l"
      ],
      [
        "ol",
        "og"
      ],
      [
        "if",
        "e"
      ],
      [
        "ĠS",
        "t"
      ],
      [
        "o",
        "v"
      ],
      [
        "Ġc",
        "ustom"
      ],
      [
        "Ġs",
        "oc"
      ],
      [
        "l",
        "ow"
      ],
      [
        "Ġde",
        "velop"
      ],
      [
        "g",
        "an"
      ],
      [
        "nd",
        "er"
      ],
      [
        "re",
        "d"
      ],
      [
        "w",
        "e"
      ],
      [
        "Ġ",
        "if"
      ],
      [
        "el",
        "f"
      ],
      [
        "Ġthe",
        "re"
      ],
      [
        "Ġcomm",
        "un"
      ],
      [
        "Ġus",
        "ed"
      ],
      [
        "ur",
        "ing"
      ],
      [
        "ul",
        "ar"
      ],
      [
        "on",
        "s"
      ],
      [
        "Ġin",
        "v"
      ],
      [
        "Ġinform",
        "ation"
      ],
      [
        "ark",
        "et"
      ],
      [
        "as",
        "ed"
      ],
      [
        "j",
        "ect"
      ],
      [
        "n",
        "s"
      ],
      [
        "u",
        "b"
      ],
      [
        "Ġk",
        "now"
      ],
      [
        "Ġst",
        "ud"
      ],
      [
        "Ġdiffere",
        "nt"
      ],
      [
        "ip",
        "s"
      ],
      [
        "i",
        "qu"
      ],
      [
        "t",
        "e"
      ],
      [
        "'",
        "t"
      ],
      [
        "Ġc",
        "reat"
      ],
      [
        "o",
        "b"
      ],
      [
        "e",
        "f"
      ],
      [
        "on",
        "d"
      ],
      [
        "c",
        "ess"
      ],
      [
        "ad",
        "e"
      ],
      [
        "r",
        "it"
      ],
      [
        "Ġin",
        "ter"
      ],
      [
        "Ġb",
        "et"
      ],
      [
        "Ġcon",
        "s"
      ],
      [
        "Ġ",
        "3"
      ],
      [
        "o",
        "se"
      ],
      [
        "Ġcre",
        "ate"
      ],
      [
        "ow",
        "er"
      ],
      [
        "Ġus",
        "ing"
      ],
      [
        "Ġsh",
        "ould"
      ],
      [
        "is",
        "h"
      ],
      [
        "an",
        "ge"
      ],
      [
        "p",
        "h"
      ],
      [
        "at",
        "ive"
      ],
      [
        "u",
        "al"
      ],
      [
        "Ġc",
        "o"
      ],
      [
        "0",
        "0"
      ],
      [
        "Ġ",
        "ke"
      ],
      [
        "Ġe",
        "ach"
      ],
      [
        "il",
        "y"
      ],
      [
        "Ġs",
        "erv"
      ],
      [
        "t",
        "ing"
      ],
      [
        "it",
        "s"
      ],
      [
        "en",
        "c"
      ],
      [
        "at",
        "es"
      ],
      [
        "Ġw",
        "ell"
      ],
      [
        "le",
        "ct"
      ],
      [
        "Ġs",
        "k"
      ],
      [
        "i",
        "ent"
      ],
      [
        "Ġa",
        "m"
      ],
      [
        "Ġm",
        "ay"
      ],
      [
        "ou",
        "gh"
      ],
      [
        "f",
        "t"
      ],
      [
        "Ġs",
        "ign"
      ],
      [
        "Ġa",
        "ct"
      ],
      [
        "Ġprodu",
        "ct"
      ],
      [
        "ot",
        "h"
      ],
      [
        "st",
        "em"
      ],
      [
        "I",
        "n"
      ],
      [
        "Ġimp",
        "ro"
      ],
      [
        "in",
        "ess"
      ],
      [
        "Ġprog",
        "ram"
      ],
      [
        "Ġh",
        "igh"
      ],
      [
        "iz",
        "ed"
      ],
      [
        "Ġg",
        "reat"
      ],
      [
        "Ġar",
        "t"
      ],
      [
        "Ġb",
        "u"
      ],
      [
        "C",
        "an"
      ],
      [
        "ĠC",
        "h"
      ],
      [
        "ĠA",
        "d"
      ],
      [
        "at",
        "a"
      ],
      [
        "Ġp",
        "os"
      ],
      [
        "Ġ",
        "K"
      ],
      [
        "Ġpers",
        "on"
      ],
      [
        "is",
        "e"
      ],
      [
        "Ġwh",
        "at"
      ],
      [
        "pl",
        "es"
      ],
      [
        "ĠThe",
        "y"
      ],
      [
        "ent",
        "ial"
      ],
      [
        "Ġb",
        "l"
      ],
      [
        "ic",
        "s"
      ],
      [
        "Ġre",
        "du"
      ],
      [
        "Ġwhe",
        "n"
      ],
      [
        "Ġp",
        "h"
      ],
      [
        "i",
        "et"
      ],
      [
        "Ġsoc",
        "ial"
      ],
      [
        "d",
        "ition"
      ],
      [
        "Ġeff",
        "ect"
      ],
      [
        "Ġm",
        "arket"
      ],
      [
        "Ġin",
        "st"
      ],
      [
        "Ġl",
        "oc"
      ],
      [
        "Ġw",
        "ay"
      ],
      [
        "ol",
        "d"
      ],
      [
        "Ġprov",
        "id"
      ],
      [
        "Ġ",
        "V"
      ],
      [
        "ur",
        "al"
      ],
      [
        "y",
        "s"
      ],
      [
        "ar",
        "ch"
      ],
      [
        "Ġv",
        "ar"
      ],
      [
        "Ġa",
        "g"
      ],
      [
        "Ġdes",
        "ign"
      ],
      [
        "Ġle",
        "ar"
      ],
      [
        "op",
        "le"
      ],
      [
        "Ġwor",
        "ld"
      ],
      [
        "Ġimp",
        "act"
      ],
      [
        "Ġl",
        "ife"
      ],
      [
        "he",
        "s"
      ],
      [
        "Ġsu",
        "pport"
      ],
      [
        "he",
        "d"
      ],
      [
        "Ġat",
        "t"
      ],
      [
        "Ġbe",
        "c"
      ],
      [
        "Ġp",
        "o"
      ],
      [
        "Ġfe",
        "el"
      ],
      [
        "Ġre",
        "m"
      ],
      [
        "Ġo",
        "pt"
      ],
      [
        "en",
        "g"
      ],
      [
        "Ġm",
        "us"
      ],
      [
        "an",
        "c"
      ],
      [
        "erg",
        "y"
      ],
      [
        "w",
        "n"
      ],
      [
        "Ġb",
        "us"
      ],
      [
        "p",
        "ort"
      ],
      [
        "Ġu",
        "nder"
      ],
      [
        "ĠH",
        "ere"
      ],
      [
        "ow",
        "n"
      ],
      [
        "Ġv",
        "is"
      ],
      [
        "Ġen",
        "g"
      ],
      [
        "u",
        "p"
      ],
      [
        "Ġtr",
        "ans"
      ],
      [
        "Ġpe",
        "ople"
      ],
      [
        "Ġinclud",
        "ing"
      ],
      [
        "Ġre",
        "g"
      ],
      [
        "Ġs",
        "et"
      ],
      [
        "Ġsy",
        "stem"
      ],
      [
        "om",
        "m"
      ],
      [
        "Ġle",
        "ad"
      ],
      [
        "Ġ",
        "="
      ],
      [
        "ĠS",
        "he"
      ],
      [
        "Ġp",
        "r"
      ],
      [
        "al",
        "ity"
      ],
      [
        "Ġ",
        "ra"
      ],
      [
        "Ġf",
        "ind"
      ],
      [
        "et",
        "h"
      ],
      [
        "Ġc",
        "he"
      ],
      [
        "re",
        "n"
      ],
      [
        "Ġspec",
        "ific"
      ],
      [
        "t",
        "s"
      ],
      [
        "Ġm",
        "in"
      ],
      [
        "ri",
        "b"
      ],
      [
        "Ġexam",
        "ples"
      ],
      [
        "pe",
        "ct"
      ],
      [
        "Ġ",
        "ve"
      ],
      [
        "ĠH",
        "e"
      ],
      [
        "Ġen",
        "ergy"
      ],
      [
        "Ġb",
        "ack"
      ],
      [
        "Ġd",
        "ata"
      ],
      [
        "ib",
        "le"
      ],
      [
        "at",
        "ure"
      ],
      [
        "Ġs",
        "ur"
      ],
      [
        "en",
        "er"
      ],
      [
        "ri",
        "end"
      ],
      [
        "Ġex",
        "pl"
      ],
      [
        "Ġde",
        "c"
      ],
      [
        "Ġpro",
        "m"
      ],
      [
        "Ġe",
        "very"
      ],
      [
        "ĠĠĠĠ",
        "ĠĠĠ"
      ],
      [
        "i",
        "an"
      ],
      [
        "Ġbus",
        "iness"
      ],
      [
        "Ġp",
        "ot"
      ],
      [
        "Ġwh",
        "ile"
      ],
      [
        "Ġp",
        "ract"
      ],
      [
        "Ġinc",
        "re"
      ],
      [
        "ĠC",
        "an"
      ],
      [
        "Ġst",
        "art"
      ],
      [
        "Ġpl",
        "ay"
      ],
      [
        "Ġwhe",
        "re"
      ],
      [
        "Ġj",
        "ust"
      ],
      [
        "Ġin",
        "s"
      ],
      [
        "f",
        "ore"
      ],
      [
        "Ġw",
        "ater"
      ],
      [
        "ru",
        "ct"
      ],
      [
        "u",
        "es"
      ],
      [
        "Ġman",
        "y"
      ],
      [
        "Ġdet",
        "ail"
      ],
      [
        "Ġch",
        "ar"
      ],
      [
        "Ġth",
        "an"
      ],
      [
        "Ġm",
        "ade"
      ],
      [
        "t",
        "en"
      ],
      [
        "m",
        "s"
      ],
      [
        "olog",
        "y"
      ],
      [
        "iv",
        "es"
      ],
      [
        "Ġc",
        "a"
      ],
      [
        "w",
        "ard"
      ],
      [
        "Ġch",
        "all"
      ],
      [
        "Ġv",
        "al"
      ],
      [
        "h",
        "at"
      ],
      [
        "u",
        "c"
      ],
      [
        "Ġin",
        "f"
      ],
      [
        "Ġsign",
        "ific"
      ],
      [
        "in",
        "k"
      ],
      [
        "l",
        "ed"
      ],
      [
        "ie",
        "w"
      ],
      [
        "an",
        "y"
      ],
      [
        "Ġg",
        "u"
      ],
      [
        "Ġa",
        "v"
      ],
      [
        "iv",
        "id"
      ],
      [
        "Ġf",
        "am"
      ],
      [
        "Ġf",
        "un"
      ],
      [
        "Ġse",
        "e"
      ],
      [
        "Ġall",
        "ow"
      ],
      [
        "Ġexper",
        "ience"
      ],
      [
        "Ġs",
        "al"
      ],
      [
        "ert",
        "ain"
      ],
      [
        "Ġg",
        "et"
      ],
      [
        "id",
        "ent"
      ],
      [
        "Ġp",
        "at"
      ],
      [
        "`",
        "`"
      ],
      [
        "Ġad",
        "v"
      ],
      [
        "Ġm",
        "ost"
      ],
      [
        "en",
        "se"
      ],
      [
        "ĠY",
        "ou"
      ],
      [
        "Ġc",
        "ult"
      ],
      [
        "p",
        "ut"
      ],
      [
        "Ġy",
        "ear"
      ],
      [
        "Ġmed",
        "ia"
      ],
      [
        "ur",
        "n"
      ],
      [
        "is",
        "s"
      ],
      [
        "ir",
        "st"
      ],
      [
        "Ġpro",
        "cess"
      ],
      [
        "Ġb",
        "r"
      ],
      [
        "le",
        "ment"
      ],
      [
        "ion",
        "al"
      ],
      [
        "ol",
        "low"
      ],
      [
        "e",
        "ver"
      ],
      [
        "iqu",
        "e"
      ],
      [
        "Ġc",
        "le"
      ],
      [
        "Ġdis",
        "c"
      ],
      [
        "Ġte",
        "am"
      ],
      [
        "Ġev",
        "en"
      ],
      [
        "Ġfe",
        "w"
      ],
      [
        "cc",
        "ess"
      ],
      [
        "Ġt",
        "y"
      ],
      [
        "ar",
        "s"
      ],
      [
        "e",
        "g"
      ],
      [
        "Ġm",
        "od"
      ],
      [
        "ra",
        "nd"
      ],
      [
        "Ġ",
        "4"
      ],
      [
        "Ġa",
        "c"
      ],
      [
        "ne",
        "w"
      ],
      [
        "Ġse",
        "c"
      ],
      [
        "Ġl",
        "ong"
      ],
      [
        "Ġinclud",
        "e"
      ],
      [
        "in",
        "es"
      ],
      [
        "Ġimpro",
        "ve"
      ],
      [
        "Ġm",
        "ent"
      ],
      [
        "Ġen",
        "s"
      ],
      [
        "our",
        "ces"
      ],
      [
        "ĠH",
        "ow"
      ],
      [
        "am",
        "p"
      ],
      [
        "Ġf",
        "in"
      ],
      [
        "Ġn",
        "um"
      ],
      [
        "l",
        "ine"
      ],
      [
        "ĠU",
        "se"
      ],
      [
        "Ġas",
        "s"
      ],
      [
        "Ġp",
        "ol"
      ],
      [
        "Ġp",
        "ower"
      ],
      [
        "Ġn",
        "o"
      ],
      [
        "oc",
        "us"
      ],
      [
        "Ġe",
        "as"
      ],
      [
        "ol",
        "ut"
      ],
      [
        "st",
        "and"
      ],
      [
        "it",
        "ive"
      ],
      [
        "Ġd",
        "uring"
      ],
      [
        "Ġre",
        "al"
      ],
      [
        "Ġw",
        "ant"
      ],
      [
        "Ġ",
        "5"
      ],
      [
        "Ġha",
        "nd"
      ],
      [
        "ag",
        "es"
      ],
      [
        "Ġo",
        "wn"
      ],
      [
        "Ġ2",
        "0"
      ],
      [
        "Ġf",
        "ound"
      ],
      [
        "Ġsm",
        "all"
      ],
      [
        "Ġ",
        "âĢ"
      ],
      [
        "ir",
        "on"
      ],
      [
        "Ġacc",
        "ess"
      ],
      [
        "ar",
        "m"
      ],
      [
        "Ġre",
        "qu"
      ],
      [
        "Ġt",
        "w"
      ],
      [
        "Ġimp",
        "ort"
      ],
      [
        "Ġbe",
        "fore"
      ],
      [
        "i",
        "x"
      ],
      [
        "Ġsignific",
        "ant"
      ],
      [
        "i",
        "ents"
      ],
      [
        "Ġexam",
        "ple"
      ],
      [
        "Ġg",
        "row"
      ],
      [
        "a",
        "x"
      ],
      [
        "ate",
        "g"
      ],
      [
        "Ġre",
        "t"
      ],
      [
        "ere",
        "d"
      ],
      [
        "Ġf",
        "ollow"
      ],
      [
        "Ġc",
        "ar"
      ],
      [
        "Ġ",
        "ed"
      ],
      [
        "c",
        "on"
      ],
      [
        "Ġt",
        "ake"
      ],
      [
        "Ġor",
        "gan"
      ],
      [
        "Ġbu",
        "ild"
      ],
      [
        "Ġm",
        "em"
      ],
      [
        "rou",
        "p"
      ],
      [
        "Ġex",
        "p"
      ],
      [
        "ĠA",
        "s"
      ],
      [
        "ĠW",
        "e"
      ],
      [
        "Ġsu",
        "ccess"
      ],
      [
        "Ġb",
        "re"
      ],
      [
        "Ġa",
        "ut"
      ],
      [
        "if",
        "y"
      ],
      [
        "Ġa",
        "round"
      ],
      [
        "ĠF",
        "or"
      ],
      [
        "Ġs",
        "im"
      ],
      [
        "iet",
        "y"
      ],
      [
        "Ġsh",
        "ow"
      ],
      [
        "Ġpl",
        "an"
      ],
      [
        "Ġus",
        "er"
      ],
      [
        "Ġfor",
        "m"
      ],
      [
        "Ġc",
        "ur"
      ],
      [
        "ation",
        "al"
      ],
      [
        "Ġperson",
        "al"
      ],
      [
        "f",
        "ter"
      ],
      [
        "Ġf",
        "ood"
      ],
      [
        "Ġre",
        "f"
      ],
      [
        "us",
        "e"
      ],
      [
        "Ġre",
        "ad"
      ],
      [
        "Ġ",
        "ent"
      ],
      [
        "ot",
        "her"
      ],
      [
        "Ġcomp",
        "le"
      ],
      [
        "v",
        "iron"
      ],
      [
        "Ġg",
        "l"
      ],
      [
        "Ġb",
        "en"
      ],
      [
        "ere",
        "st"
      ],
      [
        "Ġind",
        "ust"
      ],
      [
        "l",
        "ing"
      ],
      [
        "v",
        "ed"
      ],
      [
        "Ġchall",
        "eng"
      ],
      [
        "Ġf",
        "ocus"
      ],
      [
        "S",
        "ure"
      ],
      [
        "Ġper",
        "form"
      ],
      [
        "Ġte",
        "xt"
      ],
      [
        "w",
        "are"
      ],
      [
        "w",
        "or"
      ],
      [
        "we",
        "en"
      ],
      [
        "Ġh",
        "im"
      ],
      [
        "Ġf",
        "irst"
      ],
      [
        "gg",
        "est"
      ],
      [
        "ic",
        "t"
      ],
      [
        "e",
        "c"
      ],
      [
        "t",
        "il"
      ],
      [
        "Ġd",
        "ay"
      ],
      [
        "Ġoff",
        "er"
      ],
      [
        "Ġpro",
        "ject"
      ],
      [
        "h",
        "ip"
      ],
      [
        "s",
        "elf"
      ],
      [
        "age",
        "ment"
      ],
      [
        "Ġbet",
        "ween"
      ],
      [
        "Ġprom",
        "ot"
      ],
      [
        "Ġl",
        "ist"
      ],
      [
        "n",
        "er"
      ],
      [
        "Ġsu",
        "ggest"
      ],
      [
        "le",
        "ase"
      ],
      [
        "Ġg",
        "r"
      ],
      [
        "p",
        "or"
      ],
      [
        "Ġd",
        "el"
      ],
      [
        "Ġen",
        "viron"
      ],
      [
        "Ġe",
        "nd"
      ],
      [
        "Ġm",
        "aking"
      ],
      [
        "ol",
        "s"
      ],
      [
        "Ġg",
        "roup"
      ],
      [
        "Ġ",
        "ess"
      ],
      [
        "in",
        "ing"
      ],
      [
        "Ġ",
        "ide"
      ],
      [
        "Ġcont",
        "ent"
      ],
      [
        "Ġc",
        "are"
      ],
      [
        "Ġunder",
        "stand"
      ],
      [
        "Ġind",
        "ivid"
      ],
      [
        "ak",
        "es"
      ],
      [
        "Ġint",
        "erest"
      ],
      [
        "Ġm",
        "ain"
      ],
      [
        "Ġun",
        "til"
      ],
      [
        "Ġwe",
        "bs"
      ],
      [
        "Ġcon",
        "c"
      ],
      [
        "v",
        "en"
      ],
      [
        "Ġd",
        "own"
      ],
      [
        "at",
        "h"
      ],
      [
        "Ġp",
        "res"
      ],
      [
        "Ġmus",
        "ic"
      ],
      [
        "el",
        "s"
      ],
      [
        "Ġa",
        "ud"
      ],
      [
        "ill",
        "s"
      ],
      [
        "b",
        "le"
      ],
      [
        "Ġ",
        "`"
      ],
      [
        "Ġres",
        "p"
      ],
      [
        "in",
        "s"
      ],
      [
        "Ġact",
        "iv"
      ],
      [
        "Ġst",
        "ory"
      ],
      [
        "Ġhe",
        "re"
      ],
      [
        "Ġg",
        "ra"
      ],
      [
        "id",
        "er"
      ],
      [
        "Ġun",
        "ique"
      ],
      [
        "Ġben",
        "ef"
      ],
      [
        "Ġpart",
        "ic"
      ],
      [
        "v",
        "ing"
      ],
      [
        "Ġg",
        "ener"
      ],
      [
        "Ġp",
        "op"
      ],
      [
        "A",
        "s"
      ],
      [
        "pl",
        "oy"
      ],
      [
        "Ġan",
        "al"
      ],
      [
        "Ġre",
        "se"
      ],
      [
        "w",
        "ays"
      ],
      [
        "n",
        "ect"
      ],
      [
        "r",
        "ies"
      ],
      [
        "he",
        "n"
      ],
      [
        "Ġc",
        "ount"
      ],
      [
        "ater",
        "ial"
      ],
      [
        "Ġfe",
        "at"
      ],
      [
        "Ġt",
        "ry"
      ],
      [
        "it",
        "ed"
      ],
      [
        "v",
        "es"
      ],
      [
        "Ġpro",
        "f"
      ],
      [
        "Ġtechn",
        "ology"
      ],
      [
        "iz",
        "ation"
      ],
      [
        "Ġs",
        "ound"
      ],
      [
        "ant",
        "s"
      ],
      [
        "on",
        "t"
      ],
      [
        "er",
        "m"
      ],
      [
        "ch",
        "o"
      ],
      [
        "Ġp",
        "ass"
      ],
      [
        "i",
        "er"
      ],
      [
        "Ġlear",
        "n"
      ],
      [
        "iv",
        "ers"
      ],
      [
        "Ġt",
        "ips"
      ],
      [
        "Ġb",
        "el"
      ],
      [
        "Ġl",
        "ove"
      ],
      [
        "Ġto",
        "get"
      ],
      [
        "Ġtoget",
        "her"
      ],
      [
        "Ġeffect",
        "ive"
      ],
      [
        "ab",
        "les"
      ],
      [
        "Ġcon",
        "f"
      ],
      [
        "Ġapp",
        "ro"
      ],
      [
        "ab",
        "ility"
      ],
      [
        "Ġon",
        "ly"
      ],
      [
        "oo",
        "king"
      ],
      [
        "ag",
        "ing"
      ],
      [
        "ĠThe",
        "se"
      ],
      [
        "av",
        "or"
      ],
      [
        "Ġke",
        "ep"
      ],
      [
        "i",
        "ed"
      ],
      [
        "Ġl",
        "ight"
      ],
      [
        "Ġen",
        "c"
      ],
      [
        "Ġstr",
        "ateg"
      ],
      [
        "Ġp",
        "ur"
      ],
      [
        "Ġa",
        "ff"
      ],
      [
        "Ġenviron",
        "ment"
      ],
      [
        "c",
        "ed"
      ],
      [
        "a",
        "z"
      ],
      [
        "Ġens",
        "ure"
      ],
      [
        "m",
        "er"
      ],
      [
        "v",
        "ent"
      ],
      [
        "Ġchar",
        "act"
      ],
      [
        "as",
        "h"
      ],
      [
        "ter",
        "n"
      ],
      [
        "Ġthe",
        "n"
      ],
      [
        "Ġf",
        "riend"
      ],
      [
        "Ġmarket",
        "ing"
      ],
      [
        "rib",
        "ut"
      ],
      [
        "Ġdevelop",
        "ment"
      ],
      [
        "Ġg",
        "ood"
      ],
      [
        "en",
        "ces"
      ],
      [
        "t",
        "y"
      ],
      [
        "a",
        "ut"
      ],
      [
        "Ġcont",
        "in"
      ],
      [
        "a",
        "ir"
      ],
      [
        "Ġm",
        "aterial"
      ],
      [
        "iv",
        "ing"
      ],
      [
        "Ġsu",
        "b"
      ],
      [
        "Ġd",
        "r"
      ],
      [
        "Ġpot",
        "ential"
      ],
      [
        "Ġc",
        "r"
      ],
      [
        "ĠE",
        "n"
      ],
      [
        "Ġb",
        "oth"
      ],
      [
        "Ġto",
        "p"
      ],
      [
        "Ġadd",
        "ition"
      ],
      [
        "Ġl",
        "ar"
      ],
      [
        "Ġb",
        "est"
      ],
      [
        "Ġres",
        "ult"
      ],
      [
        "Ġredu",
        "ce"
      ],
      [
        "omm",
        "end"
      ],
      [
        "Ġs",
        "ure"
      ],
      [
        "Ġm",
        "on"
      ],
      [
        "Ġ",
        "ident"
      ],
      [
        "ĠP",
        "ro"
      ],
      [
        "ĠHow",
        "ever"
      ],
      [
        "Ġex",
        "t"
      ],
      [
        "Ġbe",
        "ing"
      ],
      [
        "t",
        "ed"
      ],
      [
        "s",
        "s"
      ],
      [
        "Ġto",
        "o"
      ],
      [
        "iv",
        "en"
      ],
      [
        "ri",
        "pt"
      ],
      [
        "Ġle",
        "vel"
      ],
      [
        "Ġof",
        "ten"
      ],
      [
        "l",
        "u"
      ],
      [
        "at",
        "ch"
      ],
      [
        "ic",
        "ation"
      ],
      [
        "_",
        "_"
      ],
      [
        "at",
        "her"
      ],
      [
        "Ġst",
        "ep"
      ],
      [
        "Ġcl",
        "ass"
      ],
      [
        "Ġo",
        "b"
      ],
      [
        "Ġwebs",
        "ite"
      ],
      [
        "Ġw",
        "rit"
      ],
      [
        "n",
        "ce"
      ],
      [
        "Ġh",
        "ist"
      ],
      [
        ".",
        "\""
      ],
      [
        "Ġ",
        "$"
      ],
      [
        "oc",
        "k"
      ],
      [
        "Ġh",
        "um"
      ],
      [
        "Ġd",
        "ist"
      ],
      [
        "er",
        "c"
      ],
      [
        "Ġrec",
        "ommend"
      ],
      [
        "Ġle",
        "t"
      ],
      [
        "c",
        "om"
      ],
      [
        "d",
        "er"
      ],
      [
        "Ġem",
        "ot"
      ],
      [
        "Ġs",
        "om"
      ],
      [
        "ertain",
        "ly"
      ],
      [
        "Ġtw",
        "o"
      ],
      [
        "Ġ",
        "["
      ],
      [
        "b",
        "ers"
      ],
      [
        "Ġs",
        "ense"
      ],
      [
        "u",
        "als"
      ],
      [
        "Ġc",
        "our"
      ],
      [
        "Ġb",
        "rand"
      ],
      [
        "Ġfam",
        "ily"
      ],
      [
        "Ġcustom",
        "er"
      ],
      [
        "or",
        "por"
      ],
      [
        "Ġindust",
        "ry"
      ],
      [
        "d",
        "s"
      ],
      [
        "Ġst",
        "y"
      ],
      [
        "ĠA",
        "l"
      ],
      [
        "Ġpro",
        "t"
      ],
      [
        "Ġth",
        "ose"
      ],
      [
        "ĠI",
        "f"
      ],
      [
        "Ġg",
        "ive"
      ],
      [
        "i",
        "o"
      ],
      [
        "od",
        "e"
      ],
      [
        "Ġcommun",
        "ity"
      ],
      [
        "Ġdetail",
        "s"
      ],
      [
        "e",
        "e"
      ],
      [
        "re",
        "en"
      ],
      [
        "ire",
        "d"
      ],
      [
        "Ġstud",
        "ents"
      ],
      [
        "od",
        "y"
      ],
      [
        "e",
        "w"
      ],
      [
        "a",
        "ve"
      ],
      [
        "ang",
        "u"
      ],
      [
        "Ġal",
        "ways"
      ],
      [
        "Ġus",
        "ers"
      ],
      [
        "Ġre",
        "st"
      ],
      [
        "Ġc",
        "amp"
      ],
      [
        "Ġe",
        "ar"
      ],
      [
        "Ġloc",
        "al"
      ],
      [
        "Ġcon",
        "nect"
      ],
      [
        "a",
        "h"
      ],
      [
        "Ġm",
        "ind"
      ],
      [
        "Ġch",
        "ild"
      ],
      [
        "Ġrese",
        "arch"
      ],
      [
        "Ġf",
        "ac"
      ],
      [
        "ĠA",
        "n"
      ],
      [
        "ĠĠĠĠ",
        "ĠĠĠĠ"
      ],
      [
        "enc",
        "y"
      ],
      [
        "Ġcustom",
        "ers"
      ],
      [
        "or",
        "ies"
      ],
      [
        "Ġc",
        "ost"
      ],
      [
        "ust",
        "ain"
      ],
      [
        "Ġfeat",
        "ures"
      ],
      [
        "Ġp",
        "ub"
      ],
      [
        "Ġse",
        "ver"
      ],
      [
        "o",
        "ver"
      ],
      [
        "Y",
        "es"
      ],
      [
        "ist",
        "s"
      ],
      [
        "Ġpl",
        "ace"
      ],
      [
        "ou",
        "ra"
      ],
      [
        "Ġchalleng",
        "es"
      ],
      [
        "ch",
        "ie"
      ],
      [
        "T",
        "his"
      ],
      [
        "u",
        "ch"
      ],
      [
        "Ġa",
        "fter"
      ],
      [
        "ce",
        "pt"
      ],
      [
        "Ġinv",
        "ol"
      ],
      [
        "Ġcomp",
        "any"
      ],
      [
        "Ġexper",
        "i"
      ],
      [
        "c",
        "ing"
      ],
      [
        "Ġty",
        "p"
      ],
      [
        "Ġproduct",
        "s"
      ],
      [
        "Ġh",
        "ome"
      ],
      [
        "p",
        "s"
      ],
      [
        "Ġserv",
        "ices"
      ],
      [
        "Ġ",
        "{"
      ],
      [
        "u",
        "nd"
      ],
      [
        "Ġmin",
        "ut"
      ],
      [
        "at",
        "ural"
      ],
      [
        "at",
        "form"
      ],
      [
        "Ġbet",
        "ter"
      ],
      [
        "Ġimp",
        "lement"
      ],
      [
        "Ġag",
        "ain"
      ],
      [
        "ar",
        "get"
      ],
      [
        "C",
        "ertainly"
      ],
      [
        "t",
        "o"
      ],
      [
        "Ġo",
        "p"
      ],
      [
        "pp",
        "ed"
      ],
      [
        "ab",
        "or"
      ],
      [
        "el",
        "t"
      ],
      [
        "Ġsever",
        "al"
      ],
      [
        "Ġd",
        "on"
      ],
      [
        "Ġc",
        "ent"
      ],
      [
        "Ġres",
        "ources"
      ],
      [
        "res",
        "h"
      ],
      [
        "Ġsh",
        "are"
      ],
      [
        "b",
        "r"
      ],
      [
        "et",
        "s"
      ],
      [
        "Ġfun",
        "ction"
      ],
      [
        "Ġl",
        "angu"
      ],
      [
        "as",
        "on"
      ],
      [
        "Ġvar",
        "ious"
      ],
      [
        "Ġke",
        "y"
      ],
      [
        "l",
        "ight"
      ],
      [
        "Ġch",
        "ang"
      ],
      [
        "t",
        "le"
      ],
      [
        "Ġa",
        "chie"
      ],
      [
        "Ġso",
        "ft"
      ],
      [
        "Ġinv",
        "est"
      ],
      [
        "Ġbe",
        "h"
      ],
      [
        "in",
        "ed"
      ],
      [
        "w",
        "ay"
      ],
      [
        "ical",
        "ly"
      ],
      [
        "Ġtra",
        "dition"
      ],
      [
        "Ġyear",
        "s"
      ],
      [
        "Ġth",
        "ough"
      ],
      [
        "Ġrel",
        "ations"
      ],
      [
        "o",
        "pe"
      ],
      [
        "re",
        "ad"
      ],
      [
        "r",
        "ite"
      ],
      [
        "con",
        "om"
      ],
      [
        "it",
        "al"
      ],
      [
        "Ġed",
        "uc"
      ],
      [
        "Ġment",
        "al"
      ],
      [
        "ver",
        "all"
      ],
      [
        "Ġsk",
        "ills"
      ],
      [
        "pport",
        "un"
      ],
      [
        "Ġc",
        "up"
      ],
      [
        "Ġde",
        "f"
      ],
      [
        "Ġl",
        "a"
      ],
      [
        "b",
        "e"
      ],
      [
        "i",
        "el"
      ],
      [
        "Ġpl",
        "atform"
      ],
      [
        "j",
        "oy"
      ],
      [
        "Ġem",
        "ploy"
      ],
      [
        "e",
        "ad"
      ],
      [
        "'",
        "m"
      ],
      [
        "Ġd",
        "id"
      ],
      [
        "Ġs",
        "ustain"
      ],
      [
        ")",
        ";"
      ],
      [
        "Ġaud",
        "ience"
      ],
      [
        "v",
        "iew"
      ],
      [
        "is",
        "m"
      ],
      [
        "dition",
        "ally"
      ],
      [
        "ĠB",
        "y"
      ],
      [
        "re",
        "am"
      ],
      [
        "Ġo",
        "pportun"
      ],
      [
        "eth",
        "ing"
      ],
      [
        "ĠB",
        "ut"
      ],
      [
        "Ġde",
        "m"
      ],
      [
        "Ġnum",
        "ber"
      ],
      [
        "Ġimport",
        "ant"
      ],
      [
        "Ġre",
        "p"
      ],
      [
        "Ġf",
        "il"
      ],
      [
        "Ġs",
        "er"
      ],
      [
        "Ġo",
        "il"
      ],
      [
        "Ġinf",
        "lu"
      ],
      [
        "Ġ20",
        "1"
      ],
      [
        "ward",
        "s"
      ],
      [
        "Ġm",
        "et"
      ],
      [
        "Ġr",
        "ight"
      ],
      [
        "l",
        "us"
      ],
      [
        "Ġav",
        "ail"
      ],
      [
        "Ġc",
        "all"
      ],
      [
        "Ġminut",
        "es"
      ],
      [
        ")",
        "."
      ],
      [
        "Ġs",
        "elf"
      ],
      [
        "e",
        "x"
      ],
      [
        "Ġve",
        "get"
      ],
      [
        "Ġw",
        "ays"
      ],
      [
        "Ġopt",
        "ions"
      ],
      [
        "l",
        "ess"
      ],
      [
        "im",
        "es"
      ],
      [
        "er",
        "y"
      ],
      [
        "'",
        "re"
      ],
      [
        "Ġl",
        "ook"
      ],
      [
        "p",
        "r"
      ],
      [
        "u",
        "ally"
      ],
      [
        "Ġt",
        "arget"
      ],
      [
        "ĠU",
        "n"
      ],
      [
        "p",
        "o"
      ],
      [
        "t",
        "ain"
      ],
      [
        "d",
        "ay"
      ],
      [
        "er",
        "r"
      ],
      [
        "Ġsom",
        "ething"
      ],
      [
        "h",
        "an"
      ],
      [
        "ro",
        "ss"
      ],
      [
        "Ġcle",
        "ar"
      ],
      [
        "Ġbenef",
        "its"
      ],
      [
        "Ġst",
        "ill"
      ],
      [
        "Ġb",
        "o"
      ],
      [
        "Ġbe",
        "aut"
      ],
      [
        "Ġr",
        "ange"
      ],
      [
        "Ġt",
        "est"
      ],
      [
        "Ġlear",
        "ning"
      ],
      [
        "Ġt",
        "re"
      ],
      [
        "ĠE",
        "m"
      ],
      [
        "us",
        "h"
      ],
      [
        "c",
        "ript"
      ],
      [
        "pe",
        "nd"
      ],
      [
        "Ġp",
        "ain"
      ],
      [
        "it",
        "ions"
      ],
      [
        "o",
        "h"
      ],
      [
        "Ġis",
        "s"
      ],
      [
        "Ġcont",
        "ro"
      ],
      [
        "Ġp",
        "ast"
      ],
      [
        "Ġc",
        "ity"
      ],
      [
        "as",
        "es"
      ],
      [
        "Ġsu",
        "m"
      ],
      [
        "S",
        "t"
      ],
      [
        "Ġha",
        "pp"
      ],
      [
        "Ġf",
        "act"
      ],
      [
        "Ġs",
        "it"
      ],
      [
        "Ġab",
        "le"
      ],
      [
        "Ġn",
        "atural"
      ],
      [
        "wor",
        "k"
      ],
      [
        "Ġph",
        "ys"
      ],
      [
        "Ġlangu",
        "age"
      ],
      [
        "Ġtradition",
        "al"
      ],
      [
        "Ġpos",
        "itive"
      ],
      [
        "ra",
        "y"
      ],
      [
        "Ġon",
        "line"
      ],
      [
        "Ġpos",
        "s"
      ],
      [
        "Ġe",
        "conom"
      ],
      [
        "Ġk",
        "new"
      ],
      [
        "o",
        "id"
      ],
      [
        "Ġc",
        "or"
      ],
      [
        "es",
        "e"
      ],
      [
        "Ġa",
        "ir"
      ],
      [
        "ra",
        "p"
      ],
      [
        "a",
        "ign"
      ],
      [
        "Ġf",
        "elt"
      ],
      [
        "Ġm",
        "uch"
      ],
      [
        "Ġoff",
        "ers"
      ],
      [
        "Ġother",
        "s"
      ],
      [
        "ra",
        "ph"
      ],
      [
        "Ġb",
        "ased"
      ],
      [
        "Ġeas",
        "y"
      ],
      [
        "Ġindivid",
        "uals"
      ],
      [
        "h",
        "ips"
      ],
      [
        "ord",
        "ing"
      ],
      [
        "Ġne",
        "ver"
      ],
      [
        "u",
        "ce"
      ],
      [
        "red",
        "ients"
      ],
      [
        "th",
        "ing"
      ],
      [
        "Ġc",
        "al"
      ],
      [
        "ĠAd",
        "ditionally"
      ],
      [
        "Ġf",
        "ul"
      ],
      [
        "Ġincre",
        "ase"
      ],
      [
        "Ġre",
        "ally"
      ],
      [
        "il",
        "ities"
      ],
      [
        "Ġch",
        "ange"
      ],
      [
        "Ġneed",
        "s"
      ],
      [
        "``",
        "`"
      ],
      [
        "Ġm",
        "ess"
      ],
      [
        "ĠAd",
        "d"
      ],
      [
        "Ġpop",
        "ular"
      ],
      [
        "Ġe",
        "le"
      ],
      [
        "Ġr",
        "is"
      ],
      [
        "Ġt",
        "ell"
      ],
      [
        "at",
        "ely"
      ],
      [
        "Ġprovid",
        "es"
      ],
      [
        "le",
        "t"
      ],
      [
        "ou",
        "se"
      ],
      [
        "Ġt",
        "em"
      ],
      [
        "iqu",
        "es"
      ],
      [
        "Ġapp",
        "lic"
      ],
      [
        "Ġm",
        "om"
      ],
      [
        "in",
        "ation"
      ],
      [
        "Ġcon",
        "st"
      ],
      [
        "i",
        "pe"
      ],
      [
        "l",
        "abor"
      ],
      [
        "/",
        "/"
      ],
      [
        "ire",
        "ct"
      ],
      [
        "Ġro",
        "le"
      ],
      [
        "Ġhe",
        "art"
      ],
      [
        "and",
        "s"
      ],
      [
        "Ġp",
        "lease"
      ],
      [
        "Ġj",
        "our"
      ],
      [
        "us",
        "s"
      ],
      [
        "Ġm",
        "ove"
      ],
      [
        "em",
        "s"
      ],
      [
        "Ġwor",
        "ks"
      ],
      [
        "Ġch",
        "o"
      ],
      [
        "Ġde",
        "p"
      ],
      [
        "Ġcamp",
        "aign"
      ],
      [
        "Ġde",
        "v"
      ],
      [
        "Ġcreat",
        "ing"
      ],
      [
        "ĠR",
        "e"
      ],
      [
        "Ġbel",
        "ie"
      ],
      [
        "Ġc",
        "ook"
      ],
      [
        "ort",
        "s"
      ],
      [
        "Ġl",
        "it"
      ],
      [
        "Ġcol",
        "or"
      ],
      [
        "Ġwith",
        "out"
      ],
      [
        "Ġcom",
        "b"
      ],
      [
        "Ġre",
        "port"
      ],
      [
        "er",
        "n"
      ],
      [
        "Ġqu",
        "est"
      ],
      [
        "Ġp",
        "ie"
      ],
      [
        "Ġcom",
        "e"
      ],
      [
        "v",
        "ers"
      ],
      [
        "oo",
        "se"
      ],
      [
        "al",
        "e"
      ],
      [
        "re",
        "nt"
      ],
      [
        "Ġev",
        "ents"
      ],
      [
        "ĠA",
        "nd"
      ],
      [
        "b",
        "ack"
      ],
      [
        "os",
        "s"
      ],
      [
        "Ġgrow",
        "th"
      ],
      [
        "c",
        "i"
      ],
      [
        "Ġev",
        "ent"
      ],
      [
        "h",
        "or"
      ],
      [
        "Ġactiv",
        "ities"
      ],
      [
        "Ġpro",
        "per"
      ],
      [
        "Ġhelp",
        "s"
      ],
      [
        "Ġexpl",
        "ore"
      ],
      [
        "Ġbusiness",
        "es"
      ],
      [
        "Ġperform",
        "ance"
      ],
      [
        "ne",
        "y"
      ],
      [
        "Ġ",
        "6"
      ],
      [
        "al",
        "k"
      ],
      [
        "Ġinc",
        "orpor"
      ],
      [
        "Ġf",
        "ree"
      ],
      [
        "Ġin",
        "put"
      ],
      [
        "Ġm",
        "ot"
      ],
      [
        "Ġare",
        "as"
      ],
      [
        "Ġavail",
        "able"
      ],
      [
        "pp",
        "ing"
      ],
      [
        "Ġfriend",
        "s"
      ],
      [
        "Ġpo",
        "int"
      ],
      [
        "Ġf",
        "ore"
      ],
      [
        "Ġpub",
        "lic"
      ],
      [
        "Ġop",
        "en"
      ],
      [
        "Ġbec",
        "ome"
      ],
      [
        "Ġgo",
        "als"
      ],
      [
        "Ġse",
        "arch"
      ],
      [
        "ut",
        "ure"
      ],
      [
        "Ġst",
        "ay"
      ],
      [
        "Ġtechn",
        "iques"
      ],
      [
        "ill",
        "ed"
      ],
      [
        "er",
        "ing"
      ],
      [
        "Ġstud",
        "y"
      ],
      [
        "I",
        "t"
      ],
      [
        "iv",
        "ity"
      ],
      [
        "eth",
        "od"
      ],
      [
        "a",
        "pe"
      ],
      [
        "Ġto",
        "ols"
      ],
      [
        "ar",
        "ing"
      ],
      [
        "pp",
        "er"
      ],
      [
        "Ġqu",
        "ality"
      ],
      [
        "Ġhist",
        "ory"
      ],
      [
        "Ġst",
        "ru"
      ],
      [
        "Ġess",
        "ential"
      ],
      [
        "Ġp",
        "ost"
      ],
      [
        "Ġstr",
        "ong"
      ],
      [
        "cho",
        "ol"
      ],
      [
        "Ġsy",
        "m"
      ],
      [
        "Ġman",
        "agement"
      ],
      [
        "Ġcont",
        "ribut"
      ],
      [
        "Ġn",
        "ow"
      ],
      [
        "Ġ1",
        "9"
      ],
      [
        "Ġr",
        "un"
      ],
      [
        "f",
        "ect"
      ],
      [
        "Ġb",
        "ody"
      ],
      [
        "i",
        "or"
      ],
      [
        "at",
        "o"
      ],
      [
        "Ġf",
        "resh"
      ],
      [
        "-",
        "-"
      ],
      [
        "Ġint",
        "eg"
      ],
      [
        "Ġst",
        "ore"
      ],
      [
        "st",
        "r"
      ],
      [
        "Ġeff",
        "ic"
      ],
      [
        "Ġprof",
        "ess"
      ],
      [
        "c",
        "ial"
      ],
      [
        "Ġex",
        "erc"
      ],
      [
        "or",
        "ing"
      ],
      [
        "Ġh",
        "ope"
      ],
      [
        "Ġv",
        "ide"
      ],
      [
        "Ġme",
        "as"
      ],
      [
        "Ġfl",
        "avor"
      ],
      [
        "Ġtra",
        "ining"
      ],
      [
        "c",
        "are"
      ],
      [
        "iz",
        "ing"
      ],
      [
        "âĢ",
        "Ŀ"
      ],
      [
        "ĠE",
        "x"
      ],
      [
        "o",
        "ot"
      ],
      [
        "Ġ",
        "'"
      ],
      [
        "Ġf",
        "uture"
      ],
      [
        "as",
        "ing"
      ],
      [
        "ri",
        "ed"
      ],
      [
        "og",
        "n"
      ],
      [
        "ruct",
        "ure"
      ],
      [
        "Ġen",
        "joy"
      ],
      [
        "Ġanal",
        "y"
      ],
      [
        "i",
        "ke"
      ],
      [
        "Ġsuccess",
        "ful"
      ],
      [
        "Ġs",
        "ol"
      ],
      [
        "im",
        "ate"
      ],
      [
        "Ġenc",
        "oura"
      ],
      [
        "Ġe",
        "qu"
      ],
      [
        "Ġem",
        "ail"
      ],
      [
        "Ġn",
        "ut"
      ],
      [
        "at",
        "s"
      ],
      [
        "ver",
        "n"
      ],
      [
        "Ġcontro",
        "l"
      ],
      [
        "ĠB",
        "e"
      ],
      [
        "Ġm",
        "ethod"
      ],
      [
        "Ġ",
        "ing"
      ],
      [
        "Ġdif",
        "f"
      ],
      [
        "Ġsa",
        "id"
      ],
      [
        "Ġsystem",
        "s"
      ],
      [
        "Ġinter",
        "act"
      ],
      [
        "ĠS",
        "h"
      ],
      [
        "oo",
        "ks"
      ],
      [
        "Ġst",
        "and"
      ],
      [
        "Ġm",
        "ix"
      ],
      [
        "Ġserv",
        "ice"
      ],
      [
        "re",
        "t"
      ],
      [
        "Ġl",
        "ow"
      ],
      [
        "Ġcharact",
        "er"
      ],
      [
        "Ġprovid",
        "ing"
      ],
      [
        "ro",
        "du"
      ],
      [
        "ĠT",
        "o"
      ],
      [
        "Ġprogram",
        "s"
      ],
      [
        "Ġo",
        "per"
      ],
      [
        "Ġde",
        "ep"
      ],
      [
        "ĠA",
        "r"
      ],
      [
        "Ġfe",
        "ed"
      ],
      [
        "Ġknow",
        "n"
      ],
      [
        "b",
        "y"
      ],
      [
        "Ġth",
        "ink"
      ],
      [
        "Ġcour",
        "se"
      ],
      [
        "O",
        "verall"
      ],
      [
        "Ġlar",
        "ge"
      ],
      [
        "Ġvis",
        "it"
      ],
      [
        "Ġaddition",
        "al"
      ],
      [
        "Ġp",
        "ow"
      ],
      [
        "our",
        "s"
      ],
      [
        "w",
        "ord"
      ],
      [
        "we",
        "et"
      ],
      [
        "Ġm",
        "at"
      ],
      [
        "Ġident",
        "ify"
      ],
      [
        "Ġpract",
        "ices"
      ],
      [
        "Ġe",
        "y"
      ],
      [
        "Ġaff",
        "ect"
      ],
      [
        "Ġstru",
        "gg"
      ],
      [
        "Ġ",
        "est"
      ],
      [
        "Ġl",
        "im"
      ],
      [
        "Ġd",
        "ra"
      ],
      [
        "Ġe",
        "lect"
      ],
      [
        "Ġsa",
        "f"
      ],
      [
        "Ġv",
        "iew"
      ],
      [
        "ĠT",
        "h"
      ],
      [
        "Ġp",
        "a"
      ],
      [
        "olut",
        "ion"
      ],
      [
        "Ġm",
        "ust"
      ],
      [
        "Ġs",
        "ens"
      ],
      [
        "Ġadd",
        "ress"
      ],
      [
        "are",
        "d"
      ],
      [
        "Ġrec",
        "ipe"
      ],
      [
        "Ġh",
        "ard"
      ],
      [
        "Ġim",
        "m"
      ],
      [
        "g",
        "er"
      ],
      [
        "Ġgo",
        "vern"
      ],
      [
        "Ġg",
        "ame"
      ],
      [
        "Ġtrans",
        "port"
      ],
      [
        "Ġ",
        "#"
      ],
      [
        "Ġb",
        "ro"
      ],
      [
        "Ġsty",
        "le"
      ],
      [
        "em",
        "ber"
      ],
      [
        "Ġsa",
        "uce"
      ],
      [
        "Ġex",
        "c"
      ],
      [
        "Ġm",
        "ult"
      ],
      [
        "Ġcommun",
        "ication"
      ],
      [
        "Ġan",
        "im"
      ],
      [
        "ib",
        "ility"
      ],
      [
        "Ġl",
        "ess"
      ],
      [
        "Ġm",
        "il"
      ],
      [
        "i",
        "um"
      ],
      [
        "f",
        "ort"
      ],
      [
        "ight",
        "s"
      ],
      [
        "Ġprot",
        "ect"
      ],
      [
        ")",
        ","
      ],
      [
        "Ġwith",
        "in"
      ],
      [
        "Ġqu",
        "ick"
      ],
      [
        "Ġtyp",
        "es"
      ],
      [
        "Ġper",
        "fect"
      ],
      [
        "Ġhe",
        "ad"
      ],
      [
        "Ġstrateg",
        "ies"
      ],
      [
        "Ġphys",
        "ical"
      ],
      [
        "am",
        "es"
      ],
      [
        "z",
        "e"
      ],
      [
        "Ġt",
        "ru"
      ],
      [
        "Ġe",
        "l"
      ],
      [
        "Ġpres",
        "ent"
      ],
      [
        "ular",
        "ly"
      ],
      [
        "Ġmaterial",
        "s"
      ],
      [
        "Ġwor",
        "king"
      ],
      [
        "Ġj",
        "ob"
      ],
      [
        "Ġopt",
        "im"
      ],
      [
        "Ġcult",
        "ural"
      ],
      [
        "ĠP",
        "l"
      ],
      [
        "Ġdo",
        "es"
      ],
      [
        "Ġpromot",
        "e"
      ],
      [
        "Ġm",
        "ov"
      ],
      [
        "Ġre",
        "le"
      ],
      [
        "ain",
        "s"
      ],
      [
        "om",
        "p"
      ],
      [
        "ent",
        "ion"
      ],
      [
        "Ġhealth",
        "y"
      ],
      [
        "Ġ1",
        "0"
      ],
      [
        "og",
        "raph"
      ],
      [
        "Ġre",
        "new"
      ],
      [
        "Ġmain",
        "tain"
      ],
      [
        "Ġpre",
        "vent"
      ],
      [
        "Ġf",
        "ace"
      ],
      [
        "Ġst",
        "ress"
      ],
      [
        "le",
        "x"
      ],
      [
        "Ġcle",
        "an"
      ],
      [
        "ur",
        "ther"
      ],
      [
        "Ġw",
        "ind"
      ],
      [
        "n",
        "ces"
      ],
      [
        "Ġne",
        "g"
      ],
      [
        "ĠThe",
        "re"
      ],
      [
        "Ġspec",
        "ial"
      ],
      [
        ",",
        "\""
      ],
      [
        "g",
        "ar"
      ],
      [
        "Ġachie",
        "ve"
      ],
      [
        "ĠD",
        "o"
      ],
      [
        "Ġide",
        "as"
      ],
      [
        "Ġsp",
        "ace"
      ],
      [
        "Ġme",
        "et"
      ],
      [
        "Ġwe",
        "e"
      ],
      [
        "e",
        "es"
      ],
      [
        "c",
        "ome"
      ],
      [
        "Ġexperi",
        "ences"
      ],
      [
        "Ġeduc",
        "ation"
      ],
      [
        "Ġp",
        "ar"
      ],
      [
        "u",
        "gh"
      ],
      [
        "Ġan",
        "other"
      ],
      [
        "is",
        "ion"
      ],
      [
        "Ġcur",
        "rent"
      ],
      [
        "l",
        "ish"
      ],
      [
        "Ġsm",
        "o"
      ],
      [
        "ur",
        "ity"
      ],
      [
        "Ġto",
        "wards"
      ],
      [
        "Ġtra",
        "vel"
      ],
      [
        "Ġcomp",
        "et"
      ],
      [
        "Ġval",
        "ue"
      ],
      [
        "Ġt",
        "as"
      ],
      [
        "Ġ",
        "}"
      ],
      [
        "Ġover",
        "all"
      ],
      [
        "is",
        "ing"
      ],
      [
        "Ġd",
        "ig"
      ],
      [
        "Ġrequ",
        "ire"
      ],
      [
        "Ġd",
        "irect"
      ],
      [
        "Ġst",
        "ate"
      ],
      [
        "ĠI",
        "nd"
      ],
      [
        "Ġsoft",
        "ware"
      ],
      [
        "Ġv",
        "ers"
      ],
      [
        "ic",
        "ult"
      ],
      [
        "Ġm",
        "ight"
      ],
      [
        "Ġth",
        "ings"
      ],
      [
        "Ġare",
        "a"
      ],
      [
        "mer",
        "ic"
      ],
      [
        "b",
        "ased"
      ],
      [
        "Ġs",
        "ame"
      ],
      [
        "Ġup",
        "d"
      ],
      [
        "ren",
        "g"
      ],
      [
        "y",
        "c"
      ],
      [
        "Ġcol",
        "le"
      ],
      [
        "Ġhelp",
        "ed"
      ],
      [
        "pl",
        "ay"
      ],
      [
        "Ġfollow",
        "ing"
      ],
      [
        "av",
        "es"
      ],
      [
        "ĠW",
        "h"
      ],
      [
        "Ġs",
        "at"
      ],
      [
        "ĠâĢ",
        "ĵ"
      ],
      [
        "l",
        "and"
      ],
      [
        "iel",
        "d"
      ],
      [
        "n",
        "ers"
      ],
      [
        "Ġsustain",
        "able"
      ],
      [
        "Ġcomple",
        "x"
      ],
      [
        "Ġt",
        "reat"
      ],
      [
        "Ġre",
        "ce"
      ],
      [
        "Ġvar",
        "iety"
      ],
      [
        "an",
        "ies"
      ],
      [
        "lus",
        "ion"
      ],
      [
        "g",
        "in"
      ],
      [
        "Ġch",
        "ick"
      ],
      [
        "Ġg",
        "ar"
      ],
      [
        "Ġcult",
        "ure"
      ],
      [
        "Ġdet",
        "erm"
      ],
      [
        "our",
        "ce"
      ],
      [
        "ress",
        "ion"
      ],
      [
        "Ġinclud",
        "es"
      ],
      [
        "ir",
        "t"
      ],
      [
        "a",
        "use"
      ],
      [
        "is",
        "hed"
      ],
      [
        "Ġhum",
        "an"
      ],
      [
        "n",
        "ov"
      ],
      [
        "r",
        "ation"
      ],
      [
        "ĠâĢ",
        "ľ"
      ],
      [
        "Ġpol",
        "ic"
      ],
      [
        "r",
        "on"
      ],
      [
        "Ġin",
        "it"
      ],
      [
        "f",
        "act"
      ],
      [
        "Ġc",
        "ap"
      ],
      [
        "Ġing",
        "redients"
      ],
      [
        "in",
        "ce"
      ],
      [
        "he",
        "re"
      ],
      [
        "Ġc",
        "rit"
      ],
      [
        "Ġallow",
        "s"
      ],
      [
        "Ġcol",
        "labor"
      ],
      [
        "Ġbuild",
        "ing"
      ],
      [
        "Ġins",
        "p"
      ],
      [
        "Ġopportun",
        "ities"
      ],
      [
        "one",
        "y"
      ],
      [
        "Ġtra",
        "ck"
      ],
      [
        "Ġs",
        "un"
      ],
      [
        "ot",
        "e"
      ],
      [
        "Ġb",
        "al"
      ],
      [
        "ĠS",
        "c"
      ],
      [
        "id",
        "es"
      ],
      [
        "ĠC",
        "l"
      ],
      [
        "Ġro",
        "om"
      ],
      [
        "d",
        "e"
      ],
      [
        "Ġresp",
        "ons"
      ],
      [
        "Ġdiff",
        "icult"
      ],
      [
        "Ġwrit",
        "ing"
      ],
      [
        "al",
        "ing"
      ],
      [
        "Ġ",
        "es"
      ],
      [
        "Ġcons",
        "um"
      ],
      [
        "o",
        "ad"
      ],
      [
        "an",
        "ces"
      ],
      [
        "Ġl",
        "ast"
      ],
      [
        "Ġchild",
        "ren"
      ],
      [
        "Ġiss",
        "ues"
      ],
      [
        "Ġn",
        "et"
      ],
      [
        "Ġb",
        "reat"
      ],
      [
        "m",
        "e"
      ],
      [
        "a",
        "pt"
      ],
      [
        "'",
        "ll"
      ],
      [
        "as",
        "ter"
      ],
      [
        "Ġac",
        "ross"
      ],
      [
        "Ġst",
        "reng"
      ],
      [
        "Ġh",
        "ot"
      ],
      [
        "Ġpro",
        "ble"
      ],
      [
        "Ġjour",
        "ney"
      ],
      [
        "Ġcons",
        "ider"
      ],
      [
        "it",
        "ation"
      ],
      [
        "Ġbre",
        "ak"
      ],
      [
        "Ġele",
        "ments"
      ],
      [
        "re",
        "he"
      ],
      [
        "ĠIn",
        "st"
      ],
      [
        "Ġt",
        "urn"
      ],
      [
        "Ġthrough",
        "out"
      ],
      [
        "ff",
        "ic"
      ],
      [
        "Ġs",
        "ide"
      ],
      [
        "is",
        "es"
      ],
      [
        "Ġ",
        "0"
      ],
      [
        "j",
        "ust"
      ],
      [
        "t",
        "on"
      ],
      [
        "a",
        "j"
      ],
      [
        "Ġm",
        "ar"
      ],
      [
        "Ġr",
        "out"
      ],
      [
        "m",
        "on"
      ],
      [
        "c",
        "o"
      ],
      [
        "it",
        "ing"
      ],
      [
        "Ġmem",
        "bers"
      ],
      [
        "ĠD",
        "e"
      ],
      [
        "Ġhe",
        "at"
      ],
      [
        "Ġchang",
        "es"
      ],
      [
        "Ġ",
        "<"
      ],
      [
        "ot",
        "s"
      ],
      [
        "Ġt",
        "imes"
      ],
      [
        "Ġb",
        "ook"
      ],
      [
        "ru",
        "ction"
      ],
      [
        "Ġlevel",
        "s"
      ],
      [
        "ver",
        "t"
      ],
      [
        "Ġcomm",
        "on"
      ],
      [
        "os",
        "p"
      ],
      [
        "Ġob",
        "ject"
      ],
      [
        "Ġen",
        "h"
      ],
      [
        "Ġfeed",
        "back"
      ],
      [
        "Ġche",
        "ese"
      ],
      [
        "Ġt",
        "ast"
      ],
      [
        "Ġret",
        "urn"
      ],
      [
        "Ġsu",
        "pp"
      ],
      [
        "id",
        "d"
      ],
      [
        "Ġrenew",
        "able"
      ],
      [
        "Ġse",
        "ason"
      ],
      [
        "m",
        "ing"
      ],
      [
        "f",
        "riend"
      ],
      [
        "Ġagain",
        "st"
      ],
      [
        "Ġt",
        "er"
      ],
      [
        "Ġposs",
        "ible"
      ],
      [
        "Ġpre",
        "p"
      ],
      [
        "Ġbe",
        "gan"
      ],
      [
        "iv",
        "ed"
      ],
      [
        "r",
        "al"
      ],
      [
        "Ġpract",
        "ice"
      ],
      [
        "Ġph",
        "ot"
      ],
      [
        "Ġab",
        "ility"
      ],
      [
        "Ġfe",
        "ature"
      ],
      [
        "Ġre",
        "ach"
      ],
      [
        "Ġredu",
        "cing"
      ],
      [
        "r",
        "ast"
      ],
      [
        "ĠS",
        "ome"
      ],
      [
        "d",
        "itions"
      ],
      [
        "Ġstart",
        "ed"
      ],
      [
        "Ġty",
        "pe"
      ],
      [
        "W",
        "rite"
      ],
      [
        "ĠIn",
        "c"
      ],
      [
        "b",
        "o"
      ],
      [
        "Ġj",
        "o"
      ],
      [
        "Ġappro",
        "ach"
      ],
      [
        "2",
        "0"
      ],
      [
        "at",
        "or"
      ],
      [
        "The",
        "se"
      ],
      [
        "anc",
        "ed"
      ],
      [
        "oc",
        "i"
      ],
      [
        "an",
        "n"
      ],
      [
        "Ġg",
        "reen"
      ],
      [
        "ĠC",
        "on"
      ],
      [
        "Ġ",
        "7"
      ],
      [
        "Ġcomp",
        "anies"
      ],
      [
        "ard",
        "s"
      ],
      [
        "ent",
        "ly"
      ],
      [
        "ys",
        "is"
      ],
      [
        "Ġbr",
        "ing"
      ],
      [
        "ĠW",
        "ith"
      ],
      [
        "ruct",
        "ions"
      ],
      [
        "Ġex",
        "pect"
      ],
      [
        "Ġf",
        "it"
      ],
      [
        "anc",
        "ial"
      ],
      [
        "en",
        "e"
      ],
      [
        "Ġc",
        "ase"
      ],
      [
        "1",
        "0"
      ],
      [
        "if",
        "t"
      ],
      [
        "Ġm",
        "ag"
      ],
      [
        "iz",
        "ations"
      ],
      [
        "Ġpr",
        "int"
      ],
      [
        "Ġf",
        "und"
      ],
      [
        "ri",
        "or"
      ],
      [
        "re",
        "ate"
      ],
      [
        "ac",
        "ks"
      ],
      [
        "Ġs",
        "weet"
      ],
      [
        "Ġpe",
        "pper"
      ],
      [
        "Ġfeel",
        "ing"
      ],
      [
        "Ġle",
        "ft"
      ],
      [
        "on",
        "es"
      ],
      [
        "Ġdesign",
        "ed"
      ],
      [
        "ĠS",
        "p"
      ],
      [
        "Ġb",
        "as"
      ],
      [
        "Ġmom",
        "ent"
      ],
      [
        "Ġlead",
        "ing"
      ],
      [
        "Ġrep",
        "res"
      ],
      [
        "Ġpartic",
        "ip"
      ],
      [
        "Ġal",
        "ong"
      ],
      [
        "Ġle",
        "g"
      ],
      [
        "Ġne",
        "xt"
      ],
      [
        "00",
        "0"
      ],
      [
        "u",
        "g"
      ],
      [
        "v",
        "ant"
      ],
      [
        "ort",
        "h"
      ],
      [
        "Ġche",
        "ck"
      ],
      [
        "Ġt",
        "aking"
      ],
      [
        "im",
        "ent"
      ],
      [
        "il",
        "ar"
      ],
      [
        "it",
        "ut"
      ],
      [
        "ĠA",
        "meric"
      ],
      [
        "Ġcre",
        "am"
      ],
      [
        "Ġn",
        "ight"
      ],
      [
        "ra",
        "in"
      ],
      [
        "Ġp",
        "ay"
      ],
      [
        "Ġf",
        "re"
      ],
      [
        "Ġprog",
        "ress"
      ],
      [
        "ur",
        "y"
      ],
      [
        "Ġm",
        "iss"
      ],
      [
        "Ġacc",
        "ording"
      ],
      [
        "Ġde",
        "pend"
      ],
      [
        "Ġinflu",
        "enc"
      ],
      [
        "Ġbeh",
        "av"
      ],
      [
        "Ġf",
        "r"
      ],
      [
        "Ġav",
        "oid"
      ],
      [
        "led",
        "ge"
      ],
      [
        "n",
        "g"
      ],
      [
        "Ġc",
        "ode"
      ],
      [
        "Ġunderstand",
        "ing"
      ],
      [
        "Ġinter",
        "n"
      ],
      [
        "Ġn",
        "ature"
      ],
      [
        "Ġdes",
        "cript"
      ],
      [
        "Ġd",
        "ark"
      ],
      [
        "Ġs",
        "ources"
      ],
      [
        "ĠĠĠĠ",
        "ĠĠĠĠĠĠĠ"
      ],
      [
        "Ġa",
        "way"
      ],
      [
        "Ġneed",
        "ed"
      ],
      [
        "Ġbreat",
        "h"
      ],
      [
        "an",
        "k"
      ],
      [
        "Ġstep",
        "s"
      ],
      [
        "f",
        "ace"
      ],
      [
        "th",
        "s"
      ],
      [
        "Ġrelations",
        "hips"
      ],
      [
        "ac",
        "es"
      ],
      [
        "Ġcl",
        "os"
      ],
      [
        "g",
        "es"
      ],
      [
        "a",
        "ur"
      ],
      [
        "Ġn",
        "ame"
      ],
      [
        "Ġin",
        "nov"
      ],
      [
        "n",
        "am"
      ],
      [
        "ic",
        "ate"
      ],
      [
        "ĠW",
        "hen"
      ],
      [
        "Ġgovern",
        "ment"
      ],
      [
        "e",
        "le"
      ],
      [
        "Ġb",
        "at"
      ],
      [
        "Ġl",
        "ine"
      ],
      [
        "a",
        "f"
      ],
      [
        "Ġsal",
        "t"
      ],
      [
        "t",
        "t"
      ],
      [
        "Ġw",
        "arm"
      ],
      [
        "T",
        "han"
      ],
      [
        "Ġs",
        "chool"
      ],
      [
        "Ġdis",
        "h"
      ],
      [
        "W",
        "e"
      ],
      [
        "Ġeng",
        "aging"
      ],
      [
        "Ġgo",
        "ing"
      ],
      [
        "ĠR",
        "es"
      ],
      [
        "oh",
        "n"
      ],
      [
        "ro",
        "p"
      ],
      [
        "Ġcom",
        "fort"
      ],
      [
        "Ġveget",
        "ables"
      ],
      [
        "Ġl",
        "ay"
      ],
      [
        "cess",
        "ary"
      ],
      [
        "ĠN",
        "ew"
      ],
      [
        "Ġsh",
        "ort"
      ],
      [
        "u",
        "ed"
      ],
      [
        "Ġacc",
        "ount"
      ],
      [
        "s",
        "ide"
      ],
      [
        "du",
        "ct"
      ],
      [
        "Ġh",
        "old"
      ],
      [
        "if",
        "ied"
      ],
      [
        "Ġchick",
        "en"
      ],
      [
        "r",
        "ing"
      ],
      [
        "Ġ",
        "8"
      ],
      [
        "Ġs",
        "w"
      ],
      [
        "(",
        ")"
      ],
      [
        "Ġre",
        "d"
      ],
      [
        "Ġp",
        "ack"
      ],
      [
        "Ġs",
        "l"
      ],
      [
        "Ġh",
        "ig"
      ],
      [
        "Ġo",
        "ld"
      ],
      [
        "Ġl",
        "ooking"
      ],
      [
        "t",
        "he"
      ],
      [
        "Ġd",
        "i"
      ],
      [
        "friend",
        "ly"
      ],
      [
        "Ġeconom",
        "ic"
      ],
      [
        "Ġbec",
        "ause"
      ],
      [
        "ĠC",
        "ol"
      ],
      [
        "Ġ",
        "very"
      ],
      [
        "Ġn",
        "on"
      ],
      [
        "Ġp",
        "an"
      ],
      [
        "ĠW",
        "hat"
      ],
      [
        "p",
        "os"
      ],
      [
        "Ġf",
        "ile"
      ],
      [
        "Ġvis",
        "ual"
      ],
      [
        "Ġdisc",
        "uss"
      ],
      [
        "Ġfin",
        "ancial"
      ],
      [
        "T",
        "hat"
      ],
      [
        "__",
        "__"
      ],
      [
        "Ġad",
        "just"
      ],
      [
        "Ġli",
        "k"
      ],
      [
        "p",
        "ro"
      ],
      [
        "Ġs",
        "le"
      ],
      [
        "c",
        "ul"
      ],
      [
        "are",
        "nt"
      ],
      [
        "her",
        "s"
      ],
      [
        "Ġn",
        "av"
      ],
      [
        "iv",
        "al"
      ],
      [
        "Ġeffect",
        "s"
      ],
      [
        "Ġl",
        "and"
      ],
      [
        "en",
        "ing"
      ],
      [
        "a",
        "w"
      ],
      [
        "ist",
        "ic"
      ],
      [
        "Ġs",
        "n"
      ],
      [
        "ou",
        "n"
      ],
      [
        "Ġmod",
        "ern"
      ],
      [
        "Ġt",
        "ur"
      ],
      [
        "T",
        "o"
      ],
      [
        "Ġevery",
        "thing"
      ],
      [
        "Ġsound",
        "s"
      ],
      [
        "Ġo",
        "cc"
      ],
      [
        "Ġemot",
        "ional"
      ],
      [
        "ĠO",
        "ne"
      ],
      [
        "c",
        "hed"
      ],
      [
        "Ġc",
        "ra"
      ],
      [
        "Ġcol",
        "ors"
      ],
      [
        "Ġw",
        "om"
      ],
      [
        "ĠI",
        "m"
      ],
      [
        "Ġpur",
        "ch"
      ],
      [
        "Ġtechn",
        "olog"
      ],
      [
        "Ġtransport",
        "ation"
      ],
      [
        "ro",
        "om"
      ],
      [
        "Ġ",
        "Q"
      ],
      [
        "i",
        "res"
      ],
      [
        "Ġneg",
        "ative"
      ],
      [
        "un",
        "ch"
      ],
      [
        "ir",
        "d"
      ],
      [
        "or",
        "k"
      ],
      [
        "Ġam",
        "ong"
      ],
      [
        "Ġsym",
        "b"
      ],
      [
        "t",
        "ime"
      ],
      [
        "g",
        "le"
      ],
      [
        "op",
        "h"
      ],
      [
        "Ġsal",
        "es"
      ],
      [
        "ic",
        "ious"
      ],
      [
        "ful",
        "ness"
      ],
      [
        "ĠT",
        "e"
      ],
      [
        "c",
        "rib"
      ],
      [
        "Ġme",
        "an"
      ],
      [
        "he",
        "l"
      ],
      [
        "Ġs",
        "ou"
      ],
      [
        "Ġaut",
        "om"
      ],
      [
        "Ġimport",
        "ance"
      ],
      [
        "pl",
        "ace"
      ],
      [
        "c",
        "hes"
      ],
      [
        "Ġg",
        "re"
      ],
      [
        "o",
        "or"
      ],
      [
        "Ġth",
        "ree"
      ],
      [
        "ar",
        "r"
      ],
      [
        "Ġb",
        "le"
      ],
      [
        "Ġanal",
        "ysis"
      ],
      [
        "an",
        "e"
      ],
      [
        "Ġsim",
        "ple"
      ],
      [
        "Ġam",
        "ount"
      ],
      [
        "ag",
        "ed"
      ],
      [
        "Ġc",
        "ut"
      ],
      [
        "Ġl",
        "ed"
      ],
      [
        "i",
        "od"
      ],
      [
        "ĠS",
        "e"
      ],
      [
        "'",
        "ve"
      ],
      [
        "ot",
        "t"
      ],
      [
        "Ġsec",
        "ond"
      ],
      [
        "Ġplatform",
        "s"
      ],
      [
        "Ġk",
        "ind"
      ],
      [
        "Ġapplic",
        "ation"
      ],
      [
        "Ġca",
        "pt"
      ],
      [
        "f",
        "or"
      ],
      [
        "Ġor",
        "der"
      ],
      [
        "Ġaut",
        "hor"
      ],
      [
        "Ġf",
        "urther"
      ],
      [
        "ow",
        "l"
      ],
      [
        "ig",
        "ate"
      ],
      [
        "id",
        "ence"
      ],
      [
        "s",
        "ing"
      ],
      [
        "Ġto",
        "ol"
      ],
      [
        "el",
        "ves"
      ],
      [
        "ove",
        "red"
      ],
      [
        "Ġeffective",
        "ly"
      ],
      [
        "Ġh",
        "ours"
      ],
      [
        "Ġst",
        "at"
      ],
      [
        "Ġcharact",
        "ers"
      ],
      [
        "Ġfl",
        "ow"
      ],
      [
        "ail",
        "y"
      ],
      [
        "iz",
        "es"
      ],
      [
        "Ġknow",
        "ledge"
      ],
      [
        "row",
        "n"
      ],
      [
        "Ġne",
        "cessary"
      ],
      [
        "p",
        "ite"
      ],
      [
        "en",
        "ed"
      ],
      [
        "H",
        "ow"
      ],
      [
        "a",
        "pp"
      ],
      [
        "Ġmot",
        "iv"
      ],
      [
        "Ġst",
        "e"
      ],
      [
        "Ġus",
        "es"
      ],
      [
        "Ġv",
        "ol"
      ],
      [
        "Ġse",
        "em"
      ],
      [
        "Ġl",
        "ives"
      ],
      [
        "if",
        "ul"
      ],
      [
        "Ġg",
        "round"
      ],
      [
        "Ġemot",
        "ions"
      ],
      [
        "Ġmess",
        "age"
      ],
      [
        "Ġan",
        "x"
      ],
      [
        "ud",
        "e"
      ],
      [
        "Ġre",
        "view"
      ],
      [
        "Ġide",
        "a"
      ],
      [
        "ar",
        "ah"
      ],
      [
        "ob",
        "ile"
      ],
      [
        "Ġref",
        "lect"
      ],
      [
        "Ġsk",
        "in"
      ],
      [
        "Ġ",
        "//"
      ],
      [
        "Ġpa",
        "per"
      ],
      [
        "Ġm",
        "o"
      ],
      [
        "Ġsit",
        "u"
      ],
      [
        "Ġris",
        "k"
      ],
      [
        "s",
        "elves"
      ],
      [
        "Ġemploy",
        "ees"
      ],
      [
        "Ġb",
        "ar"
      ],
      [
        "Ġrec",
        "ogn"
      ],
      [
        "fere",
        "nces"
      ],
      [
        "Ġp",
        "ress"
      ],
      [
        "ĠC",
        "ons"
      ],
      [
        "Ġl",
        "ive"
      ],
      [
        "Ġs",
        "ize"
      ],
      [
        "O",
        "ne"
      ],
      [
        "Ġcontin",
        "ue"
      ],
      [
        "i",
        "xt"
      ],
      [
        "Ġful",
        "l"
      ],
      [
        "Ġsec",
        "urity"
      ],
      [
        "Ġhigh",
        "light"
      ],
      [
        "Ġrecommend",
        "ations"
      ],
      [
        "Ġsum",
        "m"
      ],
      [
        "Ġhelp",
        "ful"
      ],
      [
        "Ġcl",
        "imate"
      ],
      [
        "ip",
        "le"
      ],
      [
        "Ġ",
        "z"
      ],
      [
        "Ġprodu",
        "ction"
      ],
      [
        "Ġgar",
        "lic"
      ],
      [
        "all",
        "s"
      ],
      [
        "rehe",
        "ns"
      ],
      [
        "Ġf",
        "ru"
      ],
      [
        "Ġbut",
        "ter"
      ],
      [
        "Ġgu",
        "id"
      ],
      [
        "Ġbec",
        "ame"
      ],
      [
        "Ġquest",
        "ions"
      ],
      [
        "Ġch",
        "oose"
      ],
      [
        "Ġh",
        "y"
      ],
      [
        "Ġeng",
        "agement"
      ],
      [
        "B",
        "ut"
      ],
      [
        "Ġc",
        "ooking"
      ],
      [
        "Ġatt",
        "ention"
      ],
      [
        "Ġ",
        "Z"
      ],
      [
        "ell",
        "ing"
      ],
      [
        "Ġt",
        "our"
      ],
      [
        "Ġsp",
        "ir"
      ],
      [
        "um",
        "p"
      ],
      [
        "Ġsur",
        "v"
      ],
      [
        "id",
        "s"
      ],
      [
        "Ġorgan",
        "izations"
      ],
      [
        "or",
        "n"
      ],
      [
        "Ġcommun",
        "ities"
      ],
      [
        "Ġquick",
        "ly"
      ],
      [
        "Ġcount",
        "ry"
      ],
      [
        "Ġpro",
        "te"
      ],
      [
        "Ġad",
        "apt"
      ],
      [
        "Ġp",
        "rior"
      ],
      [
        "Ġca",
        "us"
      ],
      [
        "po",
        "on"
      ],
      [
        "Ġvide",
        "o"
      ],
      [
        "Ġbeaut",
        "y"
      ],
      [
        "Ġprofess",
        "ional"
      ],
      [
        "Ġey",
        "es"
      ],
      [
        "Ġrele",
        "vant"
      ],
      [
        "ĠB",
        "l"
      ],
      [
        "Ġd",
        "ays"
      ],
      [
        "Ġcount",
        "ries"
      ],
      [
        "Ġthe",
        "rap"
      ],
      [
        "Ġthough",
        "t"
      ],
      [
        "Ġyour",
        "self"
      ],
      [
        "Ġrest",
        "aur"
      ],
      [
        "Ġindivid",
        "ual"
      ],
      [
        "Ġm",
        "akes"
      ],
      [
        "g",
        "ed"
      ],
      [
        "St",
        "ep"
      ],
      [
        "on",
        "se"
      ],
      [
        "Ġhealth",
        "care"
      ],
      [
        "v",
        "al"
      ],
      [
        "er",
        "ve"
      ],
      [
        "Ġbl",
        "ack"
      ],
      [
        "Ġp",
        "ut"
      ],
      [
        "i",
        "k"
      ],
      [
        "Ġdetail",
        "ed"
      ],
      [
        "Ġd",
        "ue"
      ],
      [
        "Ġpower",
        "ful"
      ],
      [
        "Ġbeaut",
        "iful"
      ],
      [
        "Ġpl",
        "ant"
      ],
      [
        "Ġtem",
        "per"
      ],
      [
        "ore",
        "d"
      ],
      [
        "Ġa",
        "ction"
      ],
      [
        "Ġenh",
        "ance"
      ],
      [
        "Ġbe",
        "gin"
      ],
      [
        "Ġd",
        "aily"
      ],
      [
        "Ġincre",
        "ased"
      ],
      [
        "p",
        "ar"
      ],
      [
        "Ġsat",
        "is"
      ],
      [
        "Ġt",
        "ri"
      ],
      [
        "g",
        "round"
      ],
      [
        "ĠY",
        "our"
      ],
      [
        "Ġman",
        "age"
      ],
      [
        "Ġcreat",
        "ive"
      ],
      [
        "u",
        "ra"
      ],
      [
        "g",
        "ing"
      ],
      [
        "is",
        "ed"
      ],
      [
        "il",
        "t"
      ],
      [
        "Ġar",
        "ch"
      ],
      [
        "Ġl",
        "og"
      ],
      [
        "il",
        "i"
      ],
      [
        "Ġeffic",
        "ient"
      ],
      [
        "irt",
        "ual"
      ],
      [
        "Ġsur",
        "round"
      ],
      [
        "in",
        "a"
      ],
      [
        "Ġwas",
        "te"
      ],
      [
        "Ġresult",
        "s"
      ],
      [
        "ill",
        "ing"
      ],
      [
        "Ġcomp",
        "rehens"
      ],
      [
        "Ġass",
        "oci"
      ],
      [
        "Ġproject",
        "s"
      ],
      [
        "Ġdel",
        "i"
      ],
      [
        "f",
        "er"
      ],
      [
        "Ġreal",
        "ized"
      ],
      [
        "Ġfact",
        "ors"
      ],
      [
        "Ġgl",
        "ob"
      ],
      [
        "Ġdig",
        "ital"
      ],
      [
        "Ġsuggest",
        "ions"
      ],
      [
        "s",
        "h"
      ],
      [
        "at",
        "ives"
      ],
      [
        "ĠM",
        "ar"
      ],
      [
        "Ġh",
        "om"
      ],
      [
        "Ġse",
        "en"
      ],
      [
        "Ġp",
        "ort"
      ],
      [
        "ill",
        "ion"
      ],
      [
        "ĠR",
        "em"
      ],
      [
        "Ġco",
        "ol"
      ],
      [
        "Ġcont",
        "ain"
      ],
      [
        "le",
        "y"
      ],
      [
        "Ġb",
        "owl"
      ],
      [
        "Ġest",
        "ab"
      ],
      [
        "Ġw",
        "in"
      ],
      [
        "ĠI",
        "s"
      ],
      [
        "Ġa",
        "ware"
      ],
      [
        "Ġgu",
        "ide"
      ],
      [
        "Ġess",
        "ay"
      ],
      [
        "Ġl",
        "iving"
      ],
      [
        "Ġim",
        "ages"
      ],
      [
        "Ġco",
        "ver"
      ],
      [
        "Ġne",
        "ar"
      ],
      [
        "Ġtast",
        "e"
      ],
      [
        "Ġwor",
        "ds"
      ],
      [
        "Ġprovid",
        "ed"
      ],
      [
        "Ġper",
        "iod"
      ],
      [
        "Ġcon",
        "vers"
      ],
      [
        "av",
        "ing"
      ],
      [
        "ato",
        "es"
      ],
      [
        "Ġm",
        "ach"
      ],
      [
        "Ġ",
        "ill"
      ],
      [
        "re",
        "ci"
      ],
      [
        "Ġd",
        "est"
      ],
      [
        "t",
        "ers"
      ],
      [
        "Ġab",
        "ove"
      ],
      [
        "Ġadd",
        "ing"
      ],
      [
        "Ġlit",
        "tle"
      ],
      [
        "ĠM",
        "ake"
      ],
      [
        "(",
        "\""
      ],
      [
        "nd",
        "s"
      ],
      [
        "ter",
        "ns"
      ],
      [
        "Ġenvironment",
        "al"
      ],
      [
        "Ġatt",
        "ract"
      ],
      [
        "Ġs",
        "ing"
      ],
      [
        "ixt",
        "ure"
      ],
      [
        "Ġeff",
        "orts"
      ],
      [
        "Ġm",
        "aj"
      ],
      [
        "Ġdis",
        "hes"
      ],
      [
        "b",
        "on"
      ],
      [
        "u",
        "ment"
      ],
      [
        "Ġam",
        "az"
      ],
      [
        "Ġt",
        "ou"
      ],
      [
        "Ġcons",
        "ist"
      ],
      [
        "Ġcould",
        "n"
      ],
      [
        "Ġg",
        "iven"
      ],
      [
        "pt",
        "ion"
      ],
      [
        "Ġstr",
        "ing"
      ],
      [
        "Ġe",
        "ver"
      ],
      [
        "Ġexpl",
        "ain"
      ],
      [
        "Ġex",
        "ce"
      ],
      [
        "in",
        "ally"
      ],
      [
        "b",
        "ook"
      ],
      [
        "ele",
        "br"
      ],
      [
        "Ġsmo",
        "oth"
      ],
      [
        "Ġrepres",
        "ent"
      ],
      [
        "Ġ",
        "&"
      ],
      [
        "Ġf",
        "avor"
      ],
      [
        "Ġb",
        "ig"
      ],
      [
        "he",
        "ad"
      ],
      [
        "Ġse",
        "lect"
      ],
      [
        "Ġw",
        "ond"
      ],
      [
        "Ġl",
        "ov"
      ],
      [
        "u",
        "ro"
      ],
      [
        "Ġg",
        "ain"
      ],
      [
        "it",
        "ude"
      ],
      [
        "en",
        "ge"
      ],
      [
        "Ġbehav",
        "ior"
      ],
      [
        "at",
        "ors"
      ],
      [
        "Ġmult",
        "iple"
      ],
      [
        "Ġapp",
        "reci"
      ],
      [
        "o",
        "f"
      ],
      [
        "olut",
        "ions"
      ],
      [
        "Ġencoura",
        "ge"
      ],
      [
        "um",
        "b"
      ],
      [
        "Ġdel",
        "icious"
      ],
      [
        "Ġincre",
        "asing"
      ],
      [
        "Ġth",
        "in"
      ],
      [
        "in",
        "al"
      ],
      [
        "Ġanx",
        "iety"
      ],
      [
        "Ġher",
        "self"
      ],
      [
        "ivers",
        "ity"
      ],
      [
        "Ġrem",
        "ind"
      ],
      [
        "ast",
        "ic"
      ],
      [
        "Ġloc",
        "ation"
      ],
      [
        "ve",
        "y"
      ],
      [
        "Ġconc",
        "lusion"
      ],
      [
        "at",
        "ic"
      ],
      [
        "Ġal",
        "m"
      ],
      [
        "Ġm",
        "ixture"
      ],
      [
        ".",
        "."
      ],
      [
        "A",
        "nd"
      ],
      [
        "Ġs",
        "low"
      ],
      [
        "Ġa",
        "im"
      ],
      [
        "Ġcomprehens",
        "ive"
      ],
      [
        "Ġpat",
        "terns"
      ],
      [
        "Ġb",
        "ud"
      ],
      [
        "ĠM",
        "ay"
      ],
      [
        "em",
        "ic"
      ],
      [
        "Ġcreat",
        "ed"
      ],
      [
        "n",
        "a"
      ],
      [
        "iven",
        "ess"
      ],
      [
        ")",
        ":"
      ],
      [
        "Ġc",
        "ru"
      ],
      [
        "Ġstrateg",
        "y"
      ],
      [
        "Ġbal",
        "ance"
      ],
      [
        "Ġim",
        "ag"
      ],
      [
        "Ġ",
        "err"
      ],
      [
        "Ġf",
        "oot"
      ],
      [
        "Ġrem",
        "ain"
      ],
      [
        "Ġto",
        "m"
      ],
      [
        "as",
        "c"
      ],
      [
        "ac",
        "y"
      ],
      [
        "e",
        "y"
      ],
      [
        "ĠJ",
        "ohn"
      ],
      [
        "Ġlearn",
        "ed"
      ],
      [
        "Ġar",
        "r"
      ],
      [
        "op",
        "s"
      ],
      [
        "Ġc",
        "ell"
      ],
      [
        "Ġshow",
        "c"
      ],
      [
        "qu",
        "ality"
      ],
      [
        "olut",
        "ely"
      ],
      [
        "Ġcost",
        "s"
      ],
      [
        "Ġen",
        "ough"
      ],
      [
        "Ġhe",
        "av"
      ],
      [
        "Ġt",
        "akes"
      ],
      [
        "it",
        "es"
      ],
      [
        "Ġtoo",
        "k"
      ],
      [
        "ivers",
        "e"
      ],
      [
        "Ġtry",
        "ing"
      ],
      [
        "Ġval",
        "ues"
      ],
      [
        "ic",
        "ed"
      ],
      [
        "Ġyou",
        "ng"
      ],
      [
        "Ġsle",
        "ep"
      ],
      [
        "Ġhig",
        "her"
      ],
      [
        "g",
        "or"
      ],
      [
        "Ġcon",
        "ditions"
      ],
      [
        "Ġp",
        "ric"
      ],
      [
        "Ġvers",
        "ion"
      ],
      [
        "Ġf",
        "ield"
      ],
      [
        "Ġinit",
        "i"
      ],
      [
        "pe",
        "cial"
      ],
      [
        "Ġpartic",
        "ularly"
      ],
      [
        "Ġsa",
        "w"
      ],
      [
        "ed",
        "s"
      ],
      [
        "Ġbeh",
        "ind"
      ],
      [
        "F",
        "or"
      ],
      [
        "it",
        "ect"
      ],
      [
        "Ġvar",
        "i"
      ],
      [
        "ĠEn",
        "g"
      ],
      [
        "out",
        "h"
      ],
      [
        "Ġdis",
        "e"
      ],
      [
        "Ġtas",
        "ks"
      ],
      [
        "Ġem",
        "b"
      ],
      [
        "Ġdis",
        "play"
      ],
      [
        "Ġcomp",
        "ut"
      ],
      [
        "Ġ",
        "9"
      ],
      [
        "Ġrelations",
        "hip"
      ],
      [
        "Ġpo",
        "em"
      ],
      [
        "p",
        "ose"
      ],
      [
        "Ġp",
        "age"
      ],
      [
        "Ġwe",
        "b"
      ],
      [
        "Ġpie",
        "ce"
      ],
      [
        "Ġresp",
        "onse"
      ],
      [
        "Ġdev",
        "ices"
      ],
      [
        "ang",
        "er"
      ],
      [
        "im",
        "ately"
      ],
      [
        "Ġem",
        "erg"
      ],
      [
        "m",
        "a"
      ],
      [
        "Ġs",
        "ince"
      ],
      [
        "est",
        "s"
      ],
      [
        "Ġsome",
        "one"
      ],
      [
        "c",
        "king"
      ],
      [
        "Ġinvol",
        "ves"
      ],
      [
        "ul",
        "ation"
      ],
      [
        "m",
        "an"
      ],
      [
        "Ġl",
        "ower"
      ],
      [
        "nd",
        "ing"
      ],
      [
        "Ġsc",
        "he"
      ],
      [
        "c",
        "ent"
      ],
      [
        "Ġg",
        "en"
      ],
      [
        "Ġear",
        "ly"
      ],
      [
        "Ġinterest",
        "ing"
      ],
      [
        "Ġopt",
        "ion"
      ],
      [
        "Ġim",
        "age"
      ],
      [
        "ic",
        "le"
      ],
      [
        "Ġm",
        "obile"
      ],
      [
        "Ġan",
        "t"
      ],
      [
        "ĠD",
        "es"
      ],
      [
        "ers",
        "on"
      ],
      [
        "gor",
        "ith"
      ],
      [
        "Ġmon",
        "it"
      ],
      [
        "Ġc",
        "ame"
      ],
      [
        "Ġas",
        "k"
      ],
      [
        "Ġg",
        "ard"
      ],
      [
        "Ġt",
        "ables"
      ],
      [
        "d",
        "ing"
      ],
      [
        "Ġpersonal",
        "ized"
      ],
      [
        "Ġdid",
        "n"
      ],
      [
        "ac",
        "hes"
      ],
      [
        "h",
        "a"
      ],
      [
        "Ġadd",
        "ed"
      ],
      [
        "Ġprote",
        "in"
      ],
      [
        "Ġapp",
        "e"
      ],
      [
        "Ġexperi",
        "enc"
      ],
      [
        "Ġsu",
        "gar"
      ],
      [
        "Ġon",
        "ce"
      ],
      [
        "ĠA",
        "m"
      ],
      [
        "Ġj",
        "u"
      ],
      [
        "Ġl",
        "if"
      ],
      [
        "ach",
        "ing"
      ],
      [
        "Ġeng",
        "ine"
      ],
      [
        "Ġlik",
        "ely"
      ],
      [
        "Ġcom",
        "es"
      ],
      [
        "c",
        "ape"
      ],
      [
        "Ġmin",
        "im"
      ],
      [
        "ist",
        "ance"
      ],
      [
        "ow",
        "s"
      ],
      [
        "Ġh",
        "ouse"
      ],
      [
        "ĠH",
        "er"
      ],
      [
        "Ġle",
        "ast"
      ],
      [
        "Ġs",
        "ource"
      ],
      [
        "Ġthem",
        "selves"
      ],
      [
        "A",
        "n"
      ],
      [
        "Ġe",
        "gg"
      ],
      [
        "ĠS",
        "u"
      ],
      [
        "Ġcomm",
        "it"
      ],
      [
        "W",
        "hat"
      ],
      [
        "ur",
        "s"
      ],
      [
        "Ġs",
        "ong"
      ],
      [
        "o",
        "ice"
      ],
      [
        "Ġexerc",
        "ises"
      ],
      [
        "Ġsim",
        "ilar"
      ],
      [
        "Ġa",
        "p"
      ],
      [
        "Ġsymb",
        "ol"
      ],
      [
        "Ġw",
        "a"
      ],
      [
        "Ġtechnolog",
        "ies"
      ],
      [
        "Ġw",
        "ar"
      ],
      [
        "Ġto",
        "day"
      ],
      [
        "Ġactiv",
        "ity"
      ],
      [
        "Ġs",
        "olutions"
      ],
      [
        "Ġmaj",
        "or"
      ],
      [
        "c",
        "y"
      ],
      [
        "Ġorgan",
        "ization"
      ],
      [
        "Ġm",
        "en"
      ],
      [
        "Ġhapp",
        "y"
      ],
      [
        "eng",
        "th"
      ],
      [
        "ph",
        "as"
      ],
      [
        "z",
        "z"
      ],
      [
        "ĠT",
        "ra"
      ],
      [
        "Ġw",
        "alk"
      ],
      [
        "Ġdevelop",
        "ing"
      ],
      [
        "W",
        "ow"
      ],
      [
        "Ġ",
        "+"
      ],
      [
        "Ġinst",
        "all"
      ],
      [
        "Ġit",
        "ems"
      ],
      [
        "Ġo",
        "l"
      ],
      [
        "ĠC",
        "he"
      ],
      [
        "ĠM",
        "ed"
      ],
      [
        "Ã",
        "©"
      ],
      [
        "Ġd",
        "am"
      ],
      [
        "ĠO",
        "r"
      ],
      [
        "Ġal",
        "gorith"
      ],
      [
        "w",
        "er"
      ],
      [
        "Ġmod",
        "el"
      ],
      [
        "h",
        "ood"
      ],
      [
        "ĠC",
        "omm"
      ],
      [
        "s",
        "p"
      ],
      [
        "Ġatt",
        "end"
      ],
      [
        "Ġpol",
        "it"
      ],
      [
        "Ġs",
        "qu"
      ],
      [
        "ĠA",
        "pp"
      ],
      [
        "Ġpre",
        "d"
      ],
      [
        "Ġinvol",
        "ved"
      ],
      [
        "Ġtr",
        "ust"
      ],
      [
        "Ġar",
        "ray"
      ],
      [
        "ific",
        "ation"
      ],
      [
        "Ġl",
        "ost"
      ],
      [
        "Ġarch",
        "itect"
      ],
      [
        "Ġstreng",
        "th"
      ],
      [
        "Ġ",
        "ut"
      ],
      [
        "Ġme",
        "ans"
      ],
      [
        "Ġle",
        "aves"
      ],
      [
        "Ġb",
        "ur"
      ],
      [
        "Ġc",
        "elebr"
      ],
      [
        "Ġtrans",
        "form"
      ],
      [
        "et",
        "y"
      ],
      [
        "Ġext",
        "ra"
      ],
      [
        "oo",
        "gle"
      ],
      [
        "Ġcont",
        "act"
      ],
      [
        "Ġfac",
        "ed"
      ],
      [
        "Ġst",
        "ructure"
      ],
      [
        "Ġamaz",
        "ing"
      ],
      [
        "ĠS",
        "arah"
      ],
      [
        "Ġeas",
        "ily"
      ],
      [
        "ip",
        "ment"
      ],
      [
        "Ġt",
        "al"
      ],
      [
        "ul",
        "l"
      ],
      [
        "Ġimpro",
        "ving"
      ],
      [
        "Ġ",
        "ur"
      ],
      [
        "Ġgo",
        "al"
      ],
      [
        "Ġbud",
        "get"
      ],
      [
        "C",
        "h"
      ],
      [
        "Ġgroup",
        "s"
      ],
      [
        "Ġw",
        "ide"
      ],
      [
        "Ġst",
        "ories"
      ],
      [
        "ou",
        "d"
      ],
      [
        "Ġcrit",
        "ical"
      ],
      [
        "Ġwh",
        "y"
      ],
      [
        "Ġexp",
        "ress"
      ],
      [
        "Ġbec",
        "om"
      ],
      [
        "Ġcampaign",
        "s"
      ],
      [
        "m",
        "ed"
      ],
      [
        "ĠN",
        "ame"
      ],
      [
        "Ġf",
        "arm"
      ],
      [
        "Ġmed",
        "itation"
      ],
      [
        "Ġmind",
        "fulness"
      ],
      [
        "Ġp",
        "arent"
      ],
      [
        "y",
        "m"
      ],
      [
        "u",
        "ck"
      ],
      [
        "Ġu",
        "nd"
      ],
      [
        "Ġor",
        "ig"
      ],
      [
        "ĠĠĠĠ",
        "Ġ"
      ],
      [
        "Ġback",
        "ground"
      ],
      [
        "Ġs",
        "lic"
      ],
      [
        "r",
        "ist"
      ],
      [
        "Ġreg",
        "ular"
      ],
      [
        "Ġd",
        "ream"
      ],
      [
        "Ġel",
        "se"
      ],
      [
        "ff",
        "ee"
      ],
      [
        "e",
        "xt"
      ],
      [
        "ĠC",
        "ar"
      ],
      [
        "Ġo",
        "ven"
      ],
      [
        "Ġinst",
        "ead"
      ],
      [
        "l",
        "ife"
      ],
      [
        "Ġcho",
        "pped"
      ],
      [
        "c",
        "er"
      ],
      [
        "Ġw",
        "ood"
      ],
      [
        "ir",
        "c"
      ],
      [
        "Ġl",
        "ot"
      ],
      [
        "Ġtru",
        "e"
      ],
      [
        "Ġsal",
        "ad"
      ],
      [
        "Ġinterest",
        "ed"
      ],
      [
        "Ġter",
        "ms"
      ],
      [
        "Ġrel",
        "ated"
      ],
      [
        "Ġins",
        "ights"
      ],
      [
        "Ġment",
        "ion"
      ],
      [
        "Ġon",
        "es"
      ],
      [
        "Ġex",
        "ist"
      ],
      [
        "iss",
        "ions"
      ],
      [
        "ĠL",
        "e"
      ],
      [
        "Ġas",
        "pect"
      ],
      [
        "Ġy",
        "og"
      ],
      [
        "Ġv",
        "irtual"
      ],
      [
        "Ġcall",
        "ed"
      ],
      [
        "Ġpat",
        "h"
      ],
      [
        "c",
        "ient"
      ],
      [
        "Ġchall",
        "enge"
      ],
      [
        "Ġelect",
        "ric"
      ],
      [
        "Ġem",
        "phas"
      ],
      [
        "Ġrel",
        "ax"
      ],
      [
        "Ġfavor",
        "ite"
      ],
      [
        "i",
        "ans"
      ],
      [
        "ĠA",
        "ll"
      ],
      [
        "Ġreg",
        "ion"
      ],
      [
        "Ġexerc",
        "ise"
      ],
      [
        "Ġmethod",
        "s"
      ],
      [
        "Ġw",
        "al"
      ],
      [
        "Ġinst",
        "ructions"
      ],
[...]
